{
  "version": "1.0",
  "truncation": null,
  "padding": null,
  "added_tokens": [
    {
      "id": 0,
      "content": "<|endoftext|>",
      "single_word": false,
      "lstrip": false,
      "rstrip": false,
      "normalized": false,
      "special": true
    },
    {
      "id": 1,
      "content": "<|user|>",
      "single_word": false,
      "lstrip": false,
      "rstrip": false,
      "normalized": false,
      "special": true
    },
    {
      "id": 2,
      "content": "<|assistant|>",
      "single_word": false,
      "lstrip": false,
      "rstrip": false,
      "normalized": false,
      "special": true
    }
  ],
  "normalizer": null,
  "pre_tokenizer": {
    "type": "ByteLevel",
    "add_prefix_space": false,
    "trim_offsets": true,
    "use_regex": true
  },
  "post_processor": null,
  "decoder": {
    "type": "ByteLevel",
    "add_prefix_space": true,
    "trim_offsets": true,
    "use_regex": true
  },
  "model": {
    "type": "BPE",
    "dropout": null,
    "unk_token": null,
    "continuing_subword_prefix": null,
    "end_of_word_suffix": null,
    "fuse_unk": false,
    "byte_fallback": false,
    "ignore_merges": false,
    "vocab": {
      "<|endoftext|>": 0,
      "<|user|>": 1,
      "<|assistant|>": 2,
      "!": 3,
      "\"": 4,
      "#": 5,
      "$": 6,
      "%": 7,
      "&": 8,
      "'": 9,
      "(": 10,
      ")": 11,
      "*": 12,
      "+": 13,
      ",": 14,
      "-": 15,
      ".": 16,
      "/": 17,
      "0": 18,
      "1": 19,
      "2": 20,
      "3": 21,
      "4": 22,
      "5": 23,
      "6": 24,
      "7": 25,
      "8": 26,
      "9": 27,
      ":": 28,
      ";": 29,
      "<": 30,
      "=": 31,
      ">": 32,
      "?": 33,
      "@": 34,
      "A": 35,
      "B": 36,
      "C": 37,
      "D": 38,
      "E": 39,
      "F": 40,
      "G": 41,
      "H": 42,
      "I": 43,
      "J": 44,
      "K": 45,
      "L": 46,
      "M": 47,
      "N": 48,
      "O": 49,
      "P": 50,
      "Q": 51,
      "R": 52,
      "S": 53,
      "T": 54,
      "U": 55,
      "V": 56,
      "W": 57,
      "X": 58,
      "Y": 59,
      "Z": 60,
      "[": 61,
      "\\": 62,
      "]": 63,
      "^": 64,
      "_": 65,
      "`": 66,
      "a": 67,
      "b": 68,
      "c": 69,
      "d": 70,
      "e": 71,
      "f": 72,
      "g": 73,
      "h": 74,
      "i": 75,
      "j": 76,
      "k": 77,
      "l": 78,
      "m": 79,
      "n": 80,
      "o": 81,
      "p": 82,
      "q": 83,
      "r": 84,
      "s": 85,
      "t": 86,
      "u": 87,
      "v": 88,
      "w": 89,
      "x": 90,
      "y": 91,
      "z": 92,
      "{": 93,
      "|": 94,
      "}": 95,
      "~": 96,
      "¡": 97,
      "¢": 98,
      "£": 99,
      "¤": 100,
      "¥": 101,
      "¦": 102,
      "§": 103,
      "¨": 104,
      "©": 105,
      "ª": 106,
      "«": 107,
      "¬": 108,
      "®": 109,
      "¯": 110,
      "°": 111,
      "±": 112,
      "²": 113,
      "³": 114,
      "´": 115,
      "µ": 116,
      "¶": 117,
      "·": 118,
      "¸": 119,
      "¹": 120,
      "º": 121,
      "»": 122,
      "¼": 123,
      "½": 124,
      "¾": 125,
      "¿": 126,
      "À": 127,
      "Á": 128,
      "Â": 129,
      "Ã": 130,
      "Ä": 131,
      "Å": 132,
      "Æ": 133,
      "Ç": 134,
      "È": 135,
      "É": 136,
      "Ê": 137,
      "Ë": 138,
      "Ì": 139,
      "Í": 140,
      "Î": 141,
      "Ï": 142,
      "Ð": 143,
      "Ñ": 144,
      "Ò": 145,
      "Ó": 146,
      "Ô": 147,
      "Õ": 148,
      "Ö": 149,
      "×": 150,
      "Ø": 151,
      "Ù": 152,
      "Ú": 153,
      "Û": 154,
      "Ü": 155,
      "Ý": 156,
      "Þ": 157,
      "ß": 158,
      "à": 159,
      "á": 160,
      "â": 161,
      "ã": 162,
      "ä": 163,
      "å": 164,
      "æ": 165,
      "ç": 166,
      "è": 167,
      "é": 168,
      "ê": 169,
      "ë": 170,
      "ì": 171,
      "í": 172,
      "î": 173,
      "ï": 174,
      "ð": 175,
      "ñ": 176,
      "ò": 177,
      "ó": 178,
      "ô": 179,
      "õ": 180,
      "ö": 181,
      "÷": 182,
      "ø": 183,
      "ù": 184,
      "ú": 185,
      "û": 186,
      "ü": 187,
      "ý": 188,
      "þ": 189,
      "ÿ": 190,
      "Ā": 191,
      "ā": 192,
      "Ă": 193,
      "ă": 194,
      "Ą": 195,
      "ą": 196,
      "Ć": 197,
      "ć": 198,
      "Ĉ": 199,
      "ĉ": 200,
      "Ċ": 201,
      "ċ": 202,
      "Č": 203,
      "č": 204,
      "Ď": 205,
      "ď": 206,
      "Đ": 207,
      "đ": 208,
      "Ē": 209,
      "ē": 210,
      "Ĕ": 211,
      "ĕ": 212,
      "Ė": 213,
      "ė": 214,
      "Ę": 215,
      "ę": 216,
      "Ě": 217,
      "ě": 218,
      "Ĝ": 219,
      "ĝ": 220,
      "Ğ": 221,
      "ğ": 222,
      "Ġ": 223,
      "ġ": 224,
      "Ģ": 225,
      "ģ": 226,
      "Ĥ": 227,
      "ĥ": 228,
      "Ħ": 229,
      "ħ": 230,
      "Ĩ": 231,
      "ĩ": 232,
      "Ī": 233,
      "ī": 234,
      "Ĭ": 235,
      "ĭ": 236,
      "Į": 237,
      "į": 238,
      "İ": 239,
      "ı": 240,
      "Ĳ": 241,
      "ĳ": 242,
      "Ĵ": 243,
      "ĵ": 244,
      "Ķ": 245,
      "ķ": 246,
      "ĸ": 247,
      "Ĺ": 248,
      "ĺ": 249,
      "Ļ": 250,
      "ļ": 251,
      "Ľ": 252,
      "ľ": 253,
      "Ŀ": 254,
      "ŀ": 255,
      "Ł": 256,
      "ł": 257,
      "Ń": 258,
      "ĠÐ": 259,
      "Ð¾": 260,
      "Ðµ": 261,
      "Ð°": 262,
      "Ð¸": 263,
      "ÑĤ": 264,
      "Ð½": 265,
      "Ñģ": 266,
      "ÑĢ": 267,
      "Ð¾Ð": 268,
      "Ð»": 269,
      "Ðº": 270,
      "Ñĥ": 271,
      "Ñı": 272,
      "Ð²": 273,
      "Ð¼": 274,
      "Ñĭ": 275,
      "Ð´": 276,
      "ĠÐ¿": 277,
      "ÑĮ": 278,
      "ÑģÑĤ": 279,
      "ĠÐ²": 280,
      "Ñĩ": 281,
      "ÐµÐ½": 282,
      "ÑĢÐ°": 283,
      "ĠÐ¸": 284,
      "ĠÑģ": 285,
      "Ð·": 286,
      "Ð¾Ð²": 287,
      "Ð¹": 288,
      "ĠÐ½": 289,
      "Ñħ": 290,
      "Ð¿": 291,
      "ĠÐ¾": 292,
      "Ð±": 293,
      "ÑĢÐµ": 294,
      "ĠÐº": 295,
      "Ð°Ð½": 296,
      "ÑģÐº": 297,
      "Ð³": 298,
      "Ð¾Ð»": 299,
      "ÑĢÐ¸": 300,
      "Ð¾Ð´": 301,
      "Ñİ": 302,
      "ÑĤÐµ": 303,
      "Ð»Ð¸": 304,
      "Ð½Ñĭ": 305,
      "ĠÐ´": 306,
      "ÑĨ": 307,
      "Ð¾Ð¼": 308,
      "ÑĤÐ¾": 309,
      "ĠÐ¼": 310,
      "ÐµÑĤ": 311,
      "ÑĪ": 312,
      "Ð¾Ð³": 313,
      "<|": 314,
      "|>": 315,
      "Ð¶": 316,
      "ĠÐ½Ð°": 317,
      "Ð½Ð¾": 318,
      "Ð»ÑĮ": 319,
      "ÐµÑĢ": 320,
      "Ð¾Ð¹": 321,
      "ÐµÐ½Ð¸": 322,
      "Ð½Ð°": 323,
      "ÑĤÐ°": 324,
      "ĠÐ±": 325,
      "Ð½Ð¸": 326,
      "ĠÐ³": 327,
      "Ð»Ð°": 328,
      "Ð¾ÑĢ": 329,
      "ÑĦ": 330,
      "ÑĤÐ¸": 331,
      "âĢ": 332,
      "Ġ1": 333,
      "âĢĶ": 334,
      "Ð¾Ñģ": 335,
      "Ñī": 336,
      "ÑĤÑĮ": 337,
      "ĠÐ·": 338,
      "ĠÑĩ": 339,
      "Ð²Ð°": 340,
      "ĠÐ°": 341,
      "ĠâĢĶ": 342,
      "ĠÐ½Ðµ": 343,
      "Ð¾Ð½": 344,
      "Ð¸Ð¹": 345,
      "ĠÑĥ": 346,
      "ÐºÐ°": 347,
      "Ð¼Ð¸": 348,
      "Ð»Ðµ": 349,
      "ÑģÑı": 350,
      "Ð¾Ð³Ð¾": 351,
      "Ġ(": 352,
      "Ñį": 353,
      "ĠÐ¡": 354,
      "ÑĨÐ¸": 355,
      "ÑĢÑĥ": 356,
      "Ð»Ñı": 357,
      "Ð¾Ð±": 358,
      "ÑģÑĤÐ²": 359,
      "Ð´Ð°": 360,
      "ĠÐĴ": 361,
      "ÐµÐ¼": 362,
      "er": 363,
      "ÑĢÐ¾": 364,
      "ĠÑĤ": 365,
      "ĠÑĢÐ°": 366,
      ".<|": 367,
      "Ð°Ð½Ð¸": 368,
      "Ñĳ": 369,
      "us": 370,
      "ĠÐŁ": 371,
      "an": 372,
      "user": 373,
      "Ð¾Ð¶": 374,
      "ĠÐ¿Ð¾": 375,
      "ĠÐ·Ð°": 376,
      "ÐºÐ¸": 377,
      "ĠÑį": 378,
      "ÑĩÐµ": 379,
      "st": 380,
      "as": 381,
      "si": 382,
      "Ð²Ð¸": 383,
      "ÐµÐ¹": 384,
      "ant": 385,
      "assi": 386,
      "stant": 387,
      "assistant": 388,
      "ÑģÑĤÐ¸": 389,
      "Ð¾Ð»ÑĮ": 390,
      "ĠÐ¾Ð±": 391,
      "ĠÐ»": 392,
      "ĠÐļ": 393,
      "ÑģÑĤÐ°": 394,
      "Ð´Ð¸": 395,
      "Ð¾Ðº": 396,
      "ĠÐ¾ÑĤ": 397,
      "Ð´Ðµ": 398,
      "ĠÐºÐ°": 399,
      "ĠÐ¿ÑĢÐ¸": 400,
      "ĠÐµ": 401,
      "ÐµÐ½Ð¸Ñı": 402,
      "Ð¾Ð·": 403,
      "Ð¾ÑĤ": 404,
      "ÑĢÐ¾Ð²": 405,
      "ÑĩÐ¸": 406,
      "ÑģÐºÐ¸Ð¹": 407,
      "ĠÐĲ": 408,
      "ÑģÐ¸": 409,
      "Ð¼Ð°": 410,
      "ÑĩÐ°": 411,
      "Ġ19": 412,
      "Ð½ÑĭÑħ": 413,
      "Â«": 414,
      "Â»": 415,
      "ĠÑĦ": 416,
      "ÑĤÐµÐ»ÑĮ": 417,
      "ĠÐľ": 418,
      "ĠÐ±Ñĭ": 419,
      "Ġ2": 420,
      "ÑģÐ¿": 421,
      "ÑĤÐ¾ÑĢ": 422,
      "ĠÐ¸Ð·": 423,
      "ĠÂ«": 424,
      "Ð°ÑĢ": 425,
      "Ð³Ð¾": 426,
      "Ð½Ð¾Ð¹": 427,
      "Ð½ÑĭÐ¹": 428,
      "ĠÑĤÐ°": 429,
      "Ð¾Ð¿": 430,
      "ÑģÐºÐ¸": 431,
      "ĠÐĿ": 432,
      "ĠÐ³Ð¾Ð´": 433,
      "Ð½ÑĭÐµ": 434,
      "en": 435,
      "Ð½Ðµ": 436,
      "ĠÐ¿ÑĢÐµ": 437,
      "ÑģÑĤÑĮ": 438,
      "ĠÐ²Ñĭ": 439,
      "ÐµÐ½Ð¸Ðµ": 440,
      "Ð¼Ðµ": 441,
      "ĠÑĤÐµ": 442,
      "ĠÐ¿ÑĢÐ¾": 443,
      "Ð»Ð¾": 444,
      "ĠÑĢÐµ": 445,
      "te": 446,
      "Ð·Ð°": 447,
      "ÑģÑĤÐ¾": 448,
      "of": 449,
      "ÑĥÑİ": 450,
      "ĠÐł": 451,
      "ÑģÐµ": 452,
      "ÑĪÐ¸": 453,
      "Ð°Ñı": 454,
      "Ð½Ð¾Ð³Ð¾": 455,
      "ĠÑı": 456,
      "Ð²Ðµ": 457,
      "end": 458,
      "xt": 459,
      "text": 460,
      "ÐºÐ¾": 461,
      "ĠÐ¶": 462,
      "oftext": 463,
      "endoftext": 464,
      "ĠÑģÑĤ": 465,
      "Ð¸Ñģ": 466,
      "ÐµÑĢÐµ": 467,
      "ĠÑĩÑĤÐ¾": 468,
      "Ð¡": 469,
      "ĠÐĵ": 470,
      "ĠÐĺ": 471,
      "ĠÐĶ": 472,
      "ĠÐŀ": 473,
      "Ð¼ÐµÐ½": 474,
      "ĠÐĳ": 475,
      "Ð¶Ðµ": 476,
      "ĠÑħ": 477,
      "ÑĤÑĥ": 478,
      "ĠÑģÐ¾": 479,
      "ĠÐºÐ¾": 480,
      "Ð¾Ð²Ð°": 481,
      "),": 482,
      "ÑīÐµ": 483,
      "ĠÐ¢": 484,
      "ĠÑĢÐ°Ð·": 485,
      "ÑİÑĤ": 486,
      "Ð²Ð¾": 487,
      "Ð°Ð¼": 488,
      "ĠÐ¿ÑĢ": 489,
      "Ð´Ñĥ": 490,
      "Ð¸Ð½": 491,
      "ÑģÑĮ": 492,
      "ÐµÐº": 493,
      "ĠÐ¿Ð¾Ð»": 494,
      "ÑĢÐ°Ð½": 495,
      "ÑģÐºÐ¾Ð¹": 496,
      "ĠÐºÐ°Ðº": 497,
      "Ð³Ð¸": 498,
      "ÐµÑĤÑģÑı": 499,
      "ĠÑĤÐ°Ðº": 500,
      "Ð¸Ð·": 501,
      "ĠÐ¿Ð¾Ð´": 502,
      "ÐµÐ²": 503,
      "ÐµÐ»": 504,
      "ÑĢÑı": 505,
      "Ð°Ð»": 506,
      "ÑĤÑĭ": 507,
      "ÐºÐ¾Ð²": 508,
      "Ð½Ð°Ñı": 509,
      "ÐºÑĥ": 510,
      "ÑĨÐ¸Ð¸": 511,
      "ĠÐĽ": 512,
      "Ð¾Ð´Ð¸": 513,
      "ÑīÐ¸": 514,
      "ÑģÐºÐ¾Ð³Ð¾": 515,
      "ÑģÐ°": 516,
      "ÑĢÑĭ": 517,
      ").": 518,
      "Ð³Ð°": 519,
      "Ð°Ð½Ð¸Ñı": 520,
      "00": 521,
      "ĠÐ´Ð»Ñı": 522,
      "ĠÐ¼Ðµ": 523,
      "..": 524,
      "Ð¿Ð°": 525,
      "Ð½Ñı": 526,
      "Ð½Ð¾Ðµ": 527,
      "ÑĭÐµ": 528,
      "ÑĪÐµ": 529,
      "Ð¸Ð»": 530,
      "ÑĥÑĤ": 531,
      "ĠÐ´Ðµ": 532,
      "Ð·Ñĭ": 533,
      "ÑģÑĤÐ²ÐµÐ½": 534,
      "ĠÐ¿ÑĢÐµÐ´": 535,
      "ĠÐºÐ¾ÑĤÐ¾ÑĢ": 536,
      "ÐĲ": 537,
      "Ð»ÐµÐ½": 538,
      "ÐĿ": 539,
      "Ð½ÑĭÐ¼": 540,
      "ÑģÐºÐ°Ñı": 541,
      "ÐºÑĤ": 542,
      "Ð·Ð¸": 543,
      "Ð²Ð»Ñı": 544,
      "ĠÐ³Ð¾Ð´Ð°": 545,
      "Ð»Ñĥ": 546,
      "Ð½Ð¾Ð²": 547,
      "ĠÐ´Ð¾": 548,
      "ĠÐ¤": 549,
      "Ð°Ð»ÑĮ": 550,
      "ÐµÐ½ÑĤ": 551,
      "ÑģÑĤÐ²Ð°": 552,
      "ĠÑįÑĤÐ¾": 553,
      "ĠÐ¸Ð½": 554,
      "ĠÐŃ": 555,
      "Ð¿Ð¸": 556,
      "ÐŁ": 557,
      "Ð½Ð¾Ð¼": 558,
      "ĠÑĤÐ¾": 559,
      "Ð°Ðº": 560,
      "ÑĭÐ¹": 561,
      "Ð¾Ð½Ð°": 562,
      "ĠÐ¿ÐµÑĢÐµ": 563,
      "ĠÐºÐ¾Ð½": 564,
      "ÑĭÑħ": 565,
      "Ð»Ñİ": 566,
      "ÑģÑĤÐ²Ð¾": 567,
      "ĠÐ¾Ñģ": 568,
      "Ð¶Ð¸": 569,
      "ĠÑĨ": 570,
      "ĠÐ²Ðµ": 571,
      "Ð°Ð½Ð¸Ðµ": 572,
      "ĠÐ»Ð¸": 573,
      "ÑĤÐ¾Ð¼": 574,
      "Ð¿Ðµ": 575,
      "ÑĥÐ´": 576,
      "ÑĩÐµÑģÐºÐ¸": 577,
      "Ð½Ð¾ÑģÑĤÐ¸": 578,
      "Ð½Ð¾ÑģÑĤÑĮ": 579,
      "Ð¾Ð³Ð¸": 580,
      "ĠÐ¸Ð»Ð¸": 581,
      "ĠÐ¼Ð°": 582,
      "ĠÐ²Ð¾": 583,
      "ĠÐ²ÑģÐµ": 584,
      "ĠÐºÐ¾Ð¼": 585,
      "Ġ18": 586,
      "ĠÐ¼Ð¾Ð¶": 587,
      "ÑĥÐ¼": 588,
      "?<|": 589,
      "ÐºÐµ": 590,
      "ÑĦÐ¸": 591,
      "ÑģÑģ": 592,
      "ĠÐ¿Ð¾Ñģ": 593,
      "Ðļ": 594,
      "ĠÑĢ": 595,
      "ĠÐ¼Ð¸": 596,
      "Ð±Ð¾": 597,
      "ÑĢÐ°Ð²": 598,
      "Ðł": 599,
      "Ð¸Ð¼": 600,
      "ĠÑģÑĤÐ°": 601,
      "Ð»ÐµÐ´": 602,
      "ÑĢÐ°Ð·": 603,
      "Ð¾Ð´Ð°": 604,
      "Ð¾Ð»Ð¸": 605,
      "ĠÑģÐ²": 606,
      "ÑĤÐ¸Ð²": 607,
      "ÐµÐ·": 608,
      "ĠÐ³Ð¾Ð´Ñĥ": 609,
      "Ðŀ": 610,
      "ĠÑģÐ¾Ð²": 611,
      "ÐµÐ½ÑĮ": 612,
      "Ð¾Ðµ": 613,
      "ÑıÑĤ": 614,
      "ĠÑģÐ²Ð¾": 615,
      "ÑĥÑĢ": 616,
      "Ð±Ð¸": 617,
      "ĠÐ½Ð¾": 618,
      "ĠÐĿÐ°": 619,
      "ÑĨÐ°": 620,
      "ÐĴ": 621,
      "Ð°Ð½Ð°": 622,
      "Ġ3": 623,
      "Ð¾Ð»ÑĮÐ·": 624,
      "ĠÐ¸ÑģÐ¿": 625,
      "Ð°ÑĤ": 626,
      "ĠÐ£": 627,
      "Ġ20": 628,
      "ĠÑĩÐ°": 629,
      "Ð¼ÐµÑĢ": 630,
      "ĠÑĪ": 631,
      "Ð²ÐµÑĢ": 632,
      "Ġ-": 633,
      "Ð½Ñĥ": 634,
      "ĠÐ´ÑĢÑĥ": 635,
      "ĠÐķ": 636,
      "ÑĢÐ¾Ð´": 637,
      "ĠÑģÐ¸": 638,
      "ĠÐ³Ð¾ÑĢ": 639,
      "ÑĳÐ½": 640,
      "ĠÐ¿ÐµÑĢ": 641,
      "ĠÑĢÑĥ": 642,
      "ĠÐĹ": 643,
      "ĠÐ½Ð¸": 644,
      "ÐºÐ¾Ð½": 645,
      "ÑĢÐµÐ¼": 646,
      "ĠÐµÐ³Ð¾": 647,
      "Ð¾Ð»ÑĮÐºÐ¾": 648,
      "Ð¶Ð°": 649,
      "Ð¾Ð»Ðµ": 650,
      "ĠÐ¾Ð¿": 651,
      "ÑĨÐ¸Ñı": 652,
      "ÑĥÑĩ": 653,
      "ĠÐ²Ð¾Ð·": 654,
      "Ð¾Ð±Ñĭ": 655,
      "Ð¶Ð´": 656,
      "Ð±Ðµ": 657,
      "ĠÐ´Ð°": 658,
      "ĠÑĤÐ°ÐºÐ¶Ðµ": 659,
      "ÑĢÐ¸Ð¸": 660,
      "ÑĤÑĮÑģÑı": 661,
      "ÑĥÐ´Ð°": 662,
      "ĠÐ¶Ðµ": 663,
      "ĠÐ¸Ð¼": 664,
      "ĠÑģÐ¿": 665,
      "Ð½Ð¸Ðº": 666,
      "ĠÑģÐµ": 667,
      "Ð»Ð¾Ð²": 668,
      "19": 669,
      "ÑĥÐ±": 670,
      "ÑĬ": 671,
      "ÑĢÐµÐ´": 672,
      "ĠÐ¥": 673,
      "Ð½ÑĥÑİ": 674,
      "Ð»ÐµÐ½Ð¸Ñı": 675,
      "ÑģÐ»Ð¸": 676,
      "ÑĤÐ¾Ð²": 677,
      "ĠÐ¾Ð´": 678,
      "ĠÐ·Ð½Ð°": 679,
      "ÑĥÑģ": 680,
      "Ð¢": 681,
      "Â».": 682,
      "Ð»Ð¸ÑģÑĮ": 683,
      "ÑĢÐ¸Ñı": 684,
      "Ð°Ð¹": 685,
      "ÐºÐ°Ð½": 686,
      "ÐµÐ½Ð°": 687,
      "Ð³Ñĥ": 688,
      "ÐĶ": 689,
      "Ð¾Ð³Ð´Ð°": 690,
      "ĠÐ°Ð²": 691,
      "ÑĢÐ°Ð²Ð¸": 692,
      "Ð¼Ñĥ": 693,
      "ÑħÐ¾Ð´": 694,
      "ÑĤÐµÑĢ": 695,
      "Ð±ÑĢÑı": 696,
      "ĠÑģÐ°Ð¼": 697,
      "ĠÐ²Ð¸": 698,
      "ÑĨÐµ": 699,
      "Ð¼Ñĭ": 700,
      "ÑĤÑģÑı": 701,
      "ĠI": 702,
      "ÑģÑĤÐ°Ð½": 703,
      "ÑħÐ¾Ð´Ð¸": 704,
      "ĠÐ²ÑĢÐµÐ¼": 705,
      "ĠÐ±Ð¾Ð»ÑĮ": 706,
      "ÑģÐºÐ¸Ñħ": 707,
      "Ġ4": 708,
      "ĠÐ²Ð°": 709,
      "ĠÐ±ÑĭÐ»": 710,
      "Ðĺ": 711,
      "Ð½ÑĭÐ¼Ð¸": 712,
      "ĠÐ¸ÑģÐ¿Ð¾Ð»ÑĮÐ·": 713,
      "ÑģÐºÐ°": 714,
      "ĠÐ¾Ð½": 715,
      "ĠÐ»Ñİ": 716,
      "Ġ5": 717,
      "Ð»ÑģÑı": 718,
      "ÑģÑĤÐ²Ð¸": 719,
      "Ð¾Ð³ÑĢÐ°": 720,
      "ĠÐ°ÑĢ": 721,
      "ĠÐ¿Ðµ": 722,
      "ÑĥÐ»ÑĮ": 723,
      "Ð¼Ð¾": 724,
      "ÑģÑĤÐ¾Ñı": 725,
      "ÑİÑĤÑģÑı": 726,
      "Ð»Ð¾Ð¶": 727,
      "ĠÐ§": 728,
      "ÐµÐ½Ð¸Ð¸": 729,
      "Ð°Ð»Ð¸": 730,
      "Ð²ÐµÑĤ": 731,
      "Ð´Ð¸Ð½": 732,
      "Ð´Ð¾": 733,
      "Ðľ": 734,
      "Ð»Ð°Ð²": 735,
      "Ð»ÐµÐ¹": 736,
      "ĠÑĤÑĭ": 737,
      "Ð¾ÑĢÐ¾": 738,
      "ÐµÐ½Ð¸Ð¹": 739,
      "ÐµÐ»Ð¾Ð²": 740,
      "Ð±Ð°": 741,
      "ÑģÑĤÑĥ": 742,
      "ÐµÐ½Ðµ": 743,
      "Â»,": 744,
      "ĠÑģÑĥ": 745,
      "Ð¾ÑģÑĥÐ´Ð°": 746,
      "ÑĢÐ¾Ð¼": 747,
      "ĠÑģÑĤÑĢÐ°": 748,
      "Ð¾Ð»ÐµÐµ": 749,
      "Ð°Ð½Ð¸Ð¸": 750,
      "ĠÐ´Ð¸": 751,
      "Ð½Ð³": 752,
      "ĠÐ¼Ð¾Ð¶ÐµÑĤ": 753,
      "Ð¾ÑģÑĥÐ´Ð°ÑĢ": 754,
      "Ð°Ð½Ð´": 755,
      "ÑĪÑĮ": 756,
      "ÑĢÐ¾Ñģ": 757,
      "ÑĳÑĢ": 758,
      "Ġ200": 759,
      "ÐºÐ¾Ð»": 760,
      "ÑģÑĤÐ°Ð²": 761,
      "ÑģÐºÐ¾Ð¼": 762,
      "ĠÑıÐ²Ð»Ñı": 763,
      "ÑħÐ°": 764,
      "ĠÐ¾ÑģÐ½Ð¾Ð²": 765,
      "ĠÐ¿Ð¾Ð¼": 766,
      "ĠÑĩÐµÐ»Ð¾Ð²": 767,
      "ÐµÐ´": 768,
      "ĠÐ²Ð¾Ð¹": 769,
      "ĠÐ¸Ñħ": 770,
      "ĠÐłÐ¾Ñģ": 771,
      "ÐºÐ¾Ð¼": 772,
      "ĠÐ´Ð¾Ð»": 773,
      "ÑĩÐ½Ð¾": 774,
      "in": 775,
      "Ð²Ñĭ": 776,
      "ÑģÐ¸Ð¹": 777,
      "ĠÐ¿Ð°": 778,
      "Ð»ÐµÐ½Ð¸Ðµ": 779,
      "ĠÐ¯": 780,
      "Ð¶Ð´Ñĥ": 781,
      "ĠÑģÐ¾Ð²ÐµÑĤ": 782,
      "Ð±Ð¾ÑĤ": 783,
      "ĠÑģÐ¾Ð±": 784,
      "Ð¾ÐºÐ°": 785,
      "ÑħÐ¸": 786,
      "Ð¼ÐµÑĢÐ¸": 787,
      "Ð·ÑĭÐ²Ð°": 788,
      "ĠÐºÐ¾ÑĢ": 789,
      "ĠÐ±ÑĭÐ»Ð¾": 790,
      "Ð»ÐµÐº": 791,
      "Ð¾Ð¶Ðµ": 792,
      "ÑĢÑĥÐ¿": 793,
      "ÑĪÐ°": 794,
      "ÑĥÐ½": 795,
      "Ð¾ÑģÑĮ": 796,
      "ĠÐ¨": 797,
      "ĠÐ½Ð°Ð¿": 798,
      "ĠÐ¼Ð¾Ð³": 799,
      "ĠÐ½Ð°ÑĩÐ°": 800,
      "ĠÐºÐ¾Ð¼Ð¿": 801,
      "ÑĤÐ¸Ñı": 802,
      "Ð¸ÑĤ": 803,
      "ĠÑĩÑĤ": 804,
      "Ð´ÐµÑĢ": 805,
      "ĠÐ¶Ð¸": 806,
      "ÐµÐ»Ð¸": 807,
      "Ð½ÐµÐ¹": 808,
      "ĠX": 809,
      "Ð³ÑĢÐ°": 810,
      "ĠÑĩÐµÐ¼": 811,
      "ÑģÐºÐ¸Ðµ": 812,
      "ÐºÐ»Ñİ": 813,
      "ÑĦÐ¾ÑĢ": 814,
      "ĠÐ¿Ð¾Ð²": 815,
      "ÑīÐ°": 816,
      "Ġ201": 817,
      "Ð¿Ð¾": 818,
      "ÐµÐ»ÑĮ": 819,
      "Ð¡Ðł": 820,
      "ĠÐ´Ð°Ð½": 821,
      "ÑıÐ±ÑĢÑı": 822,
      "ĠÑģÐ¾Ð·": 823,
      "ĠÐ¸ÑģÑĤÐ¾": 824,
      "ÐºÑĢÐ°": 825,
      "Ð²Ð¾Ð´": 826,
      "ĠÐºÐ¸": 827,
      "Ð°Ð·": 828,
      "Ð¿ÑĢÐµ": 829,
      "Ð²ÐµÐ´": 830,
      "ĠÐ¾ÑĢ": 831,
      "ĠÐ¼Ð¾": 832,
      "ÑģÐ¸Ð¸": 833,
      "ÑĢÐ¾Ð¿": 834,
      "ĠÐ¿Ð°ÑĢ": 835,
      "ĠÐ³Ð¾ÑģÑĥÐ´Ð°ÑĢ": 836,
      "ĠÐ²ÑĢÐµÐ¼Ñı": 837,
      "ÑĳÑĤ": 838,
      "ÑĨÑĭ": 839,
      "ÑĢÐ¾Ð²Ð°": 840,
      "ĠÑĤÐ¾Ð»ÑĮÐºÐ¾": 841,
      "Ð¾Ð¼Ð¸": 842,
      "ĠÐ½Ð¾Ð²": 843,
      "Ð¿ÐµÑĢÐ°": 844,
      "Ġ%": 845,
      "Ð¹ÑĤÐµ": 846,
      "Ġ17": 847,
      "ÑĤÐ¾ÑĢÐ°": 848,
      "ÐµÐ½Ð¸Ñİ": 849,
      "ÑģÐ¾Ð²": 850,
      "ÑĥÐ·": 851,
      "ÑģÐºÐ¾Ðµ": 852,
      "Ð»Ð°ÑģÑĮ": 853,
      "ĠÐŁÐ¾": 854,
      "ÑĥÐ¶": 855,
      "ÑıÐ½": 856,
      "ĠÐ¾Ð±ÑĬ": 857,
      "ÑĮÑİ": 858,
      "ĠÐ¿ÐµÑĢÐ²": 859,
      "Ð¾Ð²Ð¸": 860,
      "ÑģÑĤÑĢÐ°": 861,
      "ĠÐļÐ°": 862,
      "ĠÑĩÑĤÐ¾Ð±Ñĭ": 863,
      "ÑģÑĤÐµÐ¼": 864,
      "ĠÐ¾Ð±ÑĢÐ°Ð·": 865,
      "ÑģÑĤÐµ": 866,
      "ĠÐ³ÑĢÐ°": 867,
      "ĠÐ¿ÑĢÐ¾Ð´": 868,
      "Ð½Ð¸ÐºÐ°": 869,
      "ĠÐŁÑĢÐ¸": 870,
      "Ð¾Ð»Ð¾Ð³Ð¸": 871,
      "Ð¼ÐµÑĢÐ¸ÐºÐ°Ð½": 872,
      "ĠÐµÑģÑĤÑĮ": 873,
      "ĠÐ±Ð¾Ð»ÐµÐµ": 874,
      "ĠÐ¼ÐµÐ¶Ð´Ñĥ": 875,
      "Ġ6": 876,
      "Ð¸Ð»ÑĮ": 877,
      "ĠÑĢÐ°ÑģÐ¿": 878,
      "ĠÑģÐ²Ñı": 879,
      "Ġ199": 880,
      "ĠÐ¿ÑĢÐ¾Ð¸Ð·": 881,
      "ĠÑĤÐ°ÐºÐ¸": 882,
      "ĠÐ¼Ð½": 883,
      "ĠÐ³Ð¾ÑĢÐ¾Ð´": 884,
      "ĠÐ¿Ð¾Ð»Ñĥ": 885,
      "ÑĨÐ¸Ð°Ð»ÑĮ": 886,
      "ĠÐ¸Ð¼Ðµ": 887,
      "ĠÑıÐ·Ñĭ": 888,
      "ÐµÑģÐ¿": 889,
      "Ġt": 890,
      "ÑİÑīÐ¸": 891,
      "ĠÐ´ÑĢÑĥÐ³Ð¸": 892,
      "ÑĢÐ°Ðº": 893,
      "ĠÐ¾Ð±Ð»Ð°": 894,
      "ÑĢÐ¸ÑĤ": 895,
      "ÑīÐµÑģÑĤÐ²": 896,
      "ÑģÑĤÐ°Ð²Ð»Ñı": 897,
      "ĠÐ±Ñĥ": 898,
      "Ð·Ð½Ð°": 899,
      "ÐºÐ¾Ð¹": 900,
      "Ð´Ñĭ": 901,
      "on": 902,
      "ĠÐ¿ÑĢÐ°Ð²Ð¸": 903,
      "Ð»Ð°Ð½": 904,
      "ĠÑįÑĤ": 905,
      "ÑģÑĤÑĢÐ¾": 906,
      "ĠÐ¿Ð¸Ñģ": 907,
      "ĠÐºÐ¾ÑĤÐ¾ÑĢÑĭÐµ": 908,
      "ĠÑĢÑĥÑģ": 909,
      "ĠÐ²ÐµÑĢ": 910,
      "ĠÐ»Ðµ": 911,
      "Ð¿Ñĥ": 912,
      "ĠÑĢÐ°Ð±Ð¾": 913,
      "Ð£": 914,
      "ÐµÐ½Ð¸ÐµÐ¼": 915,
      "ĠÑģÐ»Ñĥ": 916,
      "ĠÐ¿ÑĢÐ¾Ð²": 917,
      "ÐºÑĢÑĭ": 918,
      "ĠÑģÐ¸ÑģÑĤÐµÐ¼": 919,
      "Ð»Ð¾ÑģÑĮ": 920,
      "ĠÑĤÐµÑĢ": 921,
      "ĠÐ±ÐµÐ·": 922,
      "ÐµÑĤÐ°": 923,
      "Ġ:": 924,
      "ÑĤÐ¸ÑĩÐµ": 925,
      "ĠÐ¸Ñİ": 926,
      "ÑĭÐ¼": 927,
      "ĠÐ¾Ð½Ð¸": 928,
      "Ð²Ð¾Ð»": 929,
      "ĠÐ±ÑĭÐ»Ð¸": 930,
      "Ð²Ñĥ": 931,
      "ĠÐ°ÐºÑĤ": 932,
      "ĠÐ°Ð¼ÐµÑĢÐ¸ÐºÐ°Ð½": 933,
      "ĠÐŃÑĤÐ¾": 934,
      "ÑĥÐ±Ð»Ð¸": 935,
      "ÑİÑī": 936,
      "ÐµÐ½Ñĭ": 937,
      "Ðĳ": 938,
      "Ð²Ð°ÑĤÑĮ": 939,
      "ÑĩÐµÑģÐºÐ¸Ñħ": 940,
      "Ġ7": 941,
      "ÑĨÐ¸Ð¾Ð½": 942,
      "ĠÐ²Ñģ": 943,
      "ÑĢÐµÐ´Ðµ": 944,
      "ĠÐ¿Ð¾Ð·": 945,
      "ĠÐ¼Ð¾Ð¶Ð½Ð¾": 946,
      "ĠÑıÐ²Ð»ÑıÐµÑĤÑģÑı": 947,
      "Ð¾Ð½Ðµ": 948,
      "ÑĢÐ°Ð»ÑĮ": 949,
      "ÑĢÐµÐ¼ÐµÐ½": 950,
      "Ð¡Ð¡Ðł": 951,
      "Ð±Ñĭ": 952,
      "ĠÐ±ÑĭÐ»Ð°": 953,
      "Ð±Ñı": 954,
      "II": 955,
      "ĠÐ¦": 956,
      "Ð¾ÑģÑģÐ¸Ð¹": 957,
      "ÐµÑĤÐ¸": 958,
      "Ð³Ð¾Ð²": 959,
      "Ð²Ð°Ð½": 960,
      "Ð¾Ð½Ð°Ð»ÑĮ": 961,
      "ĠÐ¾ÑĤÐ½Ð¾": 962,
      "Ð½Ð¸Ð¼": 963,
      "Ðĵ": 964,
      "ĠÐµÑģÐ»Ð¸": 965,
      "ÑĨÐ¸Ñİ": 966,
      "ÑĤÐµÐ»ÑĮÐ½Ð¾": 967,
      "Ð¾Ñĩ": 968,
      "ÑıÑĤÑĮ": 969,
      "Ð¿Ð¾Ð»": 970,
      "ĠÐľÐ°": 971,
      "ĠÐ®": 972,
      "ĠÐ±ÑĥÐ´": 973,
      "Ð¾ÑĢÐ¸": 974,
      "ÑĳÐ¼": 975,
      "Ð»Ð°Ñģ": 976,
      "Ð´Ð¾Ð²": 977,
      "...<|": 978,
      "ĠÐ¿Ð¾Ð»Ð¸": 979,
      "ĠÑĤÐ¾Ð¼": 980,
      "ĠÑĥÐ¿": 981,
      "he": 982,
      "ĠÐ»ÐµÑĤ": 983,
      "Ġ8": 984,
      "ÑĩÐµÑģÐºÐ¸Ðµ": 985,
      "Ð¼Ð¾Ð¶": 986,
      "ĠÐĿÐ¸": 987,
      "ĠÑįÐ»Ðµ": 988,
      "Ð²ÑĪ": 989,
      "ĠÑĢÐ°Ñģ": 990,
      "ĠÐ¡Ð¡Ð¡Ðł": 991,
      "ĠÐĹÐ°": 992,
      "ĠÐ¿Ð¸": 993,
      "ÑģÑĭ": 994,
      "ÐºÐ¸Ð¹": 995,
      "ÐŃ": 996,
      "ĠÐ¼Ð°ÑĢ": 997,
      "ÑģÑĤÑĢ": 998,
      "ÑĢÐ¾Ð²Ð°Ð½": 999,
      "...": 1000,
      "ÑģÑĤÐ°Ð²Ð¸": 1001,
      "Ġ9": 1002,
      "ÑĪÐ¸Ñħ": 1003,
      "ĠÑįÑĤÐ¸": 1004,
      "Ð¨": 1005,
      "ÐµÐ¼Ñĥ": 1006,
      "20": 1007,
      "ĠÐ±ÑĭÑĤÑĮ": 1008,
      "Ð´ÐµÐ½": 1009,
      "Ġ15": 1010,
      "ÑĢÐ°Ð¶": 1011,
      "ÐµÐ½Ñı": 1012,
      "ÑĢÐ¸Ð¹": 1013,
      "or": 1014,
      "ĠÑĢÐ¾ÑģÑģÐ¸Ð¹": 1015,
      "ĠÐ¼ÐµÑĤ": 1016,
      "ĠÐ¿Ð¾Ð¿": 1017,
      "ĠÐĿÐµ": 1018,
      "Ð»Ð¸Ñı": 1019,
      "Ð½Ð¸Ð¼Ð°": 1020,
      "ÑĢÐ¾Ðº": 1021,
      "ĠÐ¾ÑĢÐ³": 1022,
      "ĠÑĦÐ¾ÑĢ": 1023,
      "Ġ10": 1024,
      "Ġ194": 1025,
      "Ð¿ÐµÑĢ": 1026,
      "ĠÐ¿Ñĥ": 1027,
      "Ð¿ÑĢÐ¸": 1028,
      "ÑģÑĤÑĢÐ°Ð½": 1029,
      "Ð½Ð¸ÐºÐ¾Ð²": 1030,
      "ĠÑĩÐ¸Ñģ": 1031,
      "Ð»Ð¸Ñĩ": 1032,
      "ÑĤÑĥÑĢ": 1033,
      "Ð¾Ð¶Ð´": 1034,
      "ÑĤÐµÐ»Ñı": 1035,
      "ÑĪÐ¸Ðµ": 1036,
      "ÐĹ": 1037,
      "Ð¼Ð¾ÑĤ": 1038,
      "ĠÐĲÐ½": 1039,
      "ĠÐŁÐ°": 1040,
      "ĠÑĥÐ¶Ðµ": 1041,
      "ÑĢÐµÐ±": 1042,
      "ĠÐ¿Ð¾ÑģÐ»Ðµ": 1043,
      "ÑĤÐµÐ»ÐµÐ¹": 1044,
      "Ð³Ðµ": 1045,
      "ĠÑĩÐµÐ»Ð¾Ð²ÐµÐº": 1046,
      "Ð¾Ð²Ð°Ð½Ð¸Ñı": 1047,
      "ÑĭÑĪ": 1048,
      "ĠÐ¿Ð¾ÑĢ": 1049,
      "Ġ198": 1050,
      "ÑĩÐ¸ÑĤÐ°": 1051,
      "ĠÑįÐº": 1052,
      "ĠÐ²ÑĭÑģ": 1053,
      "Ð¤": 1054,
      "Ð½Ð¸Ðµ": 1055,
      "ÑģÑĤÐ²Ðµ": 1056,
      "ĠÐ¼Ð¾Ð³ÑĥÑĤ": 1057,
      "ÑģÑĤÑĥÐ¿": 1058,
      "!<|": 1059,
      "Ġ196": 1060,
      "ĠÐ´Ð¾Ð»Ð¶": 1061,
      "Ð¾Ð²Ð°ÑĤÑĮ": 1062,
      "ÑĤÐµÑĢÐ°": 1063,
      "Ġ197": 1064,
      "ĠÑģÐº": 1065,
      "ĠÐºÐ¾Ð³Ð´Ð°": 1066,
      "ÑĤÐµÑĢÐ¸": 1067,
      "18": 1068,
      "Ð±Ð¾ÑĢ": 1069,
      "ĠÐļÐ¸": 1070,
      "ĠÐ¶Ð¸Ð·": 1071,
      "ĠÐłÐ¾ÑģÑģÐ¸Ð¸": 1072,
      "Ð°Ñģ": 1073,
      "ÑĩÐµÐ½Ð¸Ðµ": 1074,
      "Ð¯": 1075,
      "ĠÑĢÐµÐ·": 1076,
      "Ð»Ð¸Ð¹": 1077,
      "Ð¸Ñħ": 1078,
      "ĠÐ´Ñĥ": 1079,
      "ĠÐºÑĢÐ°": 1080,
      "Ð²Ð¾ÑĢ": 1081,
      "ĠÐºÐ¸Ð½Ð¾": 1082,
      "ĠÐ¼ÐµÐ½Ñı": 1083,
      "ĠÐ²Ð¾Ñģ": 1084,
      "ÑĩÐµÐ½": 1085,
      "ĠÐľÐ¾": 1086,
      "Ð½ÐµÐµ": 1087,
      "Ð¸Ð±": 1088,
      "Ð¾Ð³Ð°": 1089,
      "ÐºÐ°Ð·Ð°": 1090,
      "ĠÐ²Ð»Ð°": 1091,
      "ÑĮÑı": 1092,
      "ÑĪÐµÐ½Ð¸Ñı": 1093,
      "ĠÐºÐ¾ÑĤÐ¾ÑĢÑĭÐ¹": 1094,
      "Ð¼Ð°Ð½": 1095,
      "ĠÑĤÐ¾Ð³Ð¾": 1096,
      "ÑģÑĥ": 1097,
      "ar": 1098,
      "Ð²Ð°Ñı": 1099,
      "ĠÐ²Ð¾Ð´": 1100,
      "Ð½Ð¸ÐºÐ¸": 1101,
      "ĠÐ¸ÑģÐº": 1102,
      "Ð·Ð°Ð½": 1103,
      "ĠÐ¿Ð¾ÑģÐ»ÐµÐ´": 1104,
      "ÑĨÐ¸Ð¹": 1105,
      "ÑĩÐµÑģÐºÐ¾Ð¹": 1106,
      "ÑĢÐ¸ÑĤÐ¾": 1107,
      "ĠÑįÑĤÐ¾Ð¼": 1108,
      "ÑĢÐµÐ½": 1109,
      "Ð¾ÑģÐ¾Ð±": 1110,
      "ĠÐ³Ð´Ðµ": 1111,
      "ĠÐ¿Ð¾Ñĩ": 1112,
      "ÐºÐ»ÑİÑĩÐ°": 1113,
      "ĠÐ±ÑĥÐ´ÐµÑĤ": 1114,
      "ĠÑİ": 1115,
      "Ġ16": 1116,
      "ĠÐĶÐ¶": 1117,
      "ĠÐ½ÐµÑĤ": 1118,
      "Ð¾Ð³ÑĢÐ°Ð¼": 1119,
      "ÑĤÐ¸Ð½": 1120,
      "ĠÑģÑĢÐµÐ´": 1121,
      "ĠÑģÐ¾Ð²ÐµÑĤÑģÐºÐ¸Ð¹": 1122,
      "ÑģÑĤÐ¾Ð²": 1123,
      "ĠÐ½Ð°ÑģÐµ": 1124,
      "ĠÐ´ÐµÐ¹": 1125,
      "ÑĥÐº": 1126,
      "Ðķ": 1127,
      "Ð»ÐµÐºÑģ": 1128,
      "Ð²Ð°ÐµÑĤ": 1129,
      "Ġ193": 1130,
      "ĠÐ¾Ð¿ÑĢÐµÐ´Ðµ": 1131,
      "ÑĦÐ°": 1132,
      "ÑĩÐµÐ½Ð¸Ñı": 1133,
      "ĠÑĤÐµÑħ": 1134,
      "ĠÐŁÐµÑĢ": 1135,
      "ĠÐ¼Ñĭ": 1136,
      "ĠÑĤÐ°Ð¼": 1137,
      "ÑĢÐ¾Ð½": 1138,
      "ĠÐ¾Ðº": 1139,
      "Ð²ÐµÑģÑĤ": 1140,
      "ĠÐ¿Ð¾Ñį": 1141,
      "Ð¨ÐĲ": 1142,
      "ÐĿÑĥ": 1143,
      "ÑĨÐ¸Ð¾Ð½Ð°Ð»ÑĮ": 1144,
      "ĠÐĽÐ¸": 1145,
      "ĠÐĸ": 1146,
      "Ġ=": 1147,
      "Ð»Ñĭ": 1148,
      "Ð½Ð¸Ð¹": 1149,
      "ĠÐĺÐ½": 1150,
      "Ð¸Ð·Ð¸": 1151,
      "ĠÑĤÐµÐ¼": 1152,
      "ĠÑģÐ»ÐµÐ´": 1153,
      "ĠÑĤÐ¸": 1154,
      "ĠÐ¾ÑĤÐºÑĢÑĭ": 1155,
      "ĠÐ¿ÑĢÐ°Ð²": 1156,
      "ĠÐ³Ð¾ÑĢÐ¾Ð´Ð°": 1157,
      "ĠÐ½Ð°Ñģ": 1158,
      "Ð½ÐµÑĢ": 1159,
      "ĠÐ±Ð°": 1160,
      "ĠÐ¾Ð±ÑīÐµ": 1161,
      "ÑĢÐµÑģ": 1162,
      "ÑĢÐ°Ð½ÑĨ": 1163,
      "ĠÐ¼Ñĥ": 1164,
      "ĠÑĩÐµ": 1165,
      "ÑģÑĤÐ°Ð½Ð¾Ð²": 1166,
      "ĠÐ´ÑĢÑĥÐ³": 1167,
      "Ð¿Ð¸Ñģ": 1168,
      "Ð´ÐµÐ¹": 1169,
      "al": 1170,
      "ĠÐ¿Ð¸ÑģÐ°": 1171,
      "Ð¼ÐµÐ½ÑĤÐ°": 1172,
      "ÐĽ": 1173,
      "ĠÐľÐ¸": 1174,
      "Ð¾ÐºÑĢÐ°": 1175,
      "Ð´Ð°Ð½": 1176,
      "ÐºÐ¾Ð½Ð¾Ð¼Ð¸": 1177,
      "ĠÐļÐ¾Ð½": 1178,
      "ÑĦÐµ": 1179,
      "Ð»ÐµÐ¼": 1180,
      "Ð¼Ð¸Ð¸": 1181,
      "ĠÐ²ÐµÐºÐ°": 1182,
      "ĠÐ²ÐµÐº": 1183,
      "ĠÐĵÐµÑĢ": 1184,
      "ĠÑĥÑĩÐ°": 1185,
      "ĠÑģÑĤÐ°Ð½": 1186,
      "ĠÐ¡Ð¨ÐĲ": 1187,
      "ĠÐ´ÐµÑı": 1188,
      "ÑĢÑĮ": 1189,
      "ĠÑĢÐ°Ð±Ð¾ÑĤÐ°": 1190,
      "ÑĤÐ¸Ð¹": 1191,
      "ĠÐ¾Ð½Ð°": 1192,
      "Ð²Ð¸ÑģÐ¸": 1193,
      "Ð¾Ð¼Ð°": 1194,
      "ÑĥÐµÑĤ": 1195,
      "Ð½Ð¸Ñı": 1196,
      "ÐµÐ½Ð½Ð¾": 1197,
      "ĠÐ½Ð°Ð·": 1198,
      "Ð½Ð¸Ð¸": 1199,
      "ĠÐ¿ÑĢÐ¾Ð±": 1200,
      "ĠÑĢÐ°Ð±Ð¾ÑĤ": 1201,
      "ĠÐķÐ²": 1202,
      "ĠÑĢÐ°Ð·Ð²Ð¸": 1203,
      "ĠÐ»Ð°": 1204,
      "ĠÐ²Ð·": 1205,
      "ĠÐ¡Ð¾Ð²": 1206,
      "Ð½Ð¾Ð¼Ñĥ": 1207,
      "re": 1208,
      "ĠÐ³Ð¾Ð²": 1209,
      "ĠÐ¿Ð¾Ðº": 1210,
      "ĠÐ»ÑİÐ±": 1211,
      "Ð»ÑĮÐ½Ð¾": 1212,
      "ÐµÐ²ÐµÑĢ": 1213,
      "ĠC": 1214,
      "ĠÐ¸Ð½ÑĤÐµ": 1215,
      "ÑĢÑĥÐº": 1216,
      "ÑĩÐµÑģÐºÐ¾Ð³Ð¾": 1217,
      "ĠÑĤÐµÑĢÑĢÐ¸ÑĤÐ¾": 1218,
      "Ð´ÐµÐ½ÑĤ": 1219,
      "ĠÐ¿ÑĢÐµÐ·Ð¸": 1220,
      "ĠÐ¡Ð¼": 1221,
      "ÑīÑĳ": 1222,
      "ÑģÐºÑĥÑİ": 1223,
      "ÑģÑĤÑĢÐµ": 1224,
      "ÑĢÐ°Ð½ÑĨÑĥÐ·": 1225,
      "ĠÐ°Ðº": 1226,
      "ĠÐ¾ÑĢÐ³Ð°Ð½Ð¸": 1227,
      "Ð¾Ð²Ð°Ð½Ð¸Ðµ": 1228,
      "ÑīÐµÐµ": 1229,
      "ĠÐĲÑĢ": 1230,
      "ÑģÐºÐ¾": 1231,
      "le": 1232,
      "Ð»Ð¸ÑĩÐ¸": 1233,
      "Ð³Ð¾Ð´": 1234,
      "ĠÐ¡Ð¾": 1235,
      "ÑĳÐ»": 1236,
      "ĠÐ´ÐµÐ»Ð°": 1237,
      "ĠS": 1238,
      "Ġ192": 1239,
      "at": 1240,
      "ÑĩÐµÑģÐºÐ¸Ð¹": 1241,
      "ĠÐ²Ð¾Ð·Ð¼Ð¾Ð¶": 1242,
      "ÑģÐºÐ¸Ð¼": 1243,
      "ÑĢÐµÐ´Ð¸": 1244,
      "Ð´ÐµÐ»Ð°": 1245,
      "ÑĦÐ¾ÑĢÐ¼Ð°": 1246,
      "ĠÐ¿ÑĢÐ¾Ð³ÑĢÐ°Ð¼": 1247,
      "ĠÐ¿Ð¾Ð»ÑĥÑĩÐ¸": 1248,
      "ÐµÐ´Ð¸": 1249,
      "ĠÐ´ÐµÑıÑĤÐµÐ»ÑĮ": 1250,
      "ÑģÑĤÑĭ": 1251,
      "..<|": 1252,
      "ĠÐ¿Ð¾ÑĤ": 1253,
      "ĠÐ½Ð°ÑĢÐ¾Ð´": 1254,
      "Ð¾ÑģÐ¾": 1255,
      "Ġ195": 1256,
      "ÑĥÐ»ÑĮÑĤÐ°": 1257,
      "ÑĢÐ¸ÑģÐ°": 1258,
      "ÑĨÐµÐ²": 1259,
      "ĠÐ¿ÑĢÐ¾ÑģÑĤÐ¾": 1260,
      "ĠÑĤÐµÐ»Ðµ": 1261,
      "ĠÐĲÐ»ÐµÐºÑģ": 1262,
      "ĠÐ¿Ð¾ÐºÐ°": 1263,
      "ÑĦÑĦ": 1264,
      "Ð¾Ð¼Ñĥ": 1265,
      "ĠÑģÐ¿Ð¾ÑģÐ¾Ð±": 1266,
      "ĠÐĴÐ°": 1267,
      "ÑĢÐ°Ð±Ð¾ÑĤ": 1268,
      "Ð¾Ð²Ð°Ð½": 1269,
      "ĠÐ½ÐµÑģÐº": 1270,
      "ĠÐ¾Ð´Ð¸Ð½": 1271,
      "Ġ,": 1272,
      "Ð¼ÐµÑĤ": 1273,
      "ÑģÑĤÐ²ÐµÐ½Ð½ÑĭÐ¹": 1274,
      "ÑĥÑİÑīÐ¸": 1275,
      "ÐºÐ¾ÑĤÐ¾ÑĢ": 1276,
      "ĠÑĥÑĩ": 1277,
      "ÑĤÑĥÑĢÐ°": 1278,
      "ĠÐ¿ÑĢÐ¾ÑĤÐ¸Ð²": 1279,
      "ÑıÐ¼": 1280,
      "ÑĢÐµÐ¹": 1281,
      "ĠÐºÐ¾Ð»": 1282,
      "Ġ12": 1283,
      "ĠÐµÑĳ": 1284,
      "ĠÐ´ÐµÐ½ÑĮ": 1285,
      "ĠÐ¿ÑĢÐµÐ´Ð»Ð¾Ð¶": 1286,
      "Ð¾ÑĢÑĤ": 1287,
      "ĠÐ¿ÑĢÐ¸Ð½Ñı": 1288,
      "ĠÑĩÐµÐ»Ð¾Ð²Ðµ": 1289,
      "ĠÑıÐ½": 1290,
      "Ð²Ð¸Ð¶": 1291,
      "Ð»Ð¸Ð½": 1292,
      "ĠÑįÐ»ÐµÐºÑĤ": 1293,
      ");": 1294,
      "ĠÐ¶Ð¸Ð²": 1295,
      "ĠÐĴÐ¾": 1296,
      "ĠA": 1297,
      "ÐĶÐ°": 1298,
      "ĠÐ³Ð¾Ð»": 1299,
      "Ð¸Ð»Ð¾ÑģÐ¾": 1300,
      "Ð¾ÑĤÐ¾Ð²": 1301,
      "ĠÑģÐ°": 1302,
      "ĠÐºÑĥ": 1303,
      "ĠÑģÐ¾ÑģÑĤÐ¾Ñı": 1304,
      "ĠÐľÐ¾ÑģÐº": 1305,
      "Ð½ÑĮ": 1306,
      "ĠÑįÑĤÐ¾Ð³Ð¾": 1307,
      "ĠÐ±Ð¾Ð»ÑĮÑĪÐµ": 1308,
      "ĠÐ³ÑĢÑĥÐ¿": 1309,
      "ÑĪÐµÐ½Ð¸Ðµ": 1310,
      "ÑĢÑĥÐ´": 1311,
      "ÑĪÐ¸Ð½": 1312,
      "Ð¿Ð°Ð´": 1313,
      "ĠÑģÐ»": 1314,
      "Ð¸Ð»Ð¸": 1315,
      "ÑĮÐµ": 1316,
      "ÑģÐ»Ñĥ": 1317,
      "ĠÐ¿Ð¾Ð½": 1318,
      "ÐºÐ°Ñı": 1319,
      "ÑĤÐµÐ»Ð¸": 1320,
      "ÑħÐ¾Ð²": 1321,
      "ĠÐ½Ð¸Ñħ": 1322,
      "ĠÐ²ÐºÐ»ÑİÑĩÐ°": 1323,
      "ÐµÑĢÐµÐ·": 1324,
      "Ð¾Ð³ÑĢÐ°ÑĦÐ¸": 1325,
      "ĠÐ½Ð°Ð·ÑĭÐ²Ð°": 1326,
      "ĠÑģÐ»ÑĥÑĩÐ°": 1327,
      "ÑıÑħ": 1328,
      "ĠÑģÐµÐ±Ñı": 1329,
      "ÑĤÑĢÐ°": 1330,
      "ĠÑĤÑĢÐ°": 1331,
      "ÑĢÐµÐ²": 1332,
      "ĠÑĨÐµÐ½ÑĤ": 1333,
      "Ð²Ð¾Ð´Ð¸": 1334,
      "ĠÐ·ÐµÐ¼": 1335,
      "ÑĤÐ¾ÑĢÐ°Ñı": 1336,
      "ĠÐ¿Ð°Ð¼": 1337,
      "Ð»ÐµÑĤ": 1338,
      "ĠÑģÑĤÑĢÐ°Ð½Ñĭ": 1339,
      "Ð½Ð¾ÑģÑĤÑĮÑİ": 1340,
      "ÐºÐ°Ð¼Ð¸": 1341,
      "ĠÐ¿Ð»Ð°": 1342,
      "Ġ14": 1343,
      "ÐµÑĤÐµ": 1344,
      "ÑģÑĤÐ²Ð¾Ð¼": 1345,
      "Ð¶ÐµÐ½": 1346,
      "ĠÐĺÐ·": 1347,
      "Ð¾Ð¶Ð¸": 1348,
      "ÐºÐ°Ð·": 1349,
      "Ð¾Ð½Ð¸": 1350,
      "Ð¿Ñĭ": 1351,
      "ĠÐ¢Ð°": 1352,
      "ĠÑĦÑĢÐ°Ð½ÑĨÑĥÐ·": 1353,
      "ĠÐ¼Ð¾Ð´": 1354,
      "Ð½Ð°ÐºÐ¾": 1355,
      "Ð´Ð¾ÑĢ": 1356,
      "ĠÑģÑĩÐ¸ÑĤÐ°": 1357,
      "ĠÐ¿ÑĢÐ°Ð²Ð¸ÑĤÐµÐ»ÑĮ": 1358,
      "Ð±Ñĥ": 1359,
      "ĠÑĤÐ¾Ð¶Ðµ": 1360,
      "Ġthe": 1361,
      "ĠÑıÐ½Ð²Ð°": 1362,
      "ĠÑĢÐµÐ·ÑĥÐ»ÑĮÑĤÐ°": 1363,
      "Ð¾Ð·Ð¸": 1364,
      "ÑĤÐ¸Ðµ": 1365,
      "ÑĥÐ½Ðº": 1366,
      "ĠÐ¸Ð·Ð²ÐµÑģÑĤ": 1367,
      "ĠÐ²ÑģÐµÑħ": 1368,
      "ÑīÐ¸Ð¹": 1369,
      "Ð§": 1370,
      "ĠÐľÐ°ÑĢ": 1371,
      "ĠÐ¼Ð¸ÑĢÐ°": 1372,
      "ĠÐ±Ð¾Ð»ÑĮÑĪ": 1373,
      "ĠÐºÐ»Ð¸": 1374,
      "ĠÐ¼Ð½Ðµ": 1375,
      "ĠÐ½ÐµÐ¼Ðµ": 1376,
      "ÑĩÐµÐ½ÑĮ": 1377,
      "ÑĤÑĢÐ¸": 1378,
      "ĠÐ¾ÑģÑĤ": 1379,
      "ÐºÐ°Ñħ": 1380,
      "ĠÑįÐºÐ¾Ð½Ð¾Ð¼Ð¸": 1381,
      "ĠÐ°Ð½Ð³": 1382,
      "ĠÐ´Ð°Ð¶Ðµ": 1383,
      "ÐĿÐµ": 1384,
      "ĠÐŀÐ±": 1385,
      "ĠÑĢÐ¸": 1386,
      "Ð¼ÐµÐ½Ð¸": 1387,
      "Ð²Ð°Ð½Ð¸Ðµ": 1388,
      "ÐµÑĤÑĮ": 1389,
      "ĠÐµÑīÑĳ": 1390,
      "Ð¾ÑĢÐ°": 1391,
      "ÑģÐ¸Ñı": 1392,
      "ĠÐ¸ÑģÑĤÐ¾ÑĢÐ¸": 1393,
      "ĠÐ¤ÑĢÐ°Ð½": 1394,
      "Ð¾Ð»Ð¸ÑĩÐµ": 1395,
      "ĠÐ·Ð°ÐºÐ¾Ð½": 1396,
      "ÑĢÐ¾Ð²Ð°ÑĤÑĮ": 1397,
      "Ġc": 1398,
      "ÐºÐ¸Ñħ": 1399,
      "ÐµÐ½Ð¾": 1400,
      "ĠÐºÐ°ÑĢ": 1401,
      "ĠÑģÑĥÑīÐµÑģÑĤÐ²": 1402,
      "Ð¾Ð¿ÑĢÐ¾Ñģ": 1403,
      "ĠÐ°ÐºÑĤÑĢÐ¸ÑģÐ°": 1404,
      "ĠÐŁÐ¾Ñģ": 1405,
      "ĠÐ¿Ð¸ÑģÐ°ÑĤÐµÐ»ÑĮ": 1406,
      "ÑĢÐ°Ð»": 1407,
      "ĠÐ·Ð½Ð°ÑĩÐ¸": 1408,
      "ĠÐ´ÐµÐºÐ°": 1409,
      "Ð¾Ð±ÑīÐµ": 1410,
      "Ð·Ð°ÑĨÐ¸Ð¸": 1411,
      "ÑģÑģÐ»ÐµÐ´": 1412,
      "ÑģÐ¿Ðµ": 1413,
      "ÑĢÐ°ÑĤ": 1414,
      "ĠÐ¾ÑģÑĤÐ°": 1415,
      "ĠÑĩÐ¸": 1416,
      "ĠÐĲÐ»ÐµÐºÑģÐ°Ð½Ð´": 1417,
      "ĠP": 1418,
      "ÐµÑĤÑĭ": 1419,
      "ĠÐ±Ðµ": 1420,
      "ĠÐ¾Ð±Ð»Ð°ÑģÑĤÐ¸": 1421,
      "ÐµÑĪÑĮ": 1422,
      "ÐĿÐ°": 1423,
      "Ġ|": 1424,
      "Ġ13": 1425,
      "ÑģÑĤÐµÐ¹": 1426,
      "ĠÑĤÐµÐ°ÑĤ": 1427,
      "Ð°Ð½Ð¸ÐµÐ¼": 1428,
      "ĠÐ¿Ð»Ð¾": 1429,
      "ÐºÐ¸Ðµ": 1430,
      "ĠÑĢÐ¾ÑģÑģÐ¸Ð¹ÑģÐºÐ¸Ð¹": 1431,
      "ĠÐ½Ð°Ð´": 1432,
      "ĠÐŀÐ´": 1433,
      "ĠÐ°Ð¼ÐµÑĢÐ¸ÐºÐ°Ð½ÑģÐºÐ¸Ð¹": 1434,
      "Ð½Ð°Ð»Ð¸": 1435,
      "ĠÑĩÐ°ÑģÑĤÑĮ": 1436,
      "ĠÐ±ÑĥÐ´Ñĥ": 1437,
      "ĠÐ½ÐµÐ¼ÐµÑĨ": 1438,
      "ĠÐĴÑĭ": 1439,
      "Ð¾ÑĢÐ¾Ð´": 1440,
      "ÐļÐ°": 1441,
      "ÑĤÐ°Ð»ÑĮ": 1442,
      "ĠÐĴÐµÐ»Ð¸": 1443,
      "ÑĩÐ½Ð¾Ð¹": 1444,
      "ÑģÑĤÐ¸ÑĤÑĥ": 1445,
      "ĠÐ¿Ð¾Ð±": 1446,
      "Ġ191": 1447,
      "ĠÐºÐ°Ð¶Ð´": 1448,
      "Ð¸ÑģÑģ": 1449,
      "ÑĤÑĥÑĢÑĭ": 1450,
      "ĠÑĩÐ°ÑģÑĤÐ¸": 1451,
      "Ð¾Ð³Ð¾Ð²": 1452,
      "Ð»Ð°Ð´": 1453,
      "ĠÐ²Ð¾ÐµÐ½": 1454,
      "ĠÐ°Ð²Ð³Ñĥ": 1455,
      "Ð´ÑĮ": 1456,
      "ĠÐºÐ¾Ñģ": 1457,
      "ĠÐ´Ð°Ð½Ð½ÑĭÑħ": 1458,
      "ÑĥÑİÑĤ": 1459,
      "Ð¼Ð¸Ð½Ð¸": 1460,
      "ĠÑĢÐ°Ð²": 1461,
      "ĠÐĲÐ²": 1462,
      "Ð»Ð¸Ð¸": 1463,
      "ÑĤÐ¾Ð¼Ñĥ": 1464,
      "ĠÑĩÐµÑĢÐµÐ·": 1465,
      "ÐºÐ¾Ðµ": 1466,
      "ÑĤÐµÐ¹": 1467,
      "Ð½Ð¸ÑĨÐ°": 1468,
      "ĠÐ´ÑĢÑĥÐ³Ð¸Ñħ": 1469,
      "Ð±ÑĥÑĢ": 1470,
      "ĠÑģÐµÐ½ÑĤ": 1471,
      "ĠÐ°Ð¿ÑĢÐµ": 1472,
      "Ġ190": 1473,
      "ĠÐ¡Ð°": 1474,
      "Ìģ": 1475,
      "ĠÑĦÐ¸Ð·Ð¸": 1476,
      "ĠÐµÑīÐµ": 1477,
      "ĠÐºÑĢÐ¸": 1478,
      "ĠÑģÐ¾Ð·Ð´Ð°": 1479,
      "ĠÑĥÐ½Ð¸": 1480,
      "ĠÐĿÐ¾Ð²": 1481,
      "ĠÐ¾ÐºÑĤ": 1482,
      "ĠÑħÐ°": 1483,
      "ÑģÑĤÐ²Ð¸Ñı": 1484,
      "ĠT": 1485,
      "ÐºÐ¾Ð»Ð¾": 1486,
      "ĠÐ¿Ð¾Ð¼Ð¾": 1487,
      "ĠÑĩÐµÐ¼Ð¿Ð¸": 1488,
      "ÑĪÐµÐ³Ð¾": 1489,
      "Ð²ÑĪÐ¸Ð¹": 1490,
      "Ð¾Ð»Ð¾Ð¶": 1491,
      "Ġ11": 1492,
      "ÑĢÐ¸ÑģÑĤ": 1493,
      "ĠÐ¼ÐµÑģÑĤ": 1494,
      "ĠÐ²Ð°Ð¶": 1495,
      "Ð·Ð¼": 1496,
      "ÑĤÐ¸Ð¸": 1497,
      "ĠÐ¼Ð°Ñı": 1498,
      "ÑīÐµÐ½Ð¸Ñı": 1499,
      "ĠÑĦÐ¸Ð»Ð¾ÑģÐ¾": 1500,
      "ÑıÐ²Ð¸": 1501,
      "ĠÑģÐµÑĢ": 1502,
      "ĠÐ¼Ð½Ð¾Ð³Ð¾": 1503,
      "ĠÐ¿Ð¾Ð»Ð¸ÑĤÐ¸": 1504,
      "ĠÑıÐ½Ð²Ð°ÑĢÑı": 1505,
      "Ġ/": 1506,
      "ĠÐ¼Ð¾ÑĢ": 1507,
      "ĠÐ»ÑĥÑĩ": 1508,
      "Ð³Ð»Ð°": 1509,
      "ĠÐ´Ð¾Ð±": 1510,
      "ĠÑĤÑĢÐ°Ð½": 1511,
      "Ð´Ð¶": 1512,
      "ĠÐºÑĥÐ»ÑĮ": 1513,
      "ĠÑģÐ¾Ð¾ÑĤ": 1514,
      "ÑħÐ¾Ð´Ð¸ÑĤ": 1515,
      "ĠÐ¾ÑģÐ¾Ð±": 1516,
      "ÑıÑģ": 1517,
      "ĠÐ¶Ð¸Ð·Ð½Ð¸": 1518,
      "Ð½ÑĥÑĤ": 1519,
      "ĠÐ¡Ð¸": 1520,
      "ĠÐŀÑģ": 1521,
      "ĠÐºÑĢÑĥÐ¿": 1522,
      "Ð»Ð¾Ð¼": 1523,
      "ĠÑĢÐ°Ð¹": 1524,
      "ĠÐ¿ÑĢÐ¾ÑĨÐµ": 1525,
      "ĠÐ°Ð»": 1526,
      "ÑĩÑĮ": 1527,
      "ĠÐ¾Ð±Ñĭ": 1528,
      "ĠÐ¿Ð¾Ð´Ð´ÐµÑĢ": 1529,
      "Ð°Ð½Ð¸Ñİ": 1530,
      "ĠÑģÑĤÐ°Ð»": 1531,
      "ÑģÑĤÐ²Ð¸Ðµ": 1532,
      "ĠÐºÐ°ÑĩÐµ": 1533,
      "Ð½Ð¾Ð²Ð°": 1534,
      "Ð¥": 1535,
      "Ð±ÐµÑĢ": 1536,
      "Ð³Ð¸Ð¸": 1537,
      "ĠÐ³Ð»Ð°Ð²": 1538,
      "ĠÑģÐ²Ð¾Ð¸": 1539,
      "ĠÐ¼Ð°ÑĢÑĤÐ°": 1540,
      "ÑģÑģÐ°": 1541,
      "ĠÐ¿ÐµÑĢÐ¸": 1542,
      "ĠÑģÐ¾Ð³": 1543,
      "ĠÐ²ÑĢÐµÐ¼ÐµÐ½Ð¸": 1544,
      "ĠÐ½ÐµÐºÐ¾ÑĤÐ¾ÑĢ": 1545,
      "ĠÐ²Ð¾Ð¿ÑĢÐ¾Ñģ": 1546,
      "Ð²Ð°ÑĢ": 1547,
      "ĠÐ³Ð»Ð°": 1548,
      "ÐµÑģÐ¿Ðµ": 1549,
      "Ð´ÐµÐ»ÑĮ": 1550,
      "ĠÐłÐ°": 1551,
      "ĠÐ¸ÑİÐ»Ñı": 1552,
      "ĠÑĤÐ¾Ñĩ": 1553,
      "ic": 1554,
      "ĠÑģÐ¸Ð»": 1555,
      "ĠÐ½Ð°ÑģÐµÐ»ÐµÐ½Ð¸Ñı": 1556,
      "Ð½Ð°ÑĢÐ¾Ð´": 1557,
      "it": 1558,
      "ĠÐºÐ½Ð¸": 1559,
      "ÑģÑĤÐ°Ð²Ð»ÑıÐµÑĤ": 1560,
      "ÑĢÐµÑĤ": 1561,
      "Ð¼Ð¿": 1562,
      "ĠÐ¿Ð¾Ð»ÑĮÐ·": 1563,
      "Ð²Ð°ÐµÑĤÑģÑı": 1564,
      "ĠÐºÐ¾Ð»Ð¸ÑĩÐµ": 1565,
      "ĠÐ¾ÑĩÐµÐ½ÑĮ": 1566,
      "ĠÐ¢Ð°Ðº": 1567,
      "ĠÐ´Ð²Ñĥ": 1568,
      "ĠÐ¾Ð±ÐµÑģÐ¿Ðµ": 1569,
      "ĠÐºÐ¾ÑĤÐ¾ÑĢÑĭÑħ": 1570,
      "ĠÑģÐ»Ð¾Ð²": 1571,
      "ĠÑĪÐ¸": 1572,
      "ĠÑĥÑĢÐ¾Ð²": 1573,
      "ĠÐľÐµ": 1574,
      "ĠÐŀÐ½": 1575,
      "ÑİÑīÐ¸Ñħ": 1576,
      "ĠÐºÑĤÐ¾": 1577,
      "ĠÐ²ÑģÐµÐ³Ð¾": 1578,
      "ÑģÑĤÐµÑĢ": 1579,
      "ĠÑĦÐµÐ²": 1580,
      "ĠÐºÑĢÐµ": 1581,
      "Ð»ÑıÑĢ": 1582,
      "ĠÑħÑĥÐ´": 1583,
      "ĠÐ¼Ð¾Ð»": 1584,
      "ÑĦÑĦÐµÐº": 1585,
      "Ð²Ð¾Ð¹": 1586,
      "ĠÐ²Ð¾Ð¹Ð½Ñĭ": 1587,
      "ĠÐļÐ°ÑĢ": 1588,
      "Ð²Ñı": 1589,
      "ĠÐ²Ð¸Ð´Ðµ": 1590,
      "is": 1591,
      "Ð±Ð»Ð¸": 1592,
      "ĠÑĢÐ°Ð·Ð»Ð¸Ñĩ": 1593,
      "ĠÐ´Ð¾ÑĢ": 1594,
      "ĠÐ¸Ð½ÑĦÐ¾ÑĢÐ¼Ð°": 1595,
      "es": 1596,
      "ÐºÐ¸Ð¼": 1597,
      "ĠÐ¸ÑģÑģÐ»ÐµÐ´": 1598,
      "ĠÑĢÑĥÑģÑģÐºÐ¸Ð¹": 1599,
      "ĠÐ´Ð²Ð°": 1600,
      "ĠÐ½ÑĥÐ¶": 1601,
      "ĠÐ´ÐµÐºÐ°Ð±ÑĢÑı": 1602,
      "ĠÐ¸ÑİÐ½Ñı": 1603,
      "ÑĤÐ²ÐµÑĢ": 1604,
      "ÐµÐ½ÑĤÐ°": 1605,
      "ÑıÐ²": 1606,
      "ÑĤÐµÐº": 1607,
      "ĠÐ¸ÑģÐ¿Ð¾Ð»ÑĮÐ·Ñĥ": 1608,
      "ĠÐ°Ð¿ÑĢÐµÐ»Ñı": 1609,
      "ĠÐ¾ÐºÑĢÑĥ": 1610,
      "Ð¾Ð½Ð¾Ð²": 1611,
      "ĠÐºÐ¾ÑĤÐ¾ÑĢÐ°Ñı": 1612,
      "ĠÑģÐµÐ½ÑĤÑıÐ±ÑĢÑı": 1613,
      "ĠÑĩÑĥ": 1614,
      "Ð½ÐµÐ½Ð¸Ñı": 1615,
      "Ð´Ð¸Ð¸": 1616,
      "ĠÐ²ÑĤÐ¾ÑĢ": 1617,
      "ĠÐ²ÑĭÑģÐ¾Ðº": 1618,
      "ĠÐ½ÐµÐ·Ð°": 1619,
      "ĠM": 1620,
      "ĠÑĦÐµÐ²ÑĢÐ°": 1621,
      "ĠÑĤÐ°ÐºÐ¸Ðµ": 1622,
      "ĠÐ¸ÑģÐºÑĥÑģ": 1623,
      "Ð²ÑĭÐµ": 1624,
      "Ġp": 1625,
      "ÑĢÑıÐ´": 1626,
      "ÑĢÐ¸ÑģÑĤÐ¸": 1627,
      "ĠÑĥÐ³": 1628,
      "ĠÐ³Ð¸": 1629,
      "ĠÐ¿ÑĢÐµÐ·Ð¸Ð´ÐµÐ½ÑĤ": 1630,
      "ĠÐ°Ð²Ð³ÑĥÑģÑĤÐ°": 1631,
      "Ð¾ÑģÐ¸": 1632,
      "ĠB": 1633,
      "ÑģÑĤÐ²ÐµÐ½Ð½Ð¾Ð³Ð¾": 1634,
      "ĠÑģÐ¾Ð¾ÑĤÐ²ÐµÑĤ": 1635,
      "ĠII": 1636,
      "ÐµÐ»Ðµ": 1637,
      "ĠÐ²Ð¾ÑĤ": 1638,
      "ĠÐ½ÐµÑģÐºÐ¾Ð»ÑĮÐºÐ¾": 1639,
      "ĠÐķÐ²ÑĢÐ¾Ð¿": 1640,
      "Ð²Ð¸ÑģÐ¸Ð¼Ð¾": 1641,
      "ĠÑħÐ¾": 1642,
      "ĠÐ¿ÑĢÐ°": 1643,
      "ÑīÐµÐ¹": 1644,
      "ÑĦÐµÑĢ": 1645,
      "Ð²Ð°Ð»": 1646,
      "ĠÐ¾ÐºÑĤÑıÐ±ÑĢÑı": 1647,
      "Ð¾ÑĢÐ¾ÑĪ": 1648,
      "Ð¼Ð°ÑĤÐ¸": 1649,
      "Ð°Ð²": 1650,
      "ĠÐ³ÐµÑĢ": 1651,
      "ÑİÐ·": 1652,
      "ĠÐ°Ð½": 1653,
      "ÑīÐµÐ½": 1654,
      "ÐµÐ´Ðµ": 1655,
      "ĠÐ¾ÐºÐ¾Ð»Ð¾": 1656,
      "ÑĤÐ°Ð½": 1657,
      "ÑĥÑĪ": 1658,
      "ĠÐ¿ÑĢÐ¾Ð¸Ñģ": 1659,
      "ĠÐºÐ¾ÑĤÐ¾": 1660,
      "ĠÑģÑĭ": 1661,
      "ĠÑĦÑĥÐ½Ðº": 1662,
      "Ð¼ÐµÐ½ÑĤ": 1663,
      "ĠÐ½Ð¾ÑĢ": 1664,
      "ĠÐĴÐ¸": 1665,
      "ÐºÐ¾Ð³Ð¾": 1666,
      "Ð²Ð°ÑİÑĤ": 1667,
      "Ð²Ð°Ð½Ð¸Ñı": 1668,
      "ĠÑģÐ¿Ðµ": 1669,
      "ÑĢÐ¾Ðµ": 1670,
      "ÑĨÐµÐ½": 1671,
      "ĠÐ°ÐºÑĤÑĳÑĢ": 1672,
      "ÑģÑģÐ¸": 1673,
      "Ð²Ð°Ð»Ð¸": 1674,
      "ĠÐ¸Ð³": 1675,
      "ÑģÑĤÑĢÐ¾Ð¹": 1676,
      "Ð¾Ð¿Ð¸": 1677,
      "ÑĩÐµÑģÐºÐ°Ñı": 1678,
      "ĠÑģÐ²Ð¾Ð¹": 1679,
      "ĠÐ¿ÐµÑĢÐ²ÑĭÐ¹": 1680,
      "ĠÑĩÐ»ÐµÐ½": 1681,
      "ĠÑģÑĤÑĢÐ¾": 1682,
      "ĠÐ¸Ð¼Ð¿ÐµÑĢÐ°": 1683,
      "ĠÑĨÐ¸": 1684,
      "ÐŃÑĤÐ¾": 1685,
      "ĠÐĿÐ¾": 1686,
      "Ð»ÑĳÐ½": 1687,
      "Ð¾Ð»Ð¾Ð³": 1688,
      "ÑĤÐµÐ³Ð¾": 1689,
      "Ð½Ð¸Ñħ": 1690,
      "ĠÑģÑĤÐ¸": 1691,
      "ro": 1692,
      "ĠÐ°Ð´": 1693,
      "Ġ189": 1694,
      "ĠÑĤÑĥ": 1695,
      "Ð¾ÑĤÑı": 1696,
      "ĠÐ¼Ð½Ð¾Ð³Ð¸": 1697,
      "ĠÐ²Ð¼Ðµ": 1698,
      "ĠÑģÐ¾Ð·Ð´": 1699,
      "ÑīÐµÐ½Ð¸Ðµ": 1700,
      "ĠÐ°Ð½Ð³Ð»Ð¸Ð¹": 1701,
      "ĠÑĤÑĢÐ¸": 1702,
      "ĠÑĤÐ¾ÑĢ": 1703,
      "ĠÐŁÑĢÐ¾": 1704,
      "ĠÐ¸Ð·Ð¼ÐµÐ½": 1705,
      "ÑĨÑĥ": 1706,
      "ĠÑĢÑĭ": 1707,
      "ĠÑĩÐµÐ»Ð¾Ð²ÐµÐºÐ°": 1708,
      "Ð²ÑĢÐ°": 1709,
      "ing": 1710,
      "ÐµÑĢÐ°": 1711,
      "ĠÑĤÐµÑĢÑĢÐ¸ÑĤÐ¾ÑĢÐ¸Ð¸": 1712,
      "ĠÑĩÐµÐ¼Ð¿Ð¸Ð¾Ð½": 1713,
      "ĠÐ½ÐµÐ¾Ð±": 1714,
      "ÑīÐµÐ³Ð¾": 1715,
      "Ġd": 1716,
      "Ð¾Ð´ÐµÑĢ": 1717,
      "ĠÐ³ÐµÐ½Ðµ": 1718,
      "ĠÐ²Ð½Ðµ": 1719,
      "ĠÐĽÐµ": 1720,
      "ĠÐĳÐ°": 1721,
      "ÑĪÐ¸Ð¼": 1722,
      "ĠÐºÐ¾ÑĢÐ¾Ð»": 1723,
      "ĠÐ´Ð²Ð¸Ð¶": 1724,
      "ÑħÐ²Ð°": 1725,
      "Ð»Ð°Ð´Ð¸": 1726,
      "Ð·Ð½": 1727,
      "ĠÑģÐµÐ¼": 1728,
      "ÑħÑĥ": 1729,
      "ĠÐŀÑĤ": 1730,
      "ĠXI": 1731,
      "Ð¶Ð´Ð°Ð½": 1732,
      "ĠÑĦÐµÐ²ÑĢÐ°Ð»Ñı": 1733,
      "ĠÐĶÐ°": 1734,
      "Ġ25": 1735,
      "ĠÐ¼Ð»": 1736,
      "ĠÑĥÑģ": 1737,
      "ĠÐ½Ð¾ÑıÐ±ÑĢÑı": 1738,
      "ĠÐ¿Ð»Ð°Ð½": 1739,
      "Ð¶Ð¸ÑģÑģ": 1740,
      "ĠXX": 1741,
      "Ð¾ÑĢÐµ": 1742,
      "ĠÐ´Ð¾ÑģÑĤÐ¸": 1743,
      "ÑĨÐ¸ÐµÐ¹": 1744,
      "ĠV": 1745,
      "ÑģÑĤÐ²ÐµÐ½Ð½Ð¾": 1746,
      "Ð²Ð¾Ð»Ñİ": 1747,
      "**": 1748,
      "ĠÑģÐ´ÐµÐ»Ð°": 1749,
      "10": 1750,
      "ÑĢÐ°Ð±": 1751,
      "ĠÐ¸Ð´Ðµ": 1752,
      "ÑİÑīÐ¸Ðµ": 1753,
      "Ġs": 1754,
      "Ð¾ÐºÑĥ": 1755,
      "ÑĤÑĢ": 1756,
      "ĠÑģÐ²Ð¾ÐµÐ¹": 1757,
      "ÑĪÐµÐ¹": 1758,
      "ĠÑįÐ½ÐµÑĢ": 1759,
      "ÑĤÐ°Ð¹": 1760,
      "Ð¾Ð»Ð°": 1761,
      "ĠÑĤÑĢ": 1762,
      "ÑģÑĤÐ²ÐµÐ½Ð½Ð¾Ð¹": 1763,
      "ĠÑĤÐ°ÐºÐ¸Ñħ": 1764,
      "Ð½ÐµÐ³Ð¾": 1765,
      "ĠÐ¸Ð·Ð¾Ð±": 1766,
      "ÑĢÐ¾Ð¼Ðµ": 1767,
      "ĠÐ¡ÑĤÐ°": 1768,
      "ĠÑĦÐ¸Ð»ÑĮ": 1769,
      "Ð¾ÑĢÐ¾Ð½": 1770,
      "ÑĩÐµÐ¼": 1771,
      "ÑĢÑĥÐ³": 1772,
      "ĠÑģÐ¾Ð²ÑĢÐµÐ¼ÐµÐ½": 1773,
      "ÑĮÑĤÐµ": 1774,
      "ĠÐ²ÑģÑĳ": 1775,
      "ĠÑģÑĤÐ¾": 1776,
      "Ð¼Ð¸ÑĢ": 1777,
      "ÑĤÐ¸ÑģÑĤ": 1778,
      "ĠÑįÑĤÐ¾ÑĤ": 1779,
      "Ġa": 1780,
      "ĠÑĩÐ°ÑģÑĤ": 1781,
      "Ð¶Ð´Ð°": 1782,
      "ÐĹÐ°": 1783,
      "Ð²Ð¸Ð´": 1784,
      "ĠÐĴÑģÐµ": 1785,
      "Ð·Ð¼Ð°": 1786,
      "Ġf": 1787,
      "ĠÐ¸Ð¼ÐµÐ½": 1788,
      "ĠÑħÐ°ÑĢÐ°Ðº": 1789,
      "000": 1790,
      "ĠÑĪÐ°": 1791,
      "Ġ30": 1792,
      "Ġ+": 1793,
      "ĠÑģÐ»Ð¾Ð¶": 1794,
      "ĠÑģÐ»Ð¾Ð²Ð°": 1795,
      "ĠÐµÐ²": 1796,
      "Ð»Ð¾Ð²Ð¸": 1797,
      "Ð¾ÑĤÐ¾": 1798,
      "ĠÑģÐµÐº": 1799,
      "ÐµÐ½ÑĤÐ¾Ð²": 1800,
      "ĠÐ¸Ð¼ÐµÐµÑĤ": 1801,
      "12": 1802,
      "ĠÑģÐ¾Ð»": 1803,
      "ĠÑĥÐ´Ð°": 1804,
      "Ð²Ð¾Ðµ": 1805,
      "17": 1806,
      "Ð°Ð½Ð¸Ð¼Ð°": 1807,
      "ĠÐ¶ÐµÐ½": 1808,
      "Ð³Ð°Ð½": 1809,
      "ĠÑĦÐ°": 1810,
      "ĠÐ±Ð»Ð°": 1811,
      "ÑģÐµÑĢ": 1812,
      "ÑĮÐµÑĢ": 1813,
      "ĠÐ²Ð¾Ð»": 1814,
      "ĠÐ¡Ð¾Ð²ÐµÑĤ": 1815,
      "ĠÐ¾Ð±ÑĢÐ°Ð·Ð¾Ð¼": 1816,
      "Ð¾Ð»Ð¾Ð³Ð¸Ð¸": 1817,
      "Ð¾Ð²Ð°Ð»": 1818,
      "ĠÐ¿ÑĢÐ¾Ð±Ð»Ðµ": 1819,
      "and": 1820,
      "ĠÐ½Ð°ÑħÐ¾Ð´Ð¸": 1821,
      "Ð¾Ð±ÑĢÐ°Ð·": 1822,
      "Ð½Ñİ": 1823,
      "Ġ.": 1824,
      "Ð½Ð°Ð¼Ð¸": 1825,
      "ĠÐºÐ½Ñı": 1826,
      "ĠÐ¼ÑĥÐ·Ñĭ": 1827,
      "Ð¾ÑĢÐ¾Ð½Ñĭ": 1828,
      "ĠÐºÐ¼": 1829,
      "ÑıÐ¼Ð¸": 1830,
      "ÑĢÐ°Ñģ": 1831,
      "ĠÑģÐ²Ð¾Ðµ": 1832,
      "ÑģÑĤÐ²Ñĥ": 1833,
      "ÑİÑīÐ¸Ð¹": 1834,
      "ĠÑĢÐ°ÑģÑģ": 1835,
      "ion": 1836,
      "ĠÑįÑĦÑĦÐµÐº": 1837,
      "ĠÐºÐ¾ÑĤÐ¾ÑĢÐ¾Ð¹": 1838,
      "ĠÐ»ÑİÐ´ÐµÐ¹": 1839,
      "ĠÐ³Ð°": 1840,
      "ĠÐ½Ð°Ð´Ð¾": 1841,
      "ĠÐ½ÐµÐ¾Ð±ÑħÐ¾Ð´Ð¸": 1842,
      "Ð½Ð°ÑĩÐ°": 1843,
      "ĠÐ¿ÑĢÐ¾Ð´Ð¾Ð»": 1844,
      "15": 1845,
      "ĠÑįÑĤÐ¾Ð¹": 1846,
      "ĠÐ¿ÑĢÐ¾Ð¼": 1847,
      ".,": 1848,
      "ĠÑĢÐ°ÑģÐ¿ÑĢÐ¾": 1849,
      "ĠÐĿÐ¸ÐºÐ¾Ð»": 1850,
      "ÑĥÑīÐµÑģÑĤÐ²": 1851,
      "ĠÐ¿Ð¾Ð¼Ð¾Ñī": 1852,
      "Ġ0": 1853,
      "ĠÐ¾Ð±ÑĥÑĩ": 1854,
      "ĠÐ²Ð¾Ð¾Ð±ÑīÐµ": 1855,
      "Ġâ": 1856,
      "ĠÐ´ÑĢÑĥÐ³Ð¸Ðµ": 1857,
      "ĠÐ½ÐµÐ¿": 1858,
      "ĠÐ·Ð°Ð´Ð°": 1859,
      "ÑĤÐµÐ¼": 1860,
      "ĠÑģÐ¾Ñħ": 1861,
      "ĠÑĤÐµÐº": 1862,
      "ĠÑĤÑĥÑĤ": 1863,
      "ĠÐºÐ»Ð°Ñģ": 1864,
      "Ð¸ÑĤÐµÐ»ÑĮ": 1865,
      "Ð¾Ð´Ðµ": 1866,
      "ÑĢÐ¾Ð±": 1867,
      "ÑĢÐ¾Ð²Ð°Ð½Ð¸Ñı": 1868,
      "ÑīÐ¸Ñħ": 1869,
      "ĠÑģÑĥÐ´": 1870,
      "ÑģÐ¸ÑĤÐµ": 1871,
      "Ð¾Ð¶Ð´ÐµÐ½Ð¸Ñı": 1872,
      "ÑĩÐ½ÑĭÑħ": 1873,
      "ĠÐ²Ð»Ð¸Ñı": 1874,
      "Ð¾Ð±ÑĭÑĤÐ¸Ñı": 1875,
      "ĠÐ¿ÑĢÐ¾Ð¸Ð·Ð²Ð¾Ð´": 1876,
      "Ð¶Ð¸ÑģÑģÑĳÑĢ": 1877,
      "ĠÑĨÐµÑĢ": 1878,
      "ÑĪÐ¸Ð¹": 1879,
      "ĠÑģÐ¸ÑģÑĤÐµÐ¼Ñĭ": 1880,
      "ĠÐ¾ÑĦÐ¸": 1881,
      "ĠÐ¼Ð¸ÑĢÐµ": 1882,
      "ĠÐļÐ¾ÑĢ": 1883,
      "ĠÐŁÑĢÐµ": 1884,
      "ÑīÐ°Ñı": 1885,
      "ĠÐ»Ð¸ÑĤÐµÑĢÐ°": 1886,
      "ĠÐ½Ð°Ð¿Ð¸Ñģ": 1887,
      "ĠÑģÐ¾Ð´ÐµÑĢ": 1888,
      "ÑĢÐ°Ð·Ð¸": 1889,
      "ĠÐĴÐµÑĢ": 1890,
      "ÑĪÐµÐ½": 1891,
      "Ð³Ð´Ð°": 1892,
      "ÑĩÐ½ÑĭÐ¹": 1893,
      "ÑģÑĤÑĢÑĥÐº": 1894,
      "ĠÑģÑĤÑĢÐ°Ð½": 1895,
      "ĠÐĴÐ»Ð°Ð´Ð¸": 1896,
      "ĠÐ°ÑĢÑħÐ¸": 1897,
      "ĠÐ·Ð°Ð½Ð¸Ð¼Ð°": 1898,
      "ĠÑĤÑĢÐµ": 1899,
      "ÑĩÐ¸Ð½Ð°": 1900,
      "ÑĢÐ°Ð½Ð¸": 1901,
      "ÑĤÐ°Ð¼Ð¸": 1902,
      "ĠÐŁÐ¾ÑģÐ»Ðµ": 1903,
      "ĠÑģÐ²Ð¾Ñİ": 1904,
      "--": 1905,
      "ĠÐ¼ÐµÑģÑĤÐ¾": 1906,
      "ĠÑĩÐ°ÑģÑĤÐ¾": 1907,
      "ÑģÐ¾": 1908,
      "ÑĥÑĤÐ±": 1909,
      "ĠÐ¸Ð½ÑĤÐµÑĢ": 1910,
      "ĠÐ¸Ð¼Ð¿Ðµ": 1911,
      "ĠÐ¾Ð¿ÐµÑĢÐ°": 1912,
      "ÑĩÐ½ÑĭÐµ": 1913,
      "Ġ188": 1914,
      "ÑĢÐ¸ÑĤÐ°Ð½": 1915,
      "ĠÐ£ÐºÑĢÐ°": 1916,
      "ĠÐ¾Ð±ÑĢÐ°": 1917,
      "ĠÐ°Ð²ÑĤÐ¾Ð¼": 1918,
      "ĠÑĪÐºÐ¾Ð»": 1919,
      "Ð°Ð´": 1920,
      "ÐµÐ¿": 1921,
      "ĠÐµÐµ": 1922,
      "ĠÑĦÐ¸": 1923,
      "ÑģÐºÐ¾Ð¼Ñĥ": 1924,
      "ĠÑĤÐµÐ±Ñı": 1925,
      "Ð½ÑĨÐ¸": 1926,
      "ÑĢÐ¸Ð°Ð½": 1927,
      "ĠÑĥÑĩÐ¸": 1928,
      "ĠÑģÐ¾Ð±Ð¾Ð¹": 1929,
      "ĠÐ¾ÑĤÐ²ÐµÑĤ": 1930,
      "ĠÐ²ÑĭÐ¿Ð¾Ð»": 1931,
      "ĠÑģÐ¾Ð¾Ð±": 1932,
      "ĠÐ¿Ð¾Ð·Ð²Ð¾Ð»": 1933,
      "ĠÐ½ÐµÐ³Ð¾": 1934,
      "Ð½ÐµÑĤ": 1935,
      "ĠÑĥÐ½Ð¸Ð²ÐµÑĢ": 1936,
      "Ð¸Ð½Ñĥ": 1937,
      "ÑĢÐ°ÑĤÑĮ": 1938,
      "ĠÐ¸ÑģÑĤÐ¾ÑĢÐ¸Ð¸": 1939,
      "ĠÐ´Ð²ÑĥÑħ": 1940,
      "ĠÐĵÐµÑĢÐ¼": 1941,
      "ĠÐĺÑģÐ¿": 1942,
      "ĠÑĤÐµÐ°ÑĤÑĢÐ°": 1943,
      "ÑĩÐµÐ³Ð¾": 1944,
      "Ð²Ð»Ðµ": 1945,
      "ĠD": 1946,
      "ĠÐ¿ÑĢÐ¸Ð¼ÐµÑĢ": 1947,
      "ĠÐ´Ð¾Ð¼": 1948,
      "ÑĭÑĪÐ»ÐµÐ½": 1949,
      "ÑĭÑĤ": 1950,
      "ĠÐłÐµÑģÐ¿": 1951,
      "Ð»ÐµÑĢ": 1952,
      "Ð³ÐµÐ½": 1953,
      "Ð»Ð°Ð½Ð´": 1954,
      "ĠÑĢÐµÐ³Ð¸": 1955,
      "ÑģÐ»Ð°": 1956,
      "ĠÑįÐºÑģÐ¿": 1957,
      "ĠÐ¿ÑĢÐµÐ´ÑģÑĤÐ°Ð²Ð¸": 1958,
      "Ð²ÑĪÐ¸Ðµ": 1959,
      "ĠÑģÐ»ÐµÐ´ÑĥÑİ": 1960,
      "ÑĩÐ°ÐµÑĤ": 1961,
      "Ð·Ð¸Ð¸": 1962,
      "ĠÑĤÑĢÐ°Ð½ÑģÐ¿": 1963,
      "Ð´ÐµÐ»Ð¸": 1964,
      "ÑĨÐ¸Ð°Ð»Ð¸": 1965,
      "Ð·Ð°Ð¸Ð¼": 1966,
      "ÑĤÐ°ÑĢ": 1967,
      "ĠÑĦÑĢÐ°Ð½ÑĨÑĥÐ·ÑģÐºÐ¸Ð¹": 1968,
      "ĠÑĢÐ°ÑģÐ¿ÑĢÐ¾ÑģÑĤÑĢÐ°Ð½": 1969,
      "ÐµÑĢÑĤ": 1970,
      "ĠG": 1971,
      "ÑĭÐ¼Ð¸": 1972,
      "Ð¾Ð»Ð¾Ð²": 1973,
      "ĠÐ¢Ðµ": 1974,
      "ĠÑıÐ²Ð»ÑıÑİÑĤÑģÑı": 1975,
      "ÑıÑĤÑģÑı": 1976,
      "ĠÐłÐ¾ÑģÑģÐ¸Ð¹": 1977,
      "ÑģÑĥÑĤ": 1978,
      "ĠÐłÐµ": 1979,
      "ĠÐ¿Ð¾Ð»ÑĮÐ·Ð¾Ð²Ð°": 1980,
      "ÑĢÐ¸Ð¼ÐµÑĢ": 1981,
      "ÑĩÐ¸Ñģ": 1982,
      "ÐºÐ°Ð´Ðµ": 1983,
      "ĠÑħÐ¸": 1984,
      "ĠÐ¾Ð¿Ð¸Ñģ": 1985,
      "ĠÐ´ÐµÑĢÐµ": 1986,
      "ĠÐ¡ÐµÐ²ÐµÑĢ": 1987,
      "Ð½ÐµÐ¼": 1988,
      "Ð²Ð¾Ð·": 1989,
      "ĠÑģÐ¾ÑĤ": 1990,
      "ÑıÐ´": 1991,
      "Ð¾Ð¿Ð°": 1992,
      "ĠÐ´ÑĥÐ¼Ð°": 1993,
      "ĠÐłÐµÑģÐ¿ÑĥÐ±Ð»Ð¸": 1994,
      "ĠÐ¼Ð¸ÑĢÐ¾Ð²": 1995,
      "ÑĪÐ»Ð¸": 1996,
      "ĠÐ¡ÑĤ": 1997,
      "ĠÐĽÑĥ": 1998,
      "ĠÐ¿Ð¾ÑįÑĤ": 1999,
      "Ð¾Ð»ÑĮÑĪ": 2000,
      "ÑĢÐ¸Ð½": 2001,
      "ÐºÐ¾Ð½ÑĩÐ°": 2002,
      "ĠÐĵÐ°": 2003,
      "ĠÐĽÑİ": 2004,
      "ĠÐ³Ð°Ð·": 2005,
      "ĠÐ¾ÑĤÐ½Ð¾ÑģÐ¸": 2006,
      "ĠÑģÐµÐ±Ðµ": 2007,
      "ÑħÐ¾": 2008,
      "ĠÑģÐ¾ÑĨÐ¸Ð°Ð»ÑĮ": 2009,
      "ĠF": 2010,
      "ĠÐ¿Ð¾Ð·Ð²Ð¾Ð»Ñı": 2011,
      "16": 2012,
      "ĠÐ±Ð¸": 2013,
      "ĠÑĢÐµÐ»Ð¸": 2014,
      "ĠÐ°ÑĢÑĤÐ¸ÑģÑĤ": 2015,
      "ĠÑĢÐ¾": 2016,
      "ĠÐĶÐ¾": 2017,
      "ur": 2018,
      "ĠÐ·Ð°Ð½": 2019,
      "Ð»ÐµÐ½Ñĭ": 2020,
      "et": 2021,
      "ÐµÐ´Ð¸Ð½": 2022,
      "ĠXIX": 2023,
      "ĠL": 2024,
      "el": 2025,
      "ÑģÑĤÐ¾Ðº": 2026,
      "ĠÐ¿Ð¾Ð½Ñı": 2027,
      "Ð¸Ð±Ð¾Ð»ÐµÐµ": 2028,
      "ÑĤÑı": 2029,
      "ĠÐºÐ¾Ð½Ðµ": 2030,
      "ĠÐ¡ÐµÑĢ": 2031,
      "ĠÐµÐ¼Ñĥ": 2032,
      "ĠÑģÐ¾Ð²ÐµÑĢ": 2033,
      "ĠÐŁÐµÑĤ": 2034,
      "ÑĤÐ¸ÑĩÐµÑģÐºÐ¸": 2035,
      "ĠÑĤÐ¾Ð³Ð´Ð°": 2036,
      "ĠÑĤÑĢÐµÐ±": 2037,
      "ÑĤÐµÐ³Ð¾ÑĢÐ¸Ñı": 2038,
      "ĠÑĤÑĭÑģÑı": 2039,
      "Ð¾Ð±Ð¾Ð´": 2040,
      "ĠÐ½Ð°Ð¿ÑĢÐ¸Ð¼ÐµÑĢ": 2041,
      "ĠÑĦÑĥÑĤÐ±": 2042,
      "ÑĢÐ°Ð·Ð´": 2043,
      "ĠR": 2044,
      "ĠÐ°Ð¼ÐµÑĢÐ¸ÐºÐ°Ð½ÑģÐºÐ°Ñı": 2045,
      "ĠÐ±Ð¾ÑĢ": 2046,
      "ÑģÐºÐ¾Ð²": 2047,
      "Ð´Ð¾ÑĢÐ¾Ð²": 2048,
      "Ð»ÑĥÑĩ": 2049,
      "ĠÐ²Ð½ÑĥÑĤ": 2050,
      "Ð»Ð¾ÑĤ": 2051,
      "ĠÑħÑĥÐ´Ð¾Ð¶": 2052,
      "Ð»Ð¾Ð½": 2053,
      "ÑĩÐ°Ñģ": 2054,
      "ÑĩÐ°Ð½Ð¸Ñı": 2055,
      "ĠÐĽÐ°": 2056,
      "ĠÐºÐ¾Ð½ÑĨÐµ": 2057,
      "ĠÐ²Ð¸Ð´": 2058,
      "ÑĤÐµÐ»ÑĮÐ½ÑĭÐµ": 2059,
      "Ð¶Ñĥ": 2060,
      "ĠÐŀÐ´Ð½Ð°ÐºÐ¾": 2061,
      "ĠÑħÐ¾ÑĢÐ¾ÑĪ": 2062,
      "Ð²ÐµÑģÑĤÐ¸": 2063,
      "ĠÑģÐ²Ð¾Ð¸Ñħ": 2064,
      "ent": 2065,
      "Ð¾Ð·Ñı": 2066,
      "ĠÐ½ÐµÐ¹": 2067,
      "Ð¿Ð¾Ð´": 2068,
      "ĠÐ²Ð°Ð¼": 2069,
      "ĠÐ°Ð²ÑĤÐ¾ÑĢ": 2070,
      "ĠÐ³ÑĢÐ°Ð¶Ð´Ð°Ð½": 2071,
      "ÑĤÐ¸ÑĤÑĮ": 2072,
      "ĠÐ²Ð·Ð°Ð¸Ð¼": 2073,
      "Ð³Ð¾ÑĤÐ¾Ð²": 2074,
      "ÑĩÐµÑģÐºÐ¾Ðµ": 2075,
      "ĠÐ½Ð°ÑĨÐ¸Ð¾Ð½Ð°Ð»ÑĮ": 2076,
      "ÑĤÐ¾Ð½": 2077,
      "Ð¾Ð¿Ð¾Ð»": 2078,
      "Ð¼Ð°Ð»ÑĮ": 2079,
      "14": 2080,
      "ÑıÐ±": 2081,
      "ÑĤÐµÐ½": 2082,
      "ĠÐ¼Ð°ÑĤÐµ": 2083,
      "ÑĭÑĤÐ°": 2084,
      "ĠÑĢÐ°Ð´Ð¸": 2085,
      "ÑĪÐµÐµ": 2086,
      "ÑĢÐ°Ñħ": 2087,
      "ĠÐ¸Ð³ÑĢÐ°": 2088,
      "ĠÐ´ÐµÐ¹ÑģÑĤÐ²": 2089,
      "Ð¼Ð¸Ñı": 2090,
      "om": 2091,
      "ÑģÑĤÐ¾Ð¹": 2092,
      "ĠÐ¿Ð°Ð¼ÑıÑĤÑĮ": 2093,
      "Ð½ÑıÑı": 2094,
      "ĠÐ²ÑģÑĤÑĢÐµ": 2095,
      "Ġin": 2096,
      "Ġb": 2097,
      "ĠÐ¿ÑĢÐ¾ÐµÐº": 2098,
      "ÑĤÐµÐ»ÑĮÐ½ÑĭÑħ": 2099,
      "ĠÐºÐ¾Ð¼Ð¿Ð¾Ð·Ð¸": 2100,
      "ĠÑĩÐµÐ³Ð¾": 2101,
      "ĠÐĵÐµ": 2102,
      "ĠH": 2103,
      "ĠÐ¼ÐµÑĤÐ¾Ð´": 2104,
      "Ð°ÑĢÑı": 2105,
      "ĠÑģÐ¼ÐµÑĢ": 2106,
      "ÐµÐ¹ÑĩÐ°Ñģ": 2107,
      "Ð¾Ð¿Ð°Ñģ": 2108,
      "ĠÐ¿ÑĢÐ¾ÑĨÐµÑģÑģ": 2109,
      "ĠÑĤÐ°ÐºÐ¾Ð¹": 2110,
      "ĠÑģÐ²ÑıÐ·Ð°Ð½": 2111,
      "Ġ187": 2112,
      "ĠÑĢÑĥÐºÐ¾Ð²": 2113,
      "ĠÑģÐ¼": 2114,
      "ĠÑĨÐµÐ»": 2115,
      "Ð³ÐµÑĢ": 2116,
      "ĠÑĢÐµÐ²Ð¾Ð»Ñİ": 2117,
      "ĠÐ½Ð°ÑĥÑĩ": 2118,
      "ÑĤÐ°Ðº": 2119,
      "ÑĥÐ¼Ð°": 2120,
      "ĠÑĥÑĤÐ²ÐµÑĢ": 2121,
      "ĠÐ¼Ð¸ÑĢ": 2122,
      "ĠÐ¿ÑĢÐ¸ÑĢÐ¾Ð´": 2123,
      "Ð²Ð¸Ñĩ": 2124,
      "ÑģÑĤÐ²ÐµÐ½Ð½ÑĭÑħ": 2125,
      "ĠÐ¼Ð°ÑĤÐµÑĢÐ¸": 2126,
      "ĠÐ¾Ð±ÑĬÐµÐº": 2127,
      "ĠÐ²Ð°Ñģ": 2128,
      "ĠÑĢÐ°Ð±Ð¾ÑĤÑĭ": 2129,
      "ÐºÐ²Ð¸": 2130,
      "13": 2131,
      "Ġw": 2132,
      "ĠÐ¿ÐµÑĢÐ¸Ð¾Ð´": 2133,
      "Ð»ÑĥÐ±": 2134,
      "ĠÐ¿ÐµÑĢÐµÐ´Ð°": 2135,
      "ĠÐłÐ¸": 2136,
      "ĠÐ³Ð¾Ð´Ð°Ñħ": 2137,
      "Ġ(Â«": 2138,
      "Ġ186": 2139,
      "Ð»ÐµÐ½Ð¸Ð¸": 2140,
      "Ð¹ÑĤÐ¸": 2141,
      "ĠÑĤÐµÑħÐ½": 2142,
      "ĠÐ½Ñĥ": 2143,
      "ÑĢÐ¸ÑģÑĤÐ¸Ð°Ð½": 2144,
      "Ð¶ÐµÐ½Ð¸Ñı": 2145,
      "Ð»Ð¸Ð¼Ð¿": 2146,
      "ĠÐ½Ð°Ð±": 2147,
      "ĠÐ·Ð°ÑīÐ¸": 2148,
      "Ð·Ð¾Ð²": 2149,
      "ÑĢÐ°Ð²Ð»Ñı": 2150,
      "ĠÐĶÐ¸": 2151,
      "ĠÑģÐ¾ÑģÑĤÐ°Ð²": 2152,
      "ĠÐ·Ð°Ð¿": 2153,
      "Ð´Ð°ÑĢ": 2154,
      "ĠÑĢÐ°Ð·ÑĢÐ°Ð±Ð¾ÑĤ": 2155,
      "ĠâĢ": 2156,
      "ĠÑĤÑĢÑĥ": 2157,
      "ĠÐ¿ÑĢÐµÐ´Ð¾": 2158,
      "ĠÐ½ÐµÐ¼ÐµÑĨÐºÐ¸Ð¹": 2159,
      "ÑĪÐ¸ÑĤÐµ": 2160,
      "ĠÑĢÐµÐ·ÑĥÐ»ÑĮÑĤÐ°ÑĤÐµ": 2161,
      "ra": 2162,
      "ĠÐ²Ð¾Ð¹ÑģÐºÐ°": 2163,
      "ĠÐĲÐ»ÑĮ": 2164,
      "ĠÐ±ÐµÐ»": 2165,
      "ĠÐ²ÑĢÐ°": 2166,
      "Ð»Ð°Ð³Ð°": 2167,
      "ĠÐ²ÑĭÐ±Ð¾ÑĢ": 2168,
      "ĠÐ´Ð¾Ð¼Ð°": 2169,
      "ĠÐ±Ð°Ð½": 2170,
      "Ð»Ð¸Ð¼Ð¿Ð¸Ð¹": 2171,
      "Ð´Ð¸Ñı": 2172,
      "ÑħÐ¾Ð´Ñı": 2173,
      "ĠÐ¿ÑĢÐµÐ´ÑģÑĤÐ°Ð²": 2174,
      "ĠÑģÐ¾Ñģ": 2175,
      "ÐļÐ°ÑĤÐµÐ³Ð¾ÑĢÐ¸Ñı": 2176,
      "ĠÐºÑĥÑĢ": 2177,
      "Ð¾ÑĢÑĤÐ°": 2178,
      "ĠÐ³Ð¾ÑģÑĥÐ´Ð°ÑĢÑģÑĤÐ²Ð°": 2179,
      "Ġ24": 2180,
      "ĠÑĩÐ¸ÑģÐ»Ðµ": 2181,
      "Ġof": 2182,
      "ÑģÑĤÐ¾ÑıÐ½": 2183,
      "ĠÐºÐ°Ð½": 2184,
      "ÑĤÐµÐ»ÑĮÐ½ÑĭÐ¹": 2185,
      "ĠÐ¾Ð³": 2186,
      "ĠÐ²Ð¾Ð·Ð´Ñĥ": 2187,
      "ĠÑģÐµÐ²ÐµÑĢ": 2188,
      "ĠÑģÐ¼Ðµ": 2189,
      "Ð½Ð°Ð´": 2190,
      "ÑĪÑĥ": 2191,
      "ĠÐ¿Ð¾Ð³Ð¸": 2192,
      "ÑĤÐµÐ»ÑĮÐ½Ð¾Ðµ": 2193,
      "Ð½Ð°Ð»": 2194,
      "ĠÑĢÐ°ÑģÐ¿Ð¾Ð»Ð¾Ð¶": 2195,
      "ĠÐ¶ÐµÐ»Ðµ": 2196,
      "ĠÑģÐºÐ°Ð·Ð°": 2197,
      "ĠÑĥÐ¿ÑĢÐ°Ð²": 2198,
      "ÑĤÐµÐ»ÐµÐ¼": 2199,
      "ĠÑģÐ¸Ð¼": 2200,
      "ĠÐºÐ¾ÑĤÐ¾ÑĢÐ¾Ð³Ð¾": 2201,
      "ĠÐ¿ÐµÑĢÐµÐ´": 2202,
      "ÑģÑĤÑĥÐ¿Ð°": 2203,
      "ĠÐ»ÑĥÑĩÑĪÐµ": 2204,
      "un": 2205,
      "ĠÐĺÐ²Ð°Ð½": 2206,
      "ÑģÐºÐµ": 2207,
      "Ð¼Ð¸Ð½Ð¸ÑģÑĤÑĢÐ°": 2208,
      "ÑģÐµÐ½": 2209,
      "ĠÐ³Ðµ": 2210,
      "Ġ:.<|": 2211,
      "ĠÐ½Ð°Ð¿ÑĢÐ°Ð²": 2212,
      "ÐºÐ»Ð°": 2213,
      "ĠÐºÐ°ÑĩÐµÑģÑĤÐ²Ðµ": 2214,
      "ĠÑĦÐ°Ðº": 2215,
      "ĠÐ³Ð¾Ð´Ñĭ": 2216,
      "ĠÐ¸ÑģÑĤÐ¾Ñĩ": 2217,
      "Ġm": 2218,
      "ĠÐ¿ÑĢÐ°Ðº": 2219,
      "Ð½Ð°Ñħ": 2220,
      "ÑģÑĤÐ²Ð¸Ð¸": 2221,
      "ĠÐ°Ð½Ð°Ð»Ð¸": 2222,
      "ÑĩÐ¸Ð½": 2223,
      "ĠÐ´ÑĢÐµÐ²": 2224,
      "ĠÐ¿Ð¾Ð´Ð´ÐµÑĢÐ¶": 2225,
      "Ð»Ð°ÑģÐ½Ð¾": 2226,
      "ĠN": 2227,
      "ĠÐķÑģÐ»Ð¸": 2228,
      "ĠÐ»Ð¸ÑĪÑĮ": 2229,
      "ĠÐļÐ°Ðº": 2230,
      "ĠÐ¿Ð¾ÑĤÐ¾Ð¼": 2231,
      "ĠÐ¿ÑĢÐ¾Ð¼ÑĭÑĪÐ»ÐµÐ½": 2232,
      "ĠÑĤÐµÐ±Ðµ": 2233,
      "ĠÑĦÐ¸Ð»Ð¾ÑģÐ¾ÑĦ": 2234,
      "ÐºÐ°Ð·ÑĭÐ²Ð°": 2235,
      "Ð°Ð½Ñĭ": 2236,
      "ÑĳÑħ": 2237,
      "ÑĤÐ¾ÑĢÐ¾Ð²": 2238,
      "ĠÐ²Ð»Ð°ÑģÑĤÐ¸": 2239,
      "ĠÐ½Ð¸Ðº": 2240,
      "Ġ202": 2241,
      "ĠÑĥÐ½Ð¸Ð²ÐµÑĢÑģÐ¸ÑĤÐµ": 2242,
      "Ð·Ð°ÑĨÐ¸Ñı": 2243,
      "ĠÐ»ÑİÐ´Ð¸": 2244,
      "ĠÑĨÐ²ÐµÑĤ": 2245,
      "ĠÐ²ÑģÐµÐ³Ð´Ð°": 2246,
      "ĠÐµÐ´Ð¸": 2247,
      "ĠÑįÑĦÑĦÐµÐºÑĤÐ¸Ð²": 2248,
      "ÑģÑĤÑĢÐ¸": 2249,
      "Ð°ÑĢÑĮ": 2250,
      "ÑĤÐ°Ð»ÑĮÑıÐ½": 2251,
      "ÑģÐºÐ¾Ð»ÑĮ": 2252,
      "ĠÑįÑĤÐ¸Ñħ": 2253,
      "ÑĢÐ°ÑĨÐ¸Ð¸": 2254,
      "ĠÐ½Ð°Ñĥ": 2255,
      "ĠÐ¡Ð°Ð½": 2256,
      "ĠÑģÐ¸ÑģÑĤÐµÐ¼Ð°": 2257,
      "Ð²Ð½Ð¾": 2258,
      "Ð¿ÑĢÐ¸Ð¼ÐµÑĢ": 2259,
      "ĠÐ¿Ð»Ð¾ÑīÐ°": 2260,
      "Ð»Ð¸Ð·": 2261,
      "ĠÐºÐ¾ÑĤÐ¾ÑĢÐ¾Ðµ": 2262,
      "ÑīÐ¸Ðµ": 2263,
      "ÑĥÐ¿": 2264,
      "ÑĤÐµÐ»ÑĮÐ½Ð¾Ð¹": 2265,
      "ĠÐ³Ð¾ÑĢÐ¾Ð´Ðµ": 2266,
      "ĠXV": 2267,
      "ĠÐŁÑĢÐ¸Ð¼Ðµ": 2268,
      "Ð²ÑĭÐ¼": 2269,
      "ĠÐ±ÑĢÐ¸ÑĤÐ°Ð½": 2270,
      "ĠÑĥÐ²Ðµ": 2271,
      "ĠÐ¿ÑĢÐµÐ¼": 2272,
      "ÐºÐ¾Ð±": 2273,
      "Ð½Ð¸ÑĤÐµ": 2274,
      "ĠÐ¸ÑģÐ¿Ð¾Ð»ÑĮÐ·Ð¾Ð²Ð°ÑĤÑĮ": 2275,
      "ĠÑģÐ²ÑıÐ·Ð¸": 2276,
      "Ð¸Ð»Ð»Ð¸": 2277,
      "Ð»ÐµÐ½Ð°": 2278,
      "ĠÑĥÐ¼": 2279,
      "ĠÑĪÐ¸ÑĢÐ¾Ðº": 2280,
      "Ð»ÐµÐ½Ð¸ÐµÐ¼": 2281,
      "ĠÑģÑĤÐ°ÑĤÑĮ": 2282,
      "ĠÐ²ÑĢÐµÐ¼ÐµÐ½": 2283,
      "ĠÑįÑĤÐ°": 2284,
      "ĠÐ¿ÑĢÐ¾Ñģ": 2285,
      "ĠÑĢÐµÑģÐ¿": 2286,
      "ĠÐ¿Ð¾Ð´Ð¿Ð¸Ñģ": 2287,
      "ÑĪÐ»Ð°": 2288,
      "ÑĨÐµÐ½Ð°": 2289,
      "ĠÐ¼Ð°Ð»": 2290,
      "Ð¾ÑĢÑĥÐ¶": 2291,
      "Ð³ÑĢÐ°Ð½Ð¸": 2292,
      "ĠÐ¼Ð°ÑģÑģ": 2293,
      "ÑĥÐ»": 2294,
      "Ð¿ÑĢÐ¾": 2295,
      "ĠÑĦÐ¸Ð½": 2296,
      "ĠÐ¼ÐµÐ´Ð¸": 2297,
      "ÑģÐºÐ¸Ð¼Ð¸": 2298,
      "ĠÐĹÐµÐ¼": 2299,
      "ĠÐ¼ÐµÐ½Ðµ": 2300,
      "ĠÑĥÑģÑĤÐ°Ð½Ð¾Ð²": 2301,
      "Ð¢Ð°Ðº": 2302,
      "ÐºÐ°Ð¼": 2303,
      "Ġ23": 2304,
      "ÑĦÐ¸ÐºÐ°": 2305,
      "ÑģÐ¾Ð½": 2306,
      "ĠÑģÑĤÐ¾ÑĢÐ¾Ð½Ñĭ": 2307,
      "ĠÐŁÐ¾Ð´": 2308,
      "ĠÐ¼Ð¸Ð½Ð¸": 2309,
      "Ð¾Ñħ": 2310,
      "ÑĤÐ¸ÑĢÑĥ": 2311,
      "ĠÐ£ÐºÑĢÐ°Ð¸": 2312,
      "Ð²ÑĪÐ¸Ñħ": 2313,
      "ĠÐ´ÑĢÐ°": 2314,
      "Ð´ÐµÐ»Ñı": 2315,
      "ÑĤÐ¸Ðº": 2316,
      "ÑģÐºÐ¾Ð»ÑĮÐºÑĥ": 2317,
      "Ð¾Ð·Ð°": 2318,
      "Ð»ÑĮÐ½ÑĭÐµ": 2319,
      "ĠÐ¼Ð»Ð½": 2320,
      "ĠÐ¿Ð¾Ð¿Ñĥ": 2321,
      "ÑĩÐ¸Ðº": 2322,
      "ĠÑĤÑĭÑģ": 2323,
      "ÑĩÐ½Ð¾Ð³Ð¾": 2324,
      "ĠÐ¼ÐµÐ¶Ð´ÑĥÐ½Ð°ÑĢÐ¾Ð´": 2325,
      "ĠÐĲÑĦ": 2326,
      "Ð¾Ð´ÐµÐ¹": 2327,
      "ĠÐ¿ÑĢÐ¾Ð´ÑĥÐº": 2328,
      "ĠÐ³Ð¾Ð´Ð¾Ð²": 2329,
      "!!": 2330,
      "ĠÑĤÑĢÐ°Ð´Ð¸": 2331,
      "Ð·ÑĮ": 2332,
      "ĠÐ´ÐµÐ¼": 2333,
      "Ġ22": 2334,
      "Ð»ÑĮÐ½ÑĭÐ¹": 2335,
      "ĠÑģÐ²Ð¾Ð±Ð¾Ð´": 2336,
      "Ð¼Ð¾Ñģ": 2337,
      "ÑĩÑĥ": 2338,
      "Ð¸ÑĤÑĮ": 2339,
      "ĠÐŀÑģÐ½Ð¾Ð²": 2340,
      "Ð¾Ð·ÑıÐ¹": 2341,
      "Ġand": 2342,
      "ĠÐ¼Ð¾Ð¼": 2343,
      "Ġn": 2344,
      "ĠÐ±Ð¾": 2345,
      "ĠÑıÐ·ÑĭÐºÐ°": 2346,
      "ĠÑĥÑģÐ¿Ðµ": 2347,
      "ÑĥÑĢÐµ": 2348,
      "Ð¼Ð¾ÑĤÑĢÐµ": 2349,
      "ĠÐ¾Ð´Ð½Ð¾Ð¹": 2350,
      "ĠÐĲÐ»ÐµÐºÑģÐ°Ð½Ð´ÑĢ": 2351,
      "ol": 2352,
      "ĠÑĥÑĩÑĳ": 2353,
      "ĠÐŁÑĢÐ¸Ð¼ÐµÑĩÐ°Ð½Ð¸Ñı": 2354,
      "Ð½Ð¸ÑĨÑĭ": 2355,
      "ĠÐºÐ¾Ð¼Ð¿ÑĮÑİ": 2356,
      "ĠÐ¾Ð±Ñı": 2357,
      "Ð´ÑĢÐ°": 2358,
      "ĠÐ¿ÑĢÐ¾Ð³": 2359,
      "ÑĤÐ°Ñı": 2360,
      "ĠÑģÐ¾Ð³Ð»Ð°": 2361,
      "ĠÐ¼ÐµÑģÑı": 2362,
      "ĠÐ¾ÑĤÐ¿": 2363,
      "Ð±ÑĥÑĢÐ³": 2364,
      "ĠÐºÐ¾Ð»Ð¸ÑĩÐµÑģÑĤÐ²Ð¾": 2365,
      "ÑģÐ¾Ð¼": 2366,
      "ĠÑĥÐºÑĢÐ°": 2367,
      "ĠÐ¾ÑĦÐ¸ÑĨÐ¸Ð°Ð»ÑĮ": 2368,
      "ĠÑĢÐµÑģÐ¿ÑĥÐ±Ð»Ð¸": 2369,
      "ĠÐ¶Ð¸Ð²Ð¾ÑĤ": 2370,
      "ĠÐ¾Ð±ÑĭÑĩÐ½Ð¾": 2371,
      "ÑĢÐ´": 2372,
      "50": 2373,
      "ÑĤÐ½ÑĭÐ¹": 2374,
      "Ð·Ñı": 2375,
      "Ð¼Ð¾Ð²": 2376,
      "ĠÐ³Ð¾Ð²Ð¾ÑĢÐ¸": 2377,
      "ĠÐ¿Ð¾ÑģÑĤÑĢÐ¾": 2378,
      "ed": 2379,
      "ÑĩÐ½Ð°Ñı": 2380,
      "Ð±Ð¸ÑĢÐ°": 2381,
      "Ð¾Ð²Ð°Ð»Ð¸": 2382,
      "ĠÐļÐ¾Ð¼": 2383,
      "ĠÑĥÑĩÐ°ÑģÑĤ": 2384,
      "Ð³Ð»Ñı": 2385,
      "Ð°Ð½Ð¾": 2386,
      "Ð¾Ð·Ð½Ð°": 2387,
      "Ð°Ð½Ðµ": 2388,
      "ĠÑĥÐ»ÑĥÑĩ": 2389,
      "Ð¿Ð¸ÑĪÐ¸ÑĤÐµ": 2390,
      "Ð¾ÑģÑĤÐ¸": 2391,
      "ĠÐ¾ÑģÑĤÑĢÐ¾Ð²": 2392,
      "Ð½Ð¸ÑĨ": 2393,
      "ĠÑģÐ»ÑĥÑĩÐ°Ðµ": 2394,
      "Ð¾ÑĩÑĮ": 2395,
      "ĠÑĤÐµÐ¼Ð¿ÐµÑĢÐ°": 2396,
      "Ð¾ÑĢÐ¾Ð¶": 2397,
      "Ð±ÑĢÐ°": 2398,
      "ĠÐ±ÐµÑģÐ¿": 2399,
      "ÑģÑĤÐ²ÐµÐ½Ð½ÑĭÐµ": 2400,
      "200": 2401,
      "ac": 2402,
      "ĠÐ¸ÑĤÐ°Ð»ÑĮÑıÐ½": 2403,
      "ĠÐĳÐµÑĢ": 2404,
      "ÑİÑīÐµÐ¹": 2405,
      "ĠÐłÐ¾ÑģÑģÐ¸Ð¹ÑģÐºÐ¾Ð¹": 2406,
      "ÑĢÐ°Ð·Ñĥ": 2407,
      "ĠÐĶÐ»Ñı": 2408,
      "ĠÑģÐ²Ð¾ÐµÐ³Ð¾": 2409,
      "ĠÐ¼Ð°ÑĪÐ¸": 2410,
      "ĠÐºÐ¾Ð½ÑĤÑĢ": 2411,
      "Ð´Ð°ÑĤÐµÐ»ÑĮ": 2412,
      "ĠÑĤÐµÐ¾": 2413,
      "ÑģÐ¾Ð½Ð°": 2414,
      "ĠÐ¼Ð¾Ð½Ð°": 2415,
      "ÑıÑĤÐ¸": 2416,
      "ĠÐĵÐ¾ÑģÑĥÐ´Ð°ÑĢ": 2417,
      "ĠÐľÐ°Ðº": 2418,
      "ĠÐ½Ð°Ð·Ð½Ð°": 2419,
      "Ħĸ": 2420,
      "ĠÐ¼Ð½Ð¾Ð¶Ðµ": 2421,
      "ĠÐ¿ÑĢÐ¸Ð¼ÐµÐ½": 2422,
      "ĠÐ°ÐºÑĤÐ¸Ð²": 2423,
      "Ð»ÐºÐ¸": 2424,
      "ÑİÐ·Ð°": 2425,
      "ĠÐ²ÐµÐ»Ð¸": 2426,
      "ÑĩÐ¸ÑĤÑĮ": 2427,
      "um": 2428,
      "ÐºÑĢÐµ": 2429,
      "ĠÐºÐ¾Ð¼Ð¿Ð¾Ð·Ð¸ÑĤÐ¾ÑĢ": 2430,
      "ĠÐ°Ð±": 2431,
      "Ð¾Ð»Ð¾Ð³Ð¸Ñı": 2432,
      "ÑĪÑĳÐ»": 2433,
      "ĠÐ·Ð´Ð¾ÑĢÐ¾Ð²": 2434,
      "ĠÐ³ÑĢÑĥÐ¿Ð¿Ñĭ": 2435,
      "ĠÐ¼ÐµÐ½ÑĮ": 2436,
      "ĠÐŁÐ¸": 2437,
      "ĠÑĩÑĥÐ²": 2438,
      "Ġ21": 2439,
      "ĠÐ¤ÑĢÐ°Ð½ÑĨÐ¸Ð¸": 2440,
      "ĠÑģÐ°Ð¼Ð¾": 2441,
      "ÑĢÐ¾Ð²Ð°Ð½Ð¸Ðµ": 2442,
      "ĠÐłÐ°Ð·": 2443,
      "ÑĪÐ¸ÑĤÑĮ": 2444,
      "Ð¼ÐµÐ½ÑĤÑĭ": 2445,
      "ÐļÐ°Ðº": 2446,
      "Ð¾Ð½Ñĭ": 2447,
      "III": 2448,
      "ĠÐ¶ÑĥÑĢ": 2449,
      "ĠE": 2450,
      "ĠÐ¿Ð¾Ð»Ð¸ÑĤÐ¸ÑĩÐµ": 2451,
      "ĠÐ¿Ð¾ÑĤÑĢÐµÐ±": 2452,
      "ĠÑģÐ»Ðµ": 2453,
      "ĠÐ½ÐµÐ·Ð°Ð²Ð¸ÑģÐ¸Ð¼Ð¾": 2454,
      "ĠÑıÐ·ÑĭÐº": 2455,
      "ÑĢÐ°Ð´": 2456,
      "ĠÐ´ÑĢÑĥÐ³Ð¾Ð¹": 2457,
      "ĠÐ¸Ð¼ÐµÑİÑĤ": 2458,
      "ÑĩÐµÑĤ": 2459,
      "ĠÐŁÑĥ": 2460,
      "Ġ26": 2461,
      "ĠÐºÐ¾Ð¼Ð°Ð½Ð´": 2462,
      "Ġ28": 2463,
      "ĠÑĢÑıÐ´": 2464,
      "ĠÑģÐ¾Ð¾ÑĤÐ²ÐµÑĤÑģÑĤÐ²": 2465,
      "Ð¾Ð»Ð¸ÑģÑĤ": 2466,
      "ĠÐ¾Ð´Ð½Ð¾": 2467,
      "ĠÐ¿ÑģÐ¸": 2468,
      "Ð´Ð¸ÑĤÐµ": 2469,
      "ĠÐ¸Ð¼Ð¿ÐµÑĢÐ¸Ð¸": 2470,
      "ĠÑģÐ½Ð¸": 2471,
      "ĠÐ¿Ð¾Ð³": 2472,
      "ÑİÑģÑĮ": 2473,
      "ut": 2474,
      "ÐµÐ¼ÑĭÑħ": 2475,
      "Ð¿ÑĢÐ¸Ñı": 2476,
      "ĠÐ½Ð°ÑģÑĤÐ¾Ñı": 2477,
      "ĠâĦĸ": 2478,
      "ĠÐ¿Ð¾ÑģÑĤÐ¾ÑıÐ½": 2479,
      "Ð³Ð¾ÑĢ": 2480,
      "Ġ27": 2481,
      "ĠÑģÐºÐ¾ÑĢÐ¾": 2482,
      "Ð»Ð¾Ðº": 2483,
      "Ð¶ÐµÐ½Ð¸Ðµ": 2484,
      "ĠÐ±ÐµÐ·Ð¾Ð¿Ð°Ñģ": 2485,
      "ĠÐ¿Ð¾Ð»ÑĥÑĩÐ°": 2486,
      "ÑĥÑİÑīÐ¸Ðµ": 2487,
      "Ð²Ð¸Ð³Ð°": 2488,
      "ĠÐ¿ÑĢÐ¾ÑģÑĤÑĢÐ°Ð½": 2489,
      "Ð³Ð¸Ñı": 2490,
      "ĠÐŁÐµ": 2491,
      "ĠÐĶÐµÐ½ÑĮ": 2492,
      "ĠÐ´ÐµÑĢÐµÐ²": 2493,
      "ÑħÐ¾Ð´Ð°": 2494,
      "ĠÑħÐ¾ÑĤÑı": 2495,
      "ĠÐŁÐ¾Ð»": 2496,
      "ÐºÑĤÐ¾Ð²": 2497,
      "ĠÐ³ÑĢÐµ": 2498,
      "Ð²Ð°ÑĤÑĮÑģÑı": 2499,
      "Ð´Ð¸Ð½Ð°": 2500,
      "Ð¿Ð»": 2501,
      "ĠÐ°Ð½ÑĤÐ¸": 2502,
      "il": 2503,
      "Ð¾Ð²Ð¾Ð¹": 2504,
      "ÑĩÐµÑĢ": 2505,
      "ĠÑĦÐ¾ÑĤ": 2506,
      "ÑĢÐ°Ð¶ÐµÐ½Ð¸Ðµ": 2507,
      "ĠÐ¼ÐµÐ½ÐµÐµ": 2508,
      "ÑĤÑĭÐ¹": 2509,
      "ÑĢÐµÐ½Ð¸Ñı": 2510,
      "ĠÑģÑĢÐ°Ð²": 2511,
      "ÑĤÐ¾ÑĢÐ¸": 2512,
      "ĠÐ°ÐºÐ°Ð´Ðµ": 2513,
      "ĠÐ¿ÑĢÐ¸Ð·Ð½Ð°": 2514,
      "Ð¾Ð¿Ñĥ": 2515,
      "ĠÐ½Ð°Ð·Ð²Ð°Ð½Ð¸Ðµ": 2516,
      "ĠÑģÑĤÑĢÐ°Ð½Ðµ": 2517,
      "Ð¶Ð°ÑĤÑĮ": 2518,
      "Ð³Ð¾ÑĢÐ¾Ð´": 2519,
      "ĠÑĩÐµÑĢ": 2520,
      "ĠÐ¿Ð¸ÑģÑĮ": 2521,
      "ĠÐ·Ð°Ð½Ñı": 2522,
      "Ð½Ð¸ÐºÐ¾Ð¼": 2523,
      "ĠÐ¾ÑĤÐ½Ð¾ÑĪÐµÐ½Ð¸Ñı": 2524,
      "ĠÑģÑĨÐµÐ½Ð°": 2525,
      "Ð°Ð½Ð¸Ð¹": 2526,
      "Ð¶Ð¸ÑĤ": 2527,
      "ĠÐ´ÐµÐ²": 2528,
      "ÑĩÐµÐ¹": 2529,
      "Ð¼ÐµÐ½ÑĮ": 2530,
      "ÑĥÐ¹": 2531,
      "ÑĩÑĳÑĤ": 2532,
      "ĠÐºÐ¾ÑĢÐ¾Ð»ÑĮ": 2533,
      "Ð¿ÐµÑĢÐ²ÑĭÐµ": 2534,
      "ÑįÐ½": 2535,
      "ĠÑĤÐ¾ÑĢÐ³Ð¾Ð²": 2536,
      "ÑĤÐ°Ñħ": 2537,
      "ÑĩÐµÑģÐºÐ¸Ð¼": 2538,
      "Ð¾ÑģÑĤ": 2539,
      "ĠÐ³ÑĢÑĥ": 2540,
      "Ġ100": 2541,
      "199": 2542,
      "ĠÑģÐ¿Ð°": 2543,
      "ĠÐĲÐ½Ð´": 2544,
      "ĠÐ¸Ð½ÑĤÐµÑĢÐµÑģ": 2545,
      "ĠÐºÐ»Ð°ÑģÑģÐ¸": 2546,
      "ĠÑģÐ¾ÑĤÑĢÑĥÐ´": 2547,
      "ĠÐ¾ÑģÐ½Ð¾Ð²Ð°": 2548,
      "Ð½ÐµÑģ": 2549,
      "ĠÐ¾ÑĩÐµ": 2550,
      "ĠÑĢÐµÐ°Ð»ÑĮ": 2551,
      "ĠÑĨÐµ": 2552,
      "ÑĥÑīÐµ": 2553,
      "ÑĦÐ¸ÑĨÐ¸": 2554,
      "ĠÐ½ÑĥÐ¶Ð½Ð¾": 2555,
      "ĠÐĽÐµÐ½Ð¸": 2556,
      "Ð¼Ð¸Ð½": 2557,
      "Ð³Ð¾Ñģ": 2558,
      "ÐµÑĢÑĭ": 2559,
      "ĠÐ¤ÐµÐ´Ðµ": 2560,
      "Ð½ÐµÐ½Ð¸Ðµ": 2561,
      "ĠÐ¿Ð¾Ð¼Ð¾ÑĩÑĮ": 2562,
      "ĠÐ²Ð¼ÐµÑģÑĤÐµ": 2563,
      "ĠÐ±Ð¾Ð»ÑĮÑĪÐ¸Ð½": 2564,
      "ĠÐ¼Ð¸Ð½": 2565,
      "ÐŁÑĢÐ¸": 2566,
      "Ð¾ÑıÑĤ": 2567,
      "ÑģÑĤÐ°Ð½Ð°": 2568,
      "ĠÐ²Ð¾Ð´Ñĭ": 2569,
      "Ð¿Ð¾Ñģ": 2570,
      "ĠÐĲÐ½Ð³": 2571,
      "ĠÐ¾Ð´Ð½Ð°ÐºÐ¾": 2572,
      "Ġ`": 2573,
      "ÑĢÑĥÑİ": 2574,
      "ĠÐ´ÐµÑĤ": 2575,
      "ĠÐĶÐµ": 2576,
      "ĠÐŀÑĢ": 2577,
      "Ð¿ÐµÑĢÑĮ": 2578,
      "ĠÐ½ÐµÐ¼": 2579,
      "ĠÐ½ÐµÐ±": 2580,
      "ĠÐ§Ðµ": 2581,
      "ĠÑģÐ¾ÑģÑĤÐ°Ð²Ð»ÑıÐµÑĤ": 2582,
      "ĠÐ½Ð°Ð¸Ð±Ð¾Ð»ÐµÐµ": 2583,
      "ĠÑģÑĢÐµÐ´Ð¸": 2584,
      "ÐµÐ·Ð´": 2585,
      "ĠÐ·Ð°Ð³": 2586,
      "ĠÐ¼Ð¸Ð»Ð»Ð¸": 2587,
      "ĠÐľÑĥ": 2588,
      "Ð²ÑĭÐ¹": 2589,
      "ÑĩÐ°ÑĤ": 2590,
      "ĠÐĺÑģÑĤÐ¾": 2591,
      "ĠÐĲÐ»": 2592,
      "ĠÐºÐ¾ÑĤÐ¾ÑĢÐ¾Ð¼": 2593,
      "ĠÐ¿ÑĥÐ±Ð»Ð¸": 2594,
      "Ð¾ÑĤÐµ": 2595,
      "ĠÐ¸Ñģ": 2596,
      "Ð´ÐµÑģÑĮ": 2597,
      "Ð¿Ð¾Ð½": 2598,
      "ÑĤÐ¸Ð»": 2599,
      "Ð¼ÑĭÑģ": 2600,
      "ĠÐ¿Ð¾Ð¼Ð¾ÑīÑĮÑİ": 2601,
      "ĠIII": 2602,
      "ÑĨÐ¾Ð²": 2603,
      "ĠÐŀÐ½Ð¸": 2604,
      "ĠÐ¡Ð°Ð¼": 2605,
      "ĠÐ°Ð½Ð³Ð»Ð¸Ð¹ÑģÐºÐ¸Ð¹": 2606,
      "ÐºÐ¸Ð½": 2607,
      "ĠÐ»ÐµÐ³": 2608,
      "Ġ//": 2609,
      "ĠÑĨÐµÐ½": 2610,
      "ÑĤÐ°Ð¼": 2611,
      "ĠÐłÐ¾Ð´Ð¸": 2612,
      "ĠÐ·Ð°ÑħÐ²Ð°": 2613,
      "ÐºÑģ": 2614,
      "ĠÐ°ÑĢÑħÐ¸ÑĤÐµÐº": 2615,
      "Ð²Ð¸Ð°": 2616,
      "ÑģÑĤÑĮÑİ": 2617,
      "ĠÐºÐ°ÐºÐ¾Ð¹": 2618,
      "Ð¸Ð´": 2619,
      "ÑıÐ²Ð»Ñı": 2620,
      "ĠÐ¿Ð¾ÑĩÑĤÐ¸": 2621,
      "ÑħÐµ": 2622,
      "ĠÐ²ÑĭÐ¿Ñĥ": 2623,
      "ĠÐ´Ð¾Ð³Ð¾Ð²": 2624,
      "ĠÐ¾ÑģÐ½Ð¾Ð²Ðµ": 2625,
      "ÑĢÑĥÑģ": 2626,
      ".:": 2627,
      "ĠÑģÐ¾Ð¿": 2628,
      "Ð»ÑĮÐ½ÑĭÑħ": 2629,
      "Ð¼Ð°ÑĤÑĢÐ¸": 2630,
      "ĠÑĢÐµÑĪ": 2631,
      "ÑĪÐ»Ð¾": 2632,
      "ĠÐ¿Ð°ÑĢÐ»Ð°": 2633,
      "ĠÑģÐµÐ¹ÑĩÐ°Ñģ": 2634,
      "ÑĥÐ³": 2635,
      "ĠÑĢÐ¾Ð´": 2636,
      "ĠÐ¾Ð³ÑĢÐ°Ð½Ð¸": 2637,
      "ĠÑģÑĤÑĢÐ¾Ð¸ÑĤÐµÐ»ÑĮ": 2638,
      "ĠÐ°ÑĢÐ¼Ð¸Ð¸": 2639,
      "ÑĢÐ°Ð¼Ð¸": 2640,
      "Ð½ÐµÐ½": 2641,
      "ĠÑģÐ¾ÐºÑĢÐ°": 2642,
      "ĠÐļÑĢÐ¾Ð¼Ðµ": 2643,
      "ÑģÑĤÑĢÑĥ": 2644,
      "ĠÐ¿Ð¾Ð»Ð¾Ð¶": 2645,
      "ĠÐ®Ð¶": 2646,
      "ĠÐ¿ÑĢÐµÐ¼Ð¸Ð¸": 2647,
      "ĠÐ¿ÑĢÐµÐ´Ð»Ð¾Ð¶ÐµÐ½Ð¸Ðµ": 2648,
      "ĠÐ¸Ð¼Ð¿ÐµÑĢÐ°ÑĤÐ¾ÑĢ": 2649,
      "Ġl": 2650,
      "ĠÐ³Ð¾ÑģÑĥÐ´Ð°ÑĢÑģÑĤÐ²ÐµÐ½Ð½ÑĭÐ¹": 2651,
      "ĠÐ¿Ð¾Ð½Ð¸Ð¼Ð°": 2652,
      "ÑĩÑĳ": 2653,
      "Ð½Ð¸ÑĤÑĮ": 2654,
      "ĠÐ½Ð°ÑĩÐ¸Ð½Ð°": 2655,
      "ÐµÑĢÑħ": 2656,
      "Ð²Ð°Ð¹": 2657,
      "ĠÐ¸ÑģÐ¿Ð¾Ð»": 2658,
      "ĠÑħÑĥÐ´Ð¾Ð¶Ð½Ð¸Ðº": 2659,
      "Ð²ÐµÐ¹": 2660,
      "ĠÐ·Ð°ÐºÐ»Ñİ": 2661,
      "Ġ[": 2662,
      "Ð´ÐµÐ»": 2663,
      "ĠW": 2664,
      "ĠÐ¿ÑĢÐ¾ÑĦÐµ": 2665,
      "Ð·ÐµÑĢ": 2666,
      "ĠÐłÑĥ": 2667,
      "Ð²Ð¾Ð±": 2668,
      "ĠÐ´Ð¾ÑģÑĤÑĥÐ¿": 2669,
      "ÑĤÐµÐ»ÑĮÐ½Ð¾Ð³Ð¾": 2670,
      "ĠÐ²Ð¾Ð¹Ð½Ð°": 2671,
      "ĠÑĥÑģÐ»Ð¾Ð²Ð¸": 2672,
      "ĠÑĤÑı": 2673,
      "ĠÐĵÐ¾ÑĢ": 2674,
      "ÑĳÐ½Ð½ÑĭÑħ": 2675,
      "30": 2676,
      "Ð»Ð°Ð¹": 2677,
      "ÑĥÑĩÐµÐ½Ð¸": 2678,
      "11": 2679,
      "ĠÑģÑĤÐ¾ÑĢÐ¾Ð½": 2680,
      "ĠÐ½Ð°Ð±Ð»Ñİ": 2681,
      "Ð´Ð°ÑĤÑĮ": 2682,
      "ÑĩÐºÐ¸": 2683,
      "ĠÐ¼Ð°ÑĤÐµÐ¼Ð°ÑĤÐ¸": 2684,
      "ĠÑģÐ¿Ð¸": 2685,
      "Ð·Ð¸Ð½": 2686,
      "ĠÐ¿ÑĢÐ¾Ð´Ð°": 2687,
      "Ð´ÐµÐ½ÑĤÐ°": 2688,
      "ĠÐ¸Ð¼Ñı": 2689,
      "ĠÐ±ÐµÑĢÐµ": 2690,
      "ĠÐ¿ÑĢÐ¸Ð½ÑĨÐ¸": 2691,
      "ĠÑĢÐ¾Ð´Ð¸": 2692,
      "Ð¼ÐµÐ½ÑĤÐ¾Ð²": 2693,
      "ĠÐ³Ð¾Ð»Ð¾Ñģ": 2694,
      "ĠÐ½Ð¸Ð·": 2695,
      "ĠÐłÐ¡": 2696,
      "ÑħÐ°Ð½Ð¸": 2697,
      "ĠÐºÑĢÑĥ": 2698,
      "ĠÐµÐ´Ð¸Ð½": 2699,
      "Ð±Ð¾ÑĤÐ°": 2700,
      "Â°": 2701,
      "ĠÑģÐºÐ°": 2702,
      "Ġto": 2703,
      "ĠÑĢÐ°ÑģÑģÐºÐ°": 2704,
      "ĠÐ¼Ð¾Ð½": 2705,
      "ĠÑģÐ»ÑĥÐ¶": 2706,
      "ÐºÐ¾Ð±ÑĢÐ¸ÑĤ": 2707,
      "Ġre": 2708,
      "Ð½Ð¾ÑģÑĤÐµÐ¹": 2709,
      "ÑĨÐµÐ½ÑĤ": 2710,
      "ĠÑģÑĤÐ°Ð»Ð¸": 2711,
      "Ð¿ÑĥÑĤÐ°": 2712,
      "ĠÐ¶Ð¸Ð·Ð½ÑĮ": 2713,
      "ĠÐ¸Ð¼ÐµÐ½Ð¸": 2714,
      "Ġ29": 2715,
      "ĠÐ¿Ð¾ÐºÐ°Ð·Ð°": 2716,
      "ĠÐ´Ð¾Ð»Ð¶ÐµÐ½": 2717,
      "ĠÐ³ÐµÐ½ÐµÑĢÐ°Ð»": 2718,
      "ÑģÑģÐµ": 2719,
      "ÑĪÐ°Ñı": 2720,
      "ĠÐ¸Ð¼ÐµÐ½Ð½Ð¾": 2721,
      "Ð¾Ð²Ðµ": 2722,
      "ĠÐ¿ÐµÑĢÐµÐ²Ð¾Ð´": 2723,
      "ĠÐ½ÐµÐºÐ¾ÑĤÐ¾ÑĢÑĭÐµ": 2724,
      "am": 2725,
      "Ð´Ð°ÐµÑĤ": 2726,
      "ĠÑģÑĤÐ°ÑĢ": 2727,
      "ĠÐºÐ»Ð°": 2728,
      "ÑĥÑİÑĤÑģÑı": 2729,
      "ĠÐ¿Ð»": 2730,
      "Ð»Ð¸ÑĩÐ°": 2731,
      "ÐµÐ¼ÑĭÐµ": 2732,
      "ÑĢÐ¸Ð´": 2733,
      "Ð²Ð°ÑİÑĤÑģÑı": 2734,
      "ĠÑģÑĤÑĢÑĥÐº": 2735,
      "Ð³Ð¸Ð¾Ð·": 2736,
      "Ðĸ": 2737,
      "ĠÐ¸Ð½ÑĤÐµÐ»": 2738,
      "ĠÐ¿Ð¾Ð¶": 2739,
      "ĠÐ´Ð°Ð»ÑĮ": 2740,
      "Ð»ÐµÐºÑĤ": 2741,
      "ĠÐłÐ¸Ð¼": 2742,
      "ĠÑĪÐµ": 2743,
      "ĠÑģÐµÐ»ÑĮ": 2744,
      "ĠÐ¿ÑĢÐ¾Ð¸Ð·Ð²Ð¾Ð´Ð¸": 2745,
      "Ð½ÐµÐ²": 2746,
      "ÑĤÐ¾Ðº": 2747,
      "ÑĤÑĥÐ°": 2748,
      "Ð½ÑĥÑĤÑĮ": 2749,
      "ĠÐ±Ð¾Ð»": 2750,
      "ÑĢÐ¾Ð´Ðµ": 2751,
      "ĠÐ½Ð¸ÑĩÐµÐ³Ð¾": 2752,
      "ĠÐŁÑĢÐµÐ´": 2753,
      "ÑīÐµÐ¼": 2754,
      "ĠÐ¿Ð¾ÑĩÐµÐ¼Ñĥ": 2755,
      "Ð´Ð°Ð½Ð¸Ñı": 2756,
      "ĠÐ¾Ð·Ð½Ð°": 2757,
      "Ð¾Ð±Ð¸": 2758,
      "ĠÑħÑĢÐ¸ÑģÑĤÐ¸Ð°Ð½": 2759,
      "ĠÐ³Ð¾Ð²Ð¾ÑĢ": 2760,
      "ĠÐ¾Ð½Ð¾": 2761,
      "ÐºÐ»": 2762,
      "ĠÐ·Ð°Ð±": 2763,
      "ÐºÐ¾ÑĢ": 2764,
      "ĠÐļÑĥ": 2765,
      "ÐºÑĥÐ»ÑĮ": 2766,
      "ĠÐ±Ð¾Ð³": 2767,
      "ri": 2768,
      "ĠÐĵÐµÑĢÐ¼Ð°Ð½Ð¸Ð¸": 2769,
      "ÑĤÐ¸ÐºÐ¸": 2770,
      "ĠÑĤÐ°ÐºÐ¾Ðµ": 2771,
      "Ð°Ð¼Ð¸": 2772,
      "ĠÐ¡Ðµ": 2773,
      "ĠÐ´Ð»Ð¸": 2774,
      "ĠÑģÐ¾ÑģÑĤÐ°Ð²Ð»Ñı": 2775,
      "Ð·Ñĥ": 2776,
      "ÑĤÐ¸ÐºÐ°": 2777,
      "Ð¾Ð²Ð°ÑĤÐµÐ»ÑĮ": 2778,
      "ĠÐ´Ð°Ð½Ð½ÑĭÐµ": 2779,
      "Ð»ÑıÐ½": 2780,
      "ĠÐ¿ÑĢÐ¾Ð¸Ð·Ð²ÐµÐ´": 2781,
      "Ð¶Ð´ÐµÐ½Ð¸Ñı": 2782,
      "Ð²ÐµÐ½": 2783,
      "ĠÐ·Ð°Ð¿Ð°": 2784,
      "Ð°Ð½Ð¾Ð²": 2785,
      "ĠÐ¿Ð¾ÑģÑĤ": 2786,
      "ĠÑĦÐ¾Ð½": 2787,
      "ÑĥÐ±ÐµÑĢ": 2788,
      "ĠÐºÐ¾Ð¼Ð¿Ð°Ð½Ð¸Ð¸": 2789,
      "ĠÐ´ÑĢ": 2790,
      "Ð±Ð¸ÑĤ": 2791,
      "Ð¼Ð°ÑĢ": 2792,
      "ĠÐ²ÑĤÐ¾ÑĢÐ¾Ð¹": 2793,
      "ĠÐ¾Ð±ÑĥÑĩÐµÐ½Ð¸Ñı": 2794,
      "ĠÐ·Ð½Ð°ÑĩÐµÐ½Ð¸Ðµ": 2795,
      "Ð·Ð°Ñħ": 2796,
      "ÑĢÐ°Ð¼": 2797,
      "?.<|": 2798,
      "ĠÐ¿ÑĢÐ¾Ð³ÑĢÐ°Ð¼Ð¼": 2799,
      "ÑģÑĤÐ°ÑĤÐ¾": 2800,
      "ĠÐ¾ÑĤÐ´ÐµÐ»ÑĮ": 2801,
      "ĠÑģÑĤÐ¾Ð»Ð¸": 2802,
      "Ġ184": 2803,
      "ĠÐĴÐµÐ»Ð¸ÐºÐ¾Ð±ÑĢÐ¸ÑĤ": 2804,
      "ÑĨÐ°Ð¼Ð¸": 2805,
      "ÑĤÑĥÑĢÐµ": 2806,
      "ĠÐ¾Ð»Ð¸Ð¼Ð¿Ð¸Ð¹": 2807,
      "th": 2808,
      "ĠÐ¡ÐºÐ¾Ð½ÑĩÐ°": 2809,
      "ĠÐ¾ÑĤÐ½Ð¾ÑĪ": 2810,
      "ĠÑĤÑĭÑģÑıÑĩ": 2811,
      "ĠÐ¿ÑĢÐ¸Ð½Ð¸Ð¼Ð°": 2812,
      "ĠÐ²Ð¾Ðº": 2813,
      "ĠÑĤÑĢÑĥÐ´": 2814,
      "ĠÐ´ÐµÐ»": 2815,
      "ÑĢÐ¾Ð²Ð°Ð»": 2816,
      "Ð¿Ð»Ð°": 2817,
      "Ð¸Ð¼Ð¾": 2818,
      "ĠÐ²Ð°ÑĢÐ¸Ð°Ð½": 2819,
      "ĠÐ¿ÑĢÐµÐ¼ÑĮÐµÑĢ": 2820,
      "Ð¿Ð¸ÑģÐº": 2821,
      "ĠÑģÐ²ÐµÑĤ": 2822,
      "ĠÐ°Ð»ÑĮ": 2823,
      "ĠÑģÐµÑĢÐµ": 2824,
      "ĠÑģÐ¸Ð½": 2825,
      "ĠÐĴÐ¾Ð»": 2826,
      "Ð·ÐµÐ¼": 2827,
      "ĠÐ¿Ð¾ÑģÐºÐ¾Ð»ÑĮÐºÑĥ": 2828,
      "ĠÐ¾ÑĪÐ¸": 2829,
      "ĠÐ´Ð²Ðµ": 2830,
      "ÑĥÐ´Ð¸": 2831,
      "ĠÐ¸ÑģÐ¿Ð¾Ð»ÑĮÐ·ÑĥÐµÑĤÑģÑı": 2832,
      "ct": 2833,
      "ĠÑģÑĤÐ¾Ð»": 2834,
      "ÑĢÐ¸Ðº": 2835,
      "ĠÐ´Ð¸Ð°": 2836,
      "Ð¤Ð¡Ðł": 2837,
      "ĠÐ´Ð¾Ð»Ð¶Ð½Ñĭ": 2838,
      "ĠÐ¡Ð¾Ð»": 2839,
      "ĠÐĳÐµÐ»": 2840,
      "Ð³Ð¾Ð²Ð¾ÑĢ": 2841,
      "ĠÑĩÐ¸ÑĤÐ°": 2842,
      "Ð½Ð°ÑĢÑĥ": 2843,
      "Ð²Ð¸Ð½": 2844,
      "ĠÐ±ÑĥÐ´ÑĥÑĤ": 2845,
      "ĠÐľÐ¸ÑħÐ°": 2846,
      "ÐµÑĨ": 2847,
      "ĠÑģÐ´ÐµÐ»Ð°ÑĤÑĮ": 2848,
      "ĠÐ¿Ð¾Ñħ": 2849,
      "Ð¾ÑĤÑĭ": 2850,
      "ĠÐ¿Ð¾ÑįÑĤÐ¾Ð¼Ñĥ": 2851,
      "ĠÐ·Ð°ÑĤÐµÐ¼": 2852,
      "ĠÑĢÐ¾Ð»ÑĮ": 2853,
      "ÑİÑīÐ°Ñı": 2854,
      "ĠÐ¿ÑĢÐ¸Ñģ": 2855,
      "Ġ50": 2856,
      "ĠÑĩÐµÑĤÑĭ": 2857,
      "ĠÐ´ÐµÑģÑı": 2858,
      "ÑĥÑĢÐµÐ°ÑĤ": 2859,
      "Ð¡Ð¾Ð±ÑĭÑĤÐ¸Ñı": 2860,
      "ĠÐ¡ÐºÐ¾Ð½ÑĩÐ°Ð»Ð¸ÑģÑĮ": 2861,
      "ĠÐ¾ÑģÑĤÑĢÐ¾Ð²Ð°": 2862,
      "ĠÐ¾ÐºÐµ": 2863,
      "ĠÐ¿Ð¾Ð¸": 2864,
      "ch": 2865,
      "Ð¸Ñĩ": 2866,
      "ÑĦÐ¾Ð½": 2867,
      "ĠÑģÑĤÑĢÐµ": 2868,
      "ÑĪÐµÐ»": 2869,
      "ĠÐ¾ÐºÐ°Ð·Ð°": 2870,
      "ĠÑĤÐ¾ÑĤ": 2871,
      "ĠÐ¾ÑģÐ¾Ð±ÐµÐ½Ð½Ð¾": 2872,
      "ĠÐĿÐ°ÑĨÐ¸Ð¾Ð½Ð°Ð»ÑĮ": 2873,
      "ĠÐ½ÐµÐ¾Ð±ÑħÐ¾Ð´Ð¸Ð¼Ð¾": 2874,
      "Ð½Ð¾ÑģÑĤ": 2875,
      "ÑĢÐ¾Ð¿ÐµÐ¹": 2876,
      "ÑĥÑİÑīÐ¸Ñħ": 2877,
      "ĠÑħÐ¾ÑĢÐ¾ÑĪÐ¾": 2878,
      "Ð¾Ð²Ð°Ð½Ð¸ÐµÐ¼": 2879,
      "ĠÑĢÑĥÐ±": 2880,
      "ĠÐ·Ð½Ð°Ñİ": 2881,
      "Ð¾ÑĤÐ°": 2882,
      "ĠÑĢÐ°ÑģÑĤ": 2883,
      "ĠÐŁÐ¾Ð»ÑĮ": 2884,
      "ĠÐ²Ð¿ÐµÑĢÐ²ÑĭÐµ": 2885,
      "ĠÐ½Ð°ÑĩÐ°Ð»Ð°": 2886,
      "ĠÑģÐ¾ÑħÑĢÐ°Ð½": 2887,
      "ĠÐłÐ¡Ð¤Ð¡Ðł": 2888,
      "ĠÑĢÐ¸Ð¼": 2889,
      "ÑĢÐ°Ð¶ÐµÐ½Ð¸Ñı": 2890,
      "ÐĴÐ¾ÑĤ": 2891,
      "Ð°Ð³Ð°": 2892,
      "ĠÐŃÑĤÐ¸": 2893,
      "ĠÑĦÐ¸Ð½Ð°Ð½": 2894,
      "ĠÐ¿ÑĢÐµÐºÑĢÐ°": 2895,
      "ĠÐ¼ÐµÐ´Ð¸ÑĨÐ¸": 2896,
      "ĠÐ¿Ð°ÑĢÑĤÐ¸Ð¸": 2897,
      "ĠÑħÐ¸Ð¼Ð¸": 2898,
      "ĠÐ¼ÑĥÐ¶": 2899,
      "ÑĤÑĭÑħ": 2900,
      "ÑĢÐµÑĤÐ°": 2901,
      "Ð¼Ð¾ÑĤÑĢÑı": 2902,
      "ĠÐ²Ð·Ð°Ð¸Ð¼Ð¾Ð´ÐµÐ¹": 2903,
      "ĠÑĢÐ°Ð·Ð»Ð¸ÑĩÐ½ÑĭÑħ": 2904,
      "ĠÐ²Ð½ÐµÑĪ": 2905,
      "ĠÐºÑĢÐ°Ñģ": 2906,
      "ĠÐļÐ¾Ð½ÑģÑĤÐ°Ð½": 2907,
      "ĠÐ¼ÐµÑģÑĤÐ°": 2908,
      "ĠÑģÐ¾Ð·Ð´Ð°Ð½": 2909,
      "ÐºÑĤÐ¾ÑĢ": 2910,
      "ĠÐ½Ð°ÑĢÐ¾Ð´Ð½ÑĭÐ¹": 2911,
      "Ð²Ð¸ÑĨÐ°": 2912,
      "ĠÐĶÐ¶Ð¾Ð½": 2913,
      "ÑĥÑĩÐ°": 2914,
      "ĠÑģÑĤÐ°Ð»Ð°": 2915,
      "ĠÐ¿Ð¾Ð»ÑĮ": 2916,
      "ĠÐ½Ð°ÑĩÐ°Ð»Ðµ": 2917,
      "ĠÑĥÐ»Ð¸": 2918,
      "ÐºÐ°ÑĢ": 2919,
      "ÑģÑĥÑĢ": 2920,
      "ĠÑģÑĤÐµÐ¿": 2921,
      "ĠÐľÐµÐ¶Ð´Ñĥ": 2922,
      "ĠÐ°ÑĤ": 2923,
      "Ð¼ÐµÑĩÐ°": 2924,
      "ĠÐ´ÐµÐ¹ÑģÑĤÐ²Ð¸": 2925,
      "ĠÐĵÐµÐ½": 2926,
      "ĠÐ±Ð°Ð»": 2927,
      "Ð±ÑĢÐ°Ð½": 2928,
      "ĠÐłÑĥÑģ": 2929,
      "Ð³Ð°ÑĢ": 2930,
      "ĠÐŁÐµÑĢÐµ": 2931,
      "Ð»Ð¾Ð²Ð°": 2932,
      "ĠÐ¿ÑĢÐ¾Ð¸Ð·Ð¾": 2933,
      "ĠÑĤÑĢÑĳÑħ": 2934,
      "ĠÑĢÐµÑĪÐµÐ½Ð¸Ñı": 2935,
      "ĠÐ»Ð°ÑĥÑĢÐµÐ°ÑĤ": 2936,
      "ÑĪÐºÐ¸": 2937,
      "ÑĢÑİ": 2938,
      "ĠÐĺÐ¼": 2939,
      "ĠÑģÐ¿ÐµÑĨÐ¸Ð°Ð»ÑĮ": 2940,
      "ĠÐ°Ð¿": 2941,
      "ĠÐĴÐ°ÑģÐ¸": 2942,
      "Ð»ÑĮÐ½Ð¾Ð¹": 2943,
      "ĠÐĳÐµ": 2944,
      "Ð´Ð°Ð½Ð¸Ðµ": 2945,
      "Ð°Ð½ÑĤÐ°": 2946,
      "ĠÑģÑĨÐµÐ½Ð°ÑĢÐ¸ÑģÑĤ": 2947,
      "ĠÐ¾Ð´Ð½Ð¾Ð³Ð¾": 2948,
      "ĠÐ¿Ð¾Ð¿ÑĥÐ»ÑıÑĢ": 2949,
      "ÑĩÐµÑģÑĤÐ²Ð°": 2950,
      "Ð´Ð¾Ð±": 2951,
      "ĠÐ¸ÑģÐºÐ»Ñİ": 2952,
      "ÑģÑĤÑĥÐ¿Ð¸": 2953,
      "ĠÐ¼Ð½Ð¾Ð³Ð¸Ñħ": 2954,
      "Ð¾Ð»Ð¾ÑĤ": 2955,
      "ĠÐ²Ð½ÑĥÑĤÑĢÐµÐ½": 2956,
      "ĠÐ½Ð°ÑħÐ¾Ð´Ð¸ÑĤÑģÑı": 2957,
      "Ð½Ð¾Ðº": 2958,
      "Ð»Ð»Ð¸": 2959,
      "ĠÐ¿ÑĢÐ°Ð²Ð¸ÑĤÐµÐ»ÑĮÑģÑĤÐ²Ð¾": 2960,
      "ĠÐ´Ð¾Ð»Ð»Ð°": 2961,
      "Ð¾Ð»ÐµÐ²": 2962,
      "ĠÐľÐ¾ÑģÐºÐ²Ðµ": 2963,
      "ÑĩÑĤ": 2964,
      "ÐµÐ½Ð½ÑĭÑħ": 2965,
      "ĠÐ½Ð°Ð¼": 2966,
      "ÑĢÐ°Ð¶Ð°": 2967,
      "ĠÐĴÐµ": 2968,
      "Ð¡Ð¾": 2969,
      "Ð´Ð¾Ð¼": 2970,
      "Ð¾Ð·Ð³Ð»Ð°": 2971,
      "ĠÑĤÑĢÐ°Ð½ÑģÐ¿Ð¾ÑĢÑĤ": 2972,
      "ĠÑģÐ²Ð¾Ð¸Ð¼": 2973,
      "Ð³Ð¾ÑĢÐ¸ÑĤ": 2974,
      "ĠÐ·Ð°Ð¿ÑĢÐµ": 2975,
      "ĠÐ¿ÑĢÐµÐ´Ð¿Ð¾Ð»": 2976,
      "ĠÐ¿ÑĢÐ°Ð²Ð¸ÑĤÐµÐ»ÑĮÑģÑĤÐ²Ð°": 2977,
      "ÑĤÐ¸ÑĩÐµÑģÐºÐ¸Ðµ": 2978,
      "ĠÐ¾ÑģÑĥÑīÐµÑģÑĤÐ²": 2979,
      "ÑģÑĤÐ°Ð½Ð¾Ð²Ð¸": 2980,
      "Ġ.<|": 2981,
      "Ð²ÑĭÑħ": 2982,
      "ĠÑĩÐµÑĤ": 2983,
      "Ð¿Ð¾Ð²": 2984,
      "ĠÑĥÑģÑĤÑĢÐ¾Ð¹": 2985,
      "ĠÐ¾Ð´Ð½Ð¸Ð¼": 2986,
      "Ð»ÐµÐ½Ð¸Ð¹": 2987,
      "Ð¾Ð¼Ð¸Ð½Ð°": 2988,
      "Ġ185": 2989,
      "ĠÐ¦ÐµÐ½ÑĤ": 2990,
      "Ð´Ð¸Ð¹": 2991,
      "ĠÐĺÐĺ": 2992,
      "ĠÑįÑĤÐ¸Ð¼": 2993,
      "ĠÐ¿Ð¾Ð»ÑĥÑĩ": 2994,
      "ÑħÐ¾Ð´ÑıÑĤ": 2995,
      "Ð´Ð°Ð»": 2996,
      "ĠÐ±ÑĥÐº": 2997,
      "Ð²ÑĪÐ¸ÐµÑģÑı": 2998,
      "Ð¾ÑĢÑĥÑģ": 2999,
      "ĠÐ´Ð¾ÐºÑĥ": 3000,
      "Ð¼Ð¾Ð½Ð°": 3001,
      "ĠÐ¿Ð¾ÑĤÐ¾Ð¼Ñĥ": 3002,
      "Ð°Ñħ": 3003,
      "Ð¶Ð´Ñĭ": 3004,
      "ĠÐ¿Ð¾ÑıÐ²Ð¸": 3005,
      "ĠÑĢÐ¾Ð¼": 3006,
      "ĠÐ»Ð¸Ð±Ð¾": 3007,
      "ÐŀÐ±": 3008,
      "ĠÐ´ÐµÑĢ": 3009,
      "ĠÑĢÐµÐ³Ñĥ": 3010,
      "Ġi": 3011,
      "ĠÐ²ÑģÑı": 3012,
      "ÑĤÐ¸Ð½Ð°": 3013,
      "ĠÐļÐ¾Ð»": 3014,
      "ĠÐµÑģÑĤÐµ": 3015,
      "ÐµÐ¼ÑĭÐ¹": 3016,
      "Ġ2000": 3017,
      "ĠO": 3018,
      "ĠÑģÐ¾ÑİÐ·": 3019,
      "ĠÐ¿Ð¾ÑĢÑıÐ´": 3020,
      "ĠÑģÑĥÐ±": 3021,
      "Ð³Ð°Ð½Ð¸": 3022,
      "ĠÑħÐ¾Ð·ÑıÐ¹": 3023,
      "ÑĢÑĭÐ²": 3024,
      "ÑĤÐµÐ»ÑĮÐ½ÑĭÐ¼": 3025,
      "ĠÑĥÑĩÐ°ÑģÑĤÐ¸": 3026,
      "Ð°Ð½ÑĮ": 3027,
      "ĠÐ´Ð½Ñı": 3028,
      "ÐķÑģÐ»Ð¸": 3029,
      "Ð»Ð¸ÑĩÐ¸Ðµ": 3030,
      "Ġ**": 3031,
      "ÑĩÐºÐ°": 3032,
      "ÑĤÑĥÐ°Ð»ÑĮ": 3033,
      "ĠÐ´Ð²Ð¸Ð¶ÐµÐ½Ð¸Ñı": 3034,
      "ĠÐ´Ð¾Ð¿Ð¾Ð»": 3035,
      "Ð¾Ð¶ÐµÑĤ": 3036,
      "Ð¸ÑĢ": 3037,
      "Ð±Ð°ÑĤÑĭ": 3038,
      "ĠÐ²ÐºÐ»ÑİÑĩÐ°Ñı": 3039,
      "ĠÑĪÑĤÐ°": 3040,
      "ĠÐĺÑĤÐ°": 3041,
      "ĠÑįÐ½ÐµÑĢÐ³Ð¸Ð¸": 3042,
      "ĠÐ¼ÑĥÐ·": 3043,
      "ĠÐ¿ÑĢÐ¾Ð±Ð»ÐµÐ¼Ñĭ": 3044,
      "ĠÐ²ÑĭÑĪÐµ": 3045,
      "ÑĩÐ½Ð¾Ðµ": 3046,
      "ÑĢÐ¸Ñİ": 3047,
      "198": 3048,
      "Ð²ÑĪÐ°Ñı": 3049,
      "ÑĢÐ°Ð»ÑĮÐ½ÑĭÐ¹": 3050,
      "ĠÐ²ÐµÑĤ": 3051,
      "ĠÐ¥Ð°": 3052,
      "Ð¦": 3053,
      "Ð»ÐµÐ½Ð¾": 3054,
      "Ð¶Ð°Ð»": 3055,
      "ĠÐ¾Ð±ÑĬÑıÑģ": 3056,
      "ĠÑĢÐ°Ð±Ð¾ÑĤÑĥ": 3057,
      "ÐĴÑĭ": 3058,
      "ĠÐļÑĢÐ°Ñģ": 3059,
      "ĠÑħÐ¾Ð»": 3060,
      "ĠÑģÐ¿Ð¸Ñģ": 3061,
      "Ð¸ÑĤÐµ": 3062,
      "ĠÐ¡Ñĥ": 3063,
      "Ġe": 3064,
      "Ð¼ÐµÑģÑĤ": 3065,
      "....": 3066,
      "ĠÐ·Ð²Ñĥ": 3067,
      "ĠÐºÑĢÑĥÐ¿Ð½ÐµÐ¹": 3068,
      "ĠÐ¿ÑĢÐ°Ð²Ð°": 3069,
      "ÑĳÑĤÑģÑı": 3070,
      "ÑĦÐ¾ÑĢÐ¼Ð¸": 3071,
      "ÑĩÐµÑģÐºÑĥÑİ": 3072,
      "ÑĤÐ¾Ð¹": 3073,
      "ĠÐ¡Ð¾Ð³": 3074,
      "ĠÐ¼Ð¾ÑĢÑı": 3075,
      "ĠÑģÐ¾ÑģÑĤÐ°Ð²Ð¸": 3076,
      "ĠÐ¼Ð½Ð¾Ð³Ð¸Ðµ": 3077,
      "ĠÐłÐ¾Ð´Ð¸Ð»Ð¸ÑģÑĮ": 3078,
      "ĠÐºÐ¾Ð¼Ð¼Ñĥ": 3079,
      "ĠÐ¿Ð¾Ð·Ð²Ð¾Ð»ÑıÐµÑĤ": 3080,
      "ÑĤÐµÐ»ÑĮÐ½Ð°Ñı": 3081,
      "Ð²ÐµÐ·": 3082,
      "ĠÐ²Ð¾Ð·ÑĢÐ°": 3083,
      "ĠÑĤÐ¸Ð¿Ð°": 3084,
      "ĠÑĨÐµÐ»Ð¾Ð¼": 3085,
      "ĠÑĥÐºÑĢÐ°Ð¸Ð½": 3086,
      "ĠÐ½Ð°ÑĩÐ°Ð»Ð¾": 3087,
      "Ð½Ð¸Ñİ": 3088,
      "ĠÑĩÐ¸ÑģÐ»Ð¾": 3089,
      "ÑĤÐµÐ»ÑĮÑģÑĤÐ²Ð°": 3090,
      "Ð¾Ð³Ðµ": 3091,
      "ĠÐ¿ÑĢÐµÐ´ÑģÑĤÐ°Ð²Ð»Ñı": 3092,
      "ÑĩÐ¸ÑĤ": 3093,
      "Ð½Ð¸Ð¼Ð°Ð½Ð¸Ðµ": 3094,
      "Ð³Ð¸Ð¿": 3095,
      "ĠÐĿÐ°ÑĢ": 3096,
      "ĠÑĤÐ¾Ð¿": 3097,
      "ĠÐĿÐ¸ÐºÐ¾Ð»Ð°Ð¹": 3098,
      "ĠÐ¼Ð¾ÑĢÐµ": 3099,
      "ĠÐºÐ»Ð¸ÐµÐ½ÑĤÐ¾Ð²": 3100,
      "25": 3101,
      "ĠÐ²ÐºÑĥ": 3102,
      "196": 3103,
      "ĠÑģÐ°Ð¼Ð¾Ð»": 3104,
      "ĠÐĳÑĥ": 3105,
      "ÑĤÐµÑĪÐµ": 3106,
      "ĠÐ¿ÑĢÐµÐ¸Ð¼": 3107,
      "ĠÑĢÐµÑģÑĥÑĢ": 3108,
      "ĠÐ¢ÑĥÑĢ": 3109,
      "ĠÐ·Ð°Ð¿Ð°Ð´": 3110,
      "ĠÑģÐ»Ð¸": 3111,
      "ÑĤÐ¾ÑĢÑĭ": 3112,
      "ĠÐ¾Ð¿ÑĢÐµÐ´ÐµÐ»Ñı": 3113,
      "ĠÑĢÐ°Ð·Ð²Ð¸ÑĤÐ¸Ñı": 3114,
      "ĠÐ¿ÑĢÐ¾Ð¸ÑģÑħ": 3115,
      "ÐµÐ²Ð°": 3116,
      "Ð¸Ð½Ð³": 3117,
      "ĠÐ¼ÐµÑħÐ°Ð½Ð¸": 3118,
      "ĠÐ¢Ð°ÐºÐ¶Ðµ": 3119,
      "ĠÐ±Ð¸Ð·": 3120,
      "ĠÐ¸ÑģÐ¿Ð¾Ð»ÑĮÐ·Ð¾Ð²Ð°Ð½Ð¸Ñı": 3121,
      "ĠÐ½ÐµÑģÐºÐ¾Ð»ÑĮ": 3122,
      "ÑģÐ»ÑĥÐ¶Ð¸": 3123,
      "ĠÐ¿Ð¾Ð³Ð¸Ð±": 3124,
      "ĠÐ¢Ð¾Ð¼": 3125,
      "ÑģÑĤÐ²ÐµÐ½Ð½Ð¾Ðµ": 3126,
      "ĠÐĴÐ»Ð°Ð´Ð¸Ð¼Ð¸ÑĢ": 3127,
      "ĠÐºÑĥÐ»ÑĮÑĤÑĥÑĢ": 3128,
      "ĠÐĽÐ¸ÑĤÐµÑĢÐ°": 3129,
      "ÑĢÐµÐ·": 3130,
      "Ð¸ÑĢÐ°": 3131,
      "ĠÑĨÐµÐ»ÑĮ": 3132,
      "ĠÐ·Ð°Ð¼": 3133,
      "ÑĢÐ¸Ñħ": 3134,
      "Ð¼Ð¸ÑĤ": 3135,
      "ĠÐ¾Ð±Ð½Ð°ÑĢÑĥ": 3136,
      "ÑĦÐµÑĢÐµÐ½": 3137,
      "ĠÐ½Ð°Ð´Ðµ": 3138,
      "Ð»ÐµÐ½Ð¸Ñİ": 3139,
      "ĠÐ±Ð¾ÑĢÑĮ": 3140,
      "ĠÑİÐ¶": 3141,
      "__": 3142,
      "ĠÐ¾ÑģÐ½Ð¾Ð²Ð½Ð¾Ð¼": 3143,
      "ĠÑģÐ¾ÑģÑĤÐ°": 3144,
      "ÐŁÐµ": 3145,
      "ĠÑĤÐ¾ÑĩÐ½Ð¾": 3146,
      "ĠÐ¾Ð´Ð½Ð°": 3147,
      "Ð¸Ð±Ð»Ð¸": 3148,
      "(<|": 3149,
      "ĠÐ¾Ñħ": 3150,
      "ÑĤÐ¸ÑĩÐµÑģÐºÐ¾Ð¹": 3151,
      "Ð³ÑĢÐµ": 3152,
      "Ð´Ð°Ð³": 3153,
      "ĠÑģÑĥÑīÐµ": 3154,
      "ĠÐ°Ð´Ð¼Ð¸Ð½Ð¸ÑģÑĤÑĢÐ°": 3155,
      "ÑĢÑĥÐµÑĤ": 3156,
      "Ġ2010": 3157,
      "ÐµÑĢÐµÐ¶": 3158,
      "ĠÐŁÑĢÐµÐ·Ð¸": 3159,
      "ĠÑĤÐ²Ð¾ÑĢ": 3160,
      "ÑĳÐ½Ð½ÑĭÐµ": 3161,
      "ÑĢÐµÐ¶Ð¸ÑģÑģÑĳÑĢ": 3162,
      "ÐµÑĢÐ¾Ð²": 3163,
      "Ð¾Ð·Ð´Ð°": 3164,
      "Ð¾Ð²Ð¸Ñĩ": 3165,
      "ĠÑıÐ·ÑĭÐºÐµ": 3166,
      "ĠÐºÐ°Ð¶Ð´ÑĭÐ¹": 3167,
      "ĠÐ¼Ñı": 3168,
      "ĠÑĦÑĥÑĤÐ±Ð¾Ð»Ð¸ÑģÑĤ": 3169,
      "ÑģÐµÐ¼": 3170,
      "ÐºÐµÑĤ": 3171,
      "Ð¾Ð¼ÐµÑĤ": 3172,
      "ĠÐ¯Ð¿Ð¾": 3173,
      "Ð²ÐµÑĨ": 3174,
      "de": 3175,
      "ÑĩÐ¸Ð»": 3176,
      "ÑİÑīÐµÐµ": 3177,
      "ĠÐ¿ÑĢÐµÐ´Ð¿ÑĢÐ¸Ñı": 3178,
      "ĠÐ¿ÐµÑģ": 3179,
      "ÑģÑĤÐ²ÐµÐ½Ð½ÑĭÐ¼": 3180,
      "ÐµÐ»ÐµÐ²": 3181,
      "ĠÐºÐ¸Ñģ": 3182,
      "Ð»ÑĮÐ½Ð¾Ðµ": 3183,
      "Ġ183": 3184,
      "ĠÐķÐ²ÑĢÐ¾Ð¿Ñĭ": 3185,
      "Ð½Ð°Ð¼": 3186,
      "Â»)": 3187,
      "ĠÐ¿ÐµÑĢÐ²Ð¾Ð¹": 3188,
      "Ð´ÐµÑĤ": 3189,
      "ĠÐ²Ð²ÐµÐ´": 3190,
      "ĠÐĴÐ¾Ð·": 3191,
      "ÐŁÑĢÐ¾": 3192,
      "ĠÐ¼Ð°Ðº": 3193,
      "ĠÑĤÐµÐ¿ÐµÑĢÑĮ": 3194,
      "ĠÐ¿Ð¾Ð²ÑĭÑĪ": 3195,
      "ÐµÐ½Ð½ÑĭÐ¹": 3196,
      "197": 3197,
      "ĠÑģÐ¿Ð¸ÑģÐ¾Ðº": 3198,
      "ĠÑĢÑı": 3199,
      "ĠÐ²ÑģÐµÐ¼": 3200,
      "ĠÐ¡Ð¾ÑİÐ·Ð°": 3201,
      "ĠÐ³Ð»ÑĥÐ±": 3202,
      "ĠÑĦÐ¸Ð»Ð¾ÑģÐ¾ÑĦÐ¸": 3203,
      "ÑģÑĤÑĢÐ¾Ð²": 3204,
      "Ð½Ð¾Ñģ": 3205,
      "ÑĪÐ°ÑĤÑĮ": 3206,
      "Ð¾Ð²ÐµÐ´": 3207,
      "ĠÐ¿ÑĢÐ¾Ð²ÐµÐ´": 3208,
      "ĠÐ²ÐµÐºÐµ": 3209,
      "ĠÐ¸Ð·Ð¼ÐµÐ½ÐµÐ½Ð¸Ñı": 3210,
      "ĠÐ¿ÑĢÐ°Ð·Ð´": 3211,
      "ĠÐ¸Ð½ÑĦÐ¾ÑĢÐ¼Ð°ÑĨÐ¸Ð¸": 3212,
      "ul": 3213,
      "ĠÐ¿ÑĢÐ¾Ð²Ð¾Ð·Ð³Ð»Ð°": 3214,
      "ĠÐ½ÐµÐºÐ¾ÑĤÐ¾ÑĢÑĭÑħ": 3215,
      "ĠÐľÐ¾ÑģÐºÐ¾Ð²": 3216,
      "ĠÑĤÐµÑĩÐµÐ½Ð¸Ðµ": 3217,
      "ĠÑĩÐ¸ÑģÐ»Ð°": 3218,
      "ĠÐ¿ÐµÐ²Ð¸ÑĨÐ°": 3219,
      "ĠÐ¼Ð½Ð¾Ð³": 3220,
      "ĠÐ¸ÑģÐ¿Ð°Ð½": 3221,
      "ÑĤÐµÐ»ÑĮÐ½Ð¾ÑģÑĤÑĮ": 3222,
      "ÑĳÐ·": 3223,
      "Ð»Ð¸Ð½Ð°": 3224,
      "ĠÐºÐ¾ÑĢÐ°Ð±": 3225,
      "ĠÑĢÐµÑĪÐµÐ½Ð¸Ðµ": 3226,
      "ĠÑģÐ¸ÑĤÑĥÐ°": 3227,
      "ĠÐ¾ÐºÑĢÑĥÐ¶Ð°": 3228,
      "ĠÐ±Ð¸ÑĤ": 3229,
      "ĠÐºÐ¾ÑģÐ¼Ð¸": 3230,
      "ĠÐ¡ÑĢÐµÐ´": 3231,
      "Ġ1990": 3232,
      "ĠÐ¼Ð¾Ð»Ð¾Ð´": 3233,
      "Ð¾Ð½Ð´": 3234,
      "ĠÑĢÐ°Ð½": 3235,
      "ĠÑĢÐµÐ°Ð»Ð¸": 3236,
      "ĠÑģÑĤÐ°Ð½Ð¾Ð²Ð¸": 3237,
      "ĠÐĳÑĭ": 3238,
      "ĠÐ¼ÐµÑĢ": 3239,
      "ÑĤÐµÐ»ÑĮÐ½Ð¾ÑģÑĤÐ¸": 3240,
      "ĠÐ¿Ð°Ð¼ÑıÑĤ": 3241,
      "ĠÑģÑĤÐ¾Ð¸ÑĤ": 3242,
      "Ð¾Ð½Ð¾Ð¼": 3243,
      "Â»).": 3244,
      "ĠÑĨÐµÑĢÐºÐ¾Ð²": 3245,
      "ÑĢÐ¸ÑĤÑĮ": 3246,
      "Ð¾Ð±Ð¸Ð»ÑĮ": 3247,
      "ĠÑģÑĤÐ°Ð»Ð¾": 3248,
      "ĠÑĥÐ±": 3249,
      "Ð¾Ð³ÑĢÐ°ÑĦ": 3250,
      "ĠÐºÐ¸Ð½Ð¾ÑĢÐµÐ¶Ð¸ÑģÑģÑĳÑĢ": 3251,
      "ĠÑĦÐ¾ÑĢÐ¼Ñĥ": 3252,
      "ĠÐ´Ð°Ð½Ð½ÑĭÐ¼": 3253,
      "ĠÐ¿ÑĢÐµÐ·Ð¸Ð´ÐµÐ½ÑĤÐ°": 3254,
      "ÐºÐ¾Ð²Ð°": 3255,
      "ĠÐ½ÐµÑĦ": 3256,
      "ĠÐ·Ð°Ð²ÐµÑĢ": 3257,
      "ĠÐ¿ÑĢÐ¸Ð»Ð¾Ð¶": 3258,
      "ÑĩÐ¸ÑĤÑĭ": 3259,
      "ĠÐĲÐ±": 3260,
      "ĠÐĹÐ°Ð¿Ð°Ð´": 3261,
      "ÑĤÐ½Ð¾": 3262,
      "âĢ¦": 3263,
      "ĠÐ¸ÑĤÐ°Ð»ÑĮÑıÐ½ÑģÐºÐ¸Ð¹": 3264,
      "ĠÐ²Ð·Ñı": 3265,
      "ÑĢÐ¾Ð·": 3266,
      "ÐºÑĢÐµÑĤ": 3267,
      "Ð²Ð»ÐµÐºÐ°": 3268,
      "ĠÑģÑĢÐ°Ð·Ñĥ": 3269,
      "ÑĳÐ²": 3270,
      "ĠÐ¼Ð¾Ð´ÐµÐ»Ð¸": 3271,
      "ĠÑįÐ»ÐµÐºÑĤÑĢÐ¾Ð½": 3272,
      "Ð¾Ð¼Ð¸Ð½": 3273,
      "Ġ%,": 3274,
      "ĠÐ²ÐµÑĢÐ¾ÑıÑĤ": 3275,
      "ĠÑģÑĬ": 3276,
      "ĠÑħÐ°ÑĢÐ°ÐºÑĤÐµÑĢ": 3277,
      "ĠÐ±Ð»Ð¸Ð·": 3278,
      "Ð³ÐµÐ¹": 3279,
      "ĠÐłÐµÑģÐ¿ÑĥÐ±Ð»Ð¸ÐºÐ¸": 3280,
      "ÑĢÐµÐµ": 3281,
      "ĠÐ¾ÑģÐ½Ð¾Ð²Ð°Ð½": 3282,
      "ĠÑĢÐ°ÑģÑĪÐ¸": 3283,
      "Ð»Ð¾Ð±": 3284,
      "ÑģÐµÐ»": 3285,
      "ÑģÑĤÐ²ÑĥÐµÑĤ": 3286,
      "ĠÑĤÐ¾Ð»": 3287,
      "ÑģÐ¸Ð±Ð¾": 3288,
      "ĠÐ½Ð¸Ð¼": 3289,
      "ĠÐ»Ð¸ÑĨ": 3290,
      "ĠÑģÐ¸Ð»Ñĭ": 3291,
      "Ð¼Ð¾Ð½Ð°Ð²": 3292,
      "ÑĪÐºÐ°": 3293,
      "ĠÐ°ÑĤÐ¾Ð¼": 3294,
      "Ð¢Ñĭ": 3295,
      "ĠÑĢÑĥÐºÐ¾Ð²Ð¾Ð´": 3296,
      "ĠÑĦÐ¾ÑĤÐ¾": 3297,
      "Ð¾ÐµÐ´Ð¸Ð½": 3298,
      "ĠÐķÐ³Ð¾": 3299,
      "ÑĪÐ°ÐµÑĤ": 3300,
      "ĠÐºÐ»Ñİ": 3301,
      "ÑĢÑĥÐ¹ÑĤÐµ": 3302,
      "ĠÑįÑĤÑĥ": 3303,
      "194": 3304,
      "Ð³Ð¾Ð´Ð°ÑĢÑı": 3305,
      "ĠÑģÐ²Ð¸": 3306,
      "ÐŁÐ¾": 3307,
      "ĠÐ¾ÑĨÐµÐ½": 3308,
      "ÑĤÐ°ÑģÑĤÑĢÐ¾": 3309,
      "ĠJ": 3310,
      "Ð°ÑĤÑĮ": 3311,
      "Ð³ÐµÐ»ÑĮ": 3312,
      "Ð½Ð¾ÑģÑĤÑĢÐ°Ð½": 3313,
      "ĠÐĲÐ´": 3314,
      "Ġ2008": 3315,
      "ÐµÐ½Ð½ÑĭÐµ": 3316,
      "Ġ<": 3317,
      "ĠÐŀÐŀ": 3318,
      "Ð³Ð½Ð¸": 3319,
      "ĠÑĢÐµÐ¶Ð¸ÑģÑģÑĳÑĢ": 3320,
      "ĠÐ¾ÑģÐ²Ð¾Ð±": 3321,
      "Ð±Ð¸ÑĢ": 3322,
      "ĠÑĢÐ°Ð²Ð½Ð¾": 3323,
      "ĠÐ¼Ð¾Ð´ÐµÐ»ÑĮ": 3324,
      "ĠÐ²Ð»Ð¸ÑıÐ½Ð¸Ðµ": 3325,
      "ĠÐºÐ¸ÑĤÐ°Ð¹": 3326,
      "ĠÑĢÐ¾ÑģÑģÐ¸Ð¹ÑģÐºÐ°Ñı": 3327,
      "ĠÐ¿Ð¾Ð»Ð½Ð¾ÑģÑĤÑĮÑİ": 3328,
      "ĠÐ¢Ð°ÐºÐ¸Ð¼": 3329,
      "ĠÐ½Ð°Ð¹ÑĤÐ¸": 3330,
      "ĠÐĽÐ¸ÑĤÐµÑĢÐ°ÑĤÑĥÑĢÐ°": 3331,
      "ĠÑĥÐ¼ÐµÐ½ÑĮ": 3332,
      "ĠÑĢÐ°Ð·Ð¼Ðµ": 3333,
      "ĠÐ¼Ð¾Ð³Ñĥ": 3334,
      "ĠÐ¾ÑĩÐµÑĢÐµÐ´": 3335,
      "ĠÐºÐ¾ÑĢÐ¾Ð»ÐµÐ²": 3336,
      "ÑıÐ±ÑĢÑĮ": 3337,
      "ir": 3338,
      "Ġ()": 3339,
      "ĠÐ¿Ð°ÑĢÐ°": 3340,
      "ĠÑģÐ¼ÑĭÑģ": 3341,
      "ĠÐ¿ÑĢÐ¸Ð²Ðµ": 3342,
      "ĠÑģÐ°Ð¼ÑĭÑħ": 3343,
      "ĠÐ¿Ð¾Ð´Ð´ÐµÑĢÐ¶Ð¸": 3344,
      "ĠÐ¿ÑĢÐ¾Ð´Ñĥ": 3345,
      "ĠÐºÐ°Ð½Ð°": 3346,
      "ÐĿÐµÑĤ": 3347,
      "ĠÐ°Ñį": 3348,
      "ÑĪÐµÐ¼": 3349,
      "ĠÐ¿ÑĢÐµÐ´ÑģÑĤÐ°Ð²Ð»ÑıÐµÑĤ": 3350,
      "Ð¾ÑģÐ»Ð°Ð²": 3351,
      "ĠÑĥÐ±Ðµ": 3352,
      "ĠÐ¼ÐµÑģÑĤÐµ": 3353,
      "Ð»Ð°Ð³": 3354,
      "ÐºÐ°Ðº": 3355,
      "ĠÑĤÐ¾Ð½": 3356,
      "ĠÐ¾Ð±ÐµÑģÐ¿ÐµÑĩÐ¸": 3357,
      "ÑģÑĤÐ°Ð²ÑĮÑĤÐµ": 3358,
      "ation": 3359,
      "ĠÐ·Ð°Ð²Ð¸ÑģÐ¸Ð¼Ð¾": 3360,
      "ÑģÑĤÐ¸Ð½": 3361,
      "ÑĪÐ¸Ð¼Ð¸": 3362,
      "Ð»ÐµÐ½Ð½ÑĭÐµ": 3363,
      "ĠÐľÐ¾Ð½": 3364,
      "ĠÐ·Ð´ÐµÑģÑĮ": 3365,
      "Ð½Ð°Ð´Ð»Ðµ": 3366,
      "ĠÐľÐµÐ¶Ð´ÑĥÐ½Ð°ÑĢÐ¾Ð´": 3367,
      "Ġ\"": 3368,
      "ÑĤÑĭÐµ": 3369,
      "Ð¼Ð¾Ð¹": 3370,
      "Ð»ÑĮÐ½Ð¾Ð³Ð¾": 3371,
      "Ð´ÑĥÐµÑĤ": 3372,
      "ĠÐºÑĢÐ°Ð¹": 3373,
      "ĠÑģÐ¾Ð±ÑĢÐ°": 3374,
      "ĠÐ°Ð²Ð¸Ð°": 3375,
      "ÑĩÐ°Ð¹": 3376,
      "ĠÐ¿ÐµÐ´Ð°Ð³": 3377,
      "ĠÐ¿ÑĢÐ¾Ð±Ð»ÐµÐ¼": 3378,
      "ĠÐ²ÐºÐ»ÑİÑĩÐ°ÐµÑĤ": 3379,
      "ĠÐ°Ð²ÑĤÐ¾": 3380,
      "ĠÐ²Ð¾Ð·Ð¼Ð¾Ð¶Ð½Ð¾ÑģÑĤÑĮ": 3381,
      "ĠÐ¿ÑĢÐ°Ð²Ð¾": 3382,
      "Ð¾Ð»Ñı": 3383,
      "ĠÐ²ÐµÑģÑĮ": 3384,
      "ĠÐ¼Ð¸ÑĢÐ¾Ð²Ð¾Ð¹": 3385,
      "ĠÐ£ÐºÑĢÐ°Ð¸Ð½Ñĭ": 3386,
      "ĠÑģÐ¿Ð¾ÑĢ": 3387,
      "ĠÐ²ÑĭÐ·": 3388,
      "ÑİÑīÐ¸Ð¼": 3389,
      "ĠÐ²Ð»Ð°ÑģÑĤÑĮ": 3390,
      "ĠÑģÐ¾ÑħÑĢÐ°Ð½Ð¸": 3391,
      "Ð»Ð°Ð¼Ð¸": 3392,
      "ĠÑħÐ°ÑĢÐ°ÐºÑĤÐµÑĢÐ¸": 3393,
      "ĠÐ¾ÑĤÑģÑĥÑĤ": 3394,
      "ĠÐ¿ÑĢÐ¾Ð²Ð¾Ð´Ð¸": 3395,
      "ĠÑĦÐ¾ÑĢÐ¼Ð°": 3396,
      "ĠÐ²Ð¾ÑģÑģÑĤ": 3397,
      "ĠÑģÐ»Ð¾Ð²Ð¾": 3398,
      "oo": 3399,
      "ÑĢÐ¸Ð½Ð°": 3400,
      "ĠÐ±ÑĢÐ°": 3401,
      "ĠÐ½ÐµÑģ": 3402,
      "ĠÑĤÐ²Ð¾": 3403,
      "ÑĪÑĤÐ°": 3404,
      "ÑģÑĤÐ²ÐµÐ½Ð½Ð°Ñı": 3405,
      "ĠÐ½Ð°ÑĢ": 3406,
      "ĠÐ¡Ð¾Ð²ÐµÑĤÐ°": 3407,
      "ĠÐ¾ÑĪÐ¸Ð±": 3408,
      "ĠÐ¤ÐµÐ´ÐµÑĢÐ°ÑĨÐ¸Ð¸": 3409,
      "ÑĩÐ½ÑĭÐ¼": 3410,
      "ĠÑĦÐ¾ÑĢÐ¼Ð¸": 3411,
      "ĠÐļÐ°Ð»Ð¸": 3412,
      "ĠÐ´Ð¾Ð³Ð¾Ð²Ð¾ÑĢ": 3413,
      "):": 3414,
      "ĠÐĴÐµÐ½": 3415,
      "ĠÐ¾ÑĢÐ³Ð°Ð½Ð¸Ð·Ð°ÑĨÐ¸Ð¸": 3416,
      "ĠÑĦÐµÐ´Ðµ": 3417,
      "ĠÐĳÐ°ÑĢ": 3418,
      "ĠÐ°Ð»Ð³Ð¾ÑĢÐ¸ÑĤ": 3419,
      "ĠÑĨÐµÑĢÐºÐ²Ð¸": 3420,
      "ĠÐ´ÐµÐ²ÑĥÑĪ": 3421,
      "ÑĥÑģÐ°": 3422,
      "ĠÐ¢Ñĥ": 3423,
      "ĠÑĤÐµÐ¾ÑĢÐ¸Ð¸": 3424,
      "Ð¾Ð´Ð¾ÑĢÐ¾Ð¶": 3425,
      "Ġ40": 3426,
      "ĠÐºÐ¾Ð½ÐºÑĢÐµÑĤ": 3427,
      "22": 3428,
      "Ð¼Ð°Ñı": 3429,
      "ÑģÑĭÐ»ÐºÐ¸": 3430,
      "ĠÐ»Ð¸Ð´ÐµÑĢ": 3431,
      "ĠÐ¿Ð¾Ð²ÐµÑĢÑħ": 3432,
      "ĠÐĴÐµÑĢÑħÐ¾Ð²": 3433,
      "ĠÑĢÐµÑĪÐ¸": 3434,
      "ĠÐ±ÑĭÑģÑĤÑĢÐ¾": 3435,
      "ĠÐ°ÐºÐ°Ð´ÐµÐ¼Ð¸": 3436,
      "ĠÐ´ÐµÐ½Ðµ": 3437,
      "ĠÑĥÑģÐ»Ñĥ": 3438,
      "ĠÑĤÐ°Ð½": 3439,
      "ĠÐ²ÑĢÐ¾Ð´Ðµ": 3440,
      "Ð°Ð½ÑĤ": 3441,
      "ĠÐ¿ÑĢÑıÐ¼": 3442,
      "Ġ180": 3443,
      "ĠÐ¿ÐµÑĢÑģÐ¾Ð½Ð°": 3444,
      "ĠÐ²ÑģÑĤÑĢÐµÑĩÐ°": 3445,
      "Ð»Ð¸ÑĤÑĮ": 3446,
      "ĠÐŁÐ°ÑĢ": 3447,
      "ÑĩÐµÐ±": 3448,
      "Ð²Ð¾ÑĢÐµ": 3449,
      "ĠÐ·Ð°Ð²Ð¾Ð´": 3450,
      "ĠÐ½Ð¾Ð²ÑĭÐ¹": 3451,
      "ĠÐ¶ÐµÐ»ÐµÐ·": 3452,
      "ÑĩÐµÑģÑĤÐ²Ð¾": 3453,
      "ĠÐ¿ÑĢÐ¸Ð½Ð°Ð´Ð»Ðµ": 3454,
      "ĠÐ²ÐµÐ±": 3455,
      "Ð¾Ð¼ÐµÑĢ": 3456,
      "Ð³Ð¸Ð¹": 3457,
      "ĠÐĴÐ¾ÑĤ": 3458,
      "ĠÐĲÐ¼ÐµÑĢÐ¸": 3459,
      "ÑįÑĤÐ¾": 3460,
      "ĠÐ¼Ð°ÑĪÐ¸Ð½": 3461,
      "ĠÑģÐ¼ÐµÑĢÑĤÐ¸": 3462,
      "ĠÐ²Ð¸Ð·": 3463,
      "Ġ2011": 3464,
      "ĠÐ´Ð²": 3465,
      "ad": 3466,
      "ĠÐ¿Ð¾Ð»Ñı": 3467,
      "ĠÐĺÐ½ÑĤÐµÑĢ": 3468,
      "ĠÐ»Ð¾Ð³Ð¸": 3469,
      "Ð½Ð¸ÐºÐ°Ð¼Ð¸": 3470,
      "24": 3471,
      "ĠÑĥÐ¶": 3472,
      "ÑģÑĤÐ²Ð¾Ð²Ð°ÑĤÑĮ": 3473,
      "ĠÑħÐ¾Ð´Ðµ": 3474,
      "Ð¾Ð»Ð¸ÑĤ": 3475,
      "ĠÑĤÐ°ÐºÐ¸Ð¼": 3476,
      "ĠÑıÐ·ÑĭÐºÐ¾Ð²": 3477,
      "ÑĥÐ´ÑĮ": 3478,
      "Ġ1991": 3479,
      "ĠÑĢÐµÐ»Ð¸Ð³Ð¸Ð¾Ð·": 3480,
      "ĠÑħÐ¾Ñĩ": 3481,
      "ĠÐ¿Ð¾Ð¼Ðµ": 3482,
      "Ð±Ð°Ð¹": 3483,
      "ĠÐŃÑĤÐ¾ÑĤ": 3484,
      "ĠÐ¿ÑĥÑĤÐµÑĪÐµ": 3485,
      "ĠÐ¸Ð½Ð¾ÑģÑĤÑĢÐ°Ð½": 3486,
      "ĠÐ¡Ð¿": 3487,
      "ĠÐŀÐ½Ð°": 3488,
      "ĠÑģÑĤÐ°ÑĤÑĥ": 3489,
      "ÐµÐ½ÑĤÑĭ": 3490,
      "ÑįÐ¹": 3491,
      "ĠÐ¿Ð¾Ð¼Ð¾Ð³Ð°": 3492,
      "ĠÐ¸Ð½ÑģÑĤÑĢÑĥ": 3493,
      "ÐºÑģÐ¸": 3494,
      "ĠÐºÐ°Ð·Ð°": 3495,
      "ÐĿÐ¾": 3496,
      "ÑĢÐ¾Ð¹": 3497,
      "ĠÐ¿Ð¾Ð·Ð´": 3498,
      "ĠÑĩÐ°ÑģÑĤÐ½Ð¾ÑģÑĤÐ¸": 3499,
      "ĠÐĺÐ¾": 3500,
      "ĠÐ¼Ð¾Ð¼ÐµÐ½ÑĤ": 3501,
      "ĠÐ´Ð¾ÐºÐ°": 3502,
      "Ġ2007": 3503,
      "ĠÐ¾Ð±ÑıÐ·Ð°": 3504,
      "ge": 3505,
      "ĠÐ¾ÑģÐ°": 3506,
      "ÑģÑģÐ°Ð¶Ð¸": 3507,
      "ĠÐ¼ÐµÐ½ÑĮÑĪÐµ": 3508,
      "ÑĩÐ½Ð¾Ð¼": 3509,
      "ÑĢÐ¸Ð¶": 3510,
      "ĠÐłÐ¤": 3511,
      "ĠÐ´ÐµÑĤÐµÐ¹": 3512,
      "Ð½Ð¾ÑģÐ¸": 3513,
      "Ð¾Ð±ÐµÐ»ÐµÐ²": 3514,
      "Ð¿Ð°Ñģ": 3515,
      "Ð¶Ð´ÐµÐ½Ð¸Ðµ": 3516,
      "ĠÐ´ÐµÐ»Ð¾": 3517,
      "ÐŀÑĤ": 3518,
      "Ð¾Ð³ÑĢÐ°ÑĦÐ¸Ñı": 3519,
      "Ð±ÑĢÐµ": 3520,
      "ĠÑĥÑģÐ¸": 3521,
      "ĠÑĢÐ°Ð·Ð½ÑĭÑħ": 3522,
      "ÑĩÐµÑģÐºÐ¾Ð¼": 3523,
      "ĠÐ¿Ð¾Ð´Ð¾Ð±": 3524,
      "ĠU": 3525,
      "Ð½Ð°Ð½Ð¸Ñı": 3526,
      "Ð´Ð°ÑİÑĤ": 3527,
      "ĠÑĢÐµÐ¶Ð¸": 3528,
      "ĠÐ¿Ð¾Ð»ÑĥÑĩÐ¸Ð»": 3529,
      "ÑĤÐ¸ÑĩÐµÑģÐºÐ°Ñı": 3530,
      "ĠÐ³Ð»Ð°Ð²Ðµ": 3531,
      "Ð»ÐµÐ½Ð½ÑĭÑħ": 3532,
      "ĠÑĨÐ°ÑĢ": 3533,
      "ĠÐ°Ð²ÑĤ": 3534,
      "ÑĨÐµÐ½Ð¸": 3535,
      "ĠÐ¡Ð¾Ð³Ð»Ð°ÑģÐ½Ð¾": 3536,
      "ĠÐ¸Ð½ÑģÑĤÐ¸ÑĤÑĥ": 3537,
      "ĠÐ¼ÑĥÐ·ÑĭÐºÐ°": 3538,
      "ĠÐ³ÑĥÐ±ÐµÑĢ": 3539,
      "ĠÐĿÐ°Ð¿ÑĢÐ¸Ð¼ÐµÑĢ": 3540,
      "Ð»Ð¸Ð²": 3541,
      "ĠÑģÐ¸Ð¼Ð²Ð¾Ð»": 3542,
      "ÑĭÐ²Ð°": 3543,
      "Ġh": 3544,
      "ĠÐ´ÑĢÐ°Ð¼Ð°": 3545,
      "Ð¾Ð·Ð´Ð°Ð¹ÑĤÐµ": 3546,
      "ÑĨÐºÐ¸Ð¹": 3547,
      "ÑĤÑĥÑĢÑĥ": 3548,
      "ÑĥÐºÐ°": 3549,
      "ÑĨÐ¸Ð°": 3550,
      "ĠÐ¿ÑĢÐ¾ÑĤÐµ": 3551,
      "Ð·Ðµ": 3552,
      "ĠÐľÐ°Ð¹": 3553,
      "ĠÑģÐ¾ÑģÑĤÐ¾": 3554,
      "Ð´ÑĥÐ¼Ð°": 3555,
      "Ð³Ð¾Ð´Ð½Ñı": 3556,
      "ĠÑģÐ±Ð¾ÑĢ": 3557,
      "Ð¾ÑĢÐ¾ÑĤ": 3558,
      "ĠÑĥÐ¿ÑĢÐ°Ð²Ð»ÐµÐ½Ð¸Ñı": 3559,
      "ĠÑıÐ²": 3560,
      "ĠÐ¿ÐµÑĢÐ²Ð°Ñı": 3561,
      "ĠÐ²Ð¾Ð·Ð½Ð¸Ðº": 3562,
      "ĠÐ¿ÑĢÐ¾ÑģÑĤ": 3563,
      "Ð´ÑĥÑĤ": 3564,
      "ĠÐ´Ð¾Ð²": 3565,
      "ĠÐ²Ð¾Ð¹ÑģÐº": 3566,
      "ĠÐĿÐ¾ÑĢ": 3567,
      "ĠÐ¿ÑĭÑĤÐ°": 3568,
      "Ð½ÑıÑĤÑĮ": 3569,
      "ÐºÐ»Ð°Ð´": 3570,
      "ÑīÑĳÐ½": 3571,
      "ĠÑĥÑĩÑĢÐµ": 3572,
      "ÑģÑĤÐ°ÑĤÐ¾ÑĩÐ½Ð¾": 3573,
      "ÑĤÐ¸Ð»Ð¸": 3574,
      "ÑĤÐµÐ»": 3575,
      "ÑĩÐµÑģÐºÐ¸Ð¼Ð¸": 3576,
      "ĠÐ½Ð¾Ð²ÑĭÑħ": 3577,
      "ow": 3578,
      "Ġ2020": 3579,
      "Ð½Ð³ÑĢÐ°Ð´": 3580,
      "21": 3581,
      "ĠÑģÐµÑĤÐ¸": 3582,
      "ĠÐ¾ÑĢÐ¸": 3583,
      "Ð°Ð½Ð´Ð°": 3584,
      "ĠÐļÐ¾": 3585,
      "Ð²ÑĪÐµÐ¹": 3586,
      "ĠÑģÑĥÐ¼": 3587,
      "ig": 3588,
      "ÐºÑĤÐ°": 3589,
      "ĠÐ³Ð¾ÑĤÐ¾Ð²": 3590,
      "ĠÑģÐ»Ð°Ð²": 3591,
      "ĠÐ´Ð²Ð¾ÑĢ": 3592,
      "ĠÐ¸ÑģÐ¿Ð¾Ð»ÑĮÐ·Ð¾Ð²Ð°Ð½Ð¸Ðµ": 3593,
      "ĠÐºÐ¾Ð½ÑģÑĤÐ¸ÑĤÑĥ": 3594,
      "ĠÑģÑĤÐ°Ð½Ð¾Ð²Ð¸ÑĤÑģÑı": 3595,
      "Ð±Ð¾ÑĢÐ°": 3596,
      "Ġ2009": 3597,
      "ÑģÑĤÑĥÐ¿Ð¸Ð»": 3598,
      "ĠÐµÐ²ÑĢÐ¾Ð¿ÐµÐ¹": 3599,
      "ĠÐ´Ð¾Ðº": 3600,
      "ĠÐ´ÐµÐ»Ð°ÑĤÑĮ": 3601,
      "ĠÐĲÑĦÑĢÐ¸": 3602,
      "ĠÐĵÑĢÐ°": 3603,
      "ÑħÐ¾Ð´Ð¾Ð²": 3604,
      "Ġ179": 3605,
      "Ð¾Ð¼Ð¾": 3606,
      "Ð²Ð¸Ð¸": 3607,
      "----": 3608,
      "Ð·Ð¸ÑĢÐ¾Ð²Ð°Ð½": 3609,
      "Ð±Ð¸Ð½": 3610,
      "ĠÐ¿ÑĢÐ¸Ð²Ð¾Ð´Ð¸": 3611,
      "ĠÐ´ÐµÐ¿ÑĥÑĤÐ°": 3612,
      "ĠÐ¿ÑĢÐ¾Ð´Ð¾Ð»Ð¶Ð°": 3613,
      "ĠÐľÐ¸ÑħÐ°Ð¸Ð»": 3614,
      "ĠÑĤÐ¾Ð¼Ñĥ": 3615,
      "ĠÐ¼ÐµÑĤÐ°Ð»": 3616,
      "ĠÑĥÐ´Ð¾Ð±": 3617,
      "ĠÑģÐ¾Ð´ÐµÑĢÐ¶": 3618,
      "ÐºÐ¸Ð¼Ð¸": 3619,
      "ĠÐ¿ÐµÑĢÐ²Ð¾Ð³Ð¾": 3620,
      "ĠÐ¾Ð±Ð»Ð°ÑģÑĤÑĮ": 3621,
      "Ð¾ÐºÐ¾": 3622,
      "ĠÐ¼Ð¾Ð¶ÐµÑĤÐµ": 3623,
      "ĠÐĵÑĥ": 3624,
      "ÑģÐ»Ð°Ð²": 3625,
      "Ð¾Ð¶Ð´ÐµÐ½Ð¸Ðµ": 3626,
      "ĠÑĤÐµÑħÐ½Ð¸": 3627,
      "Ð¿Ð¿": 3628,
      "ÑĢÐ¸ÑĤÐµ": 3629,
      "ĠÐºÐ»Ð¸Ð¼Ð°": 3630,
      "ĠÐºÐ²Ð°ÑĢ": 3631,
      "ĠÑĢÐ°Ð·ÑĢÐµ": 3632,
      "Ð½Ð°ÑģÑĤÐ¸": 3633,
      "ĠÑįÐ»ÐµÐºÑĤÑĢÐ¾": 3634,
      "ÑģÑĤÐ¾Ð¼": 3635,
      "ÑĮÐ¸": 3636,
      "ĠÐ¿Ð¾ÑĤÐµ": 3637,
      "ĠÐºÐ¾Ð½ÑĦ": 3638,
      "Ð±Ð°Ð½": 3639,
      "ĠÐ¿Ð¾Ð²ÐµÐ´": 3640,
      "ĠÑĥÑĢÐ¾Ð²ÐµÐ½ÑĮ": 3641,
      "ĠÐ¸ÑĤ": 3642,
      "ĠÐ¼Ð°Ñģ": 3643,
      "ĠÑĤÐ¾ÑĩÐºÐ¸": 3644,
      "ĠÑĥÐ¼ÐµÑĢ": 3645,
      "ĠÐ¢Ð¸": 3646,
      "ĠÐ²ÐµÐ´ÑĮ": 3647,
      "ĠÐ±ÐµÐ·Ð¾Ð¿Ð°ÑģÐ½Ð¾ÑģÑĤÐ¸": 3648,
      "ÑīÑĥÑİ": 3649,
      "Ð¸Ð»ÑģÑı": 3650,
      "iv": 3651,
      "ĠÐ²Ð¸Ð´Ð¸": 3652,
      ".)": 3653,
      "Ð²Ð¸Ð´Ñĥ": 3654,
      "ĠÑĤÐµÐ¿": 3655,
      "ÑģÐ¿ÐµÑĢÐ¸": 3656,
      "ĠÑĢÐµÐºÐ¸": 3657,
      "ĠÐ¿Ð¾Ð»Ð¾Ð²Ð¸": 3658,
      "ĠÐºÐ¾ÑĤÐ¾ÑĢÑĥÑİ": 3659,
      "ĠÐ¼Ð¾Ñī": 3660,
      "Ð¾Ð³ÑĢÐ°ÑĦÐ¸Ð¸": 3661,
      "ÑīÐ¸Ð¼": 3662,
      "ĠÑģÐ²Ðµ": 3663,
      "ÑīÑĥ": 3664,
      "ĠÐĻ": 3665,
      "ĠÐºÑĥÐ»ÑĮÑĤÑĥÑĢÑĭ": 3666,
      "ĠÑĪÐºÐ¾Ð»Ñĭ": 3667,
      "ÑİÑģÐµÑĢ": 3668,
      "Ð¾Ð¿Ð¾Ð»Ð¾Ð¶": 3669,
      "ĠÐ¿Ð¾Ð·Ð¸": 3670,
      "ÑĢÐ°Ð±Ð¾ÑĤÐ°": 3671,
      "Ð¼ÐµÐ½Ð°": 3672,
      "ĠÑĢÐ°Ð·Ð´Ðµ": 3673,
      "ĠÐłÐ¾ÑģÑģÐ¸Ñı": 3674,
      "Ð²ÑĳÑĢ": 3675,
      "Ð¸Ð½Ð¾Ð²": 3676,
      "ĠÑģÐ»ÑĥÑĩÐ°Ð¹": 3677,
      "ĠÑĢÐ°ÑģÑģÐ¼Ð°ÑĤÑĢÐ¸": 3678,
      "Â».<|": 3679,
      "ĠÐºÐ¾ÑĢÐ¾Ð»Ñı": 3680,
      "Ð¸Ðº": 3681,
      "ĠÐ§ÐµÑĢ": 3682,
      "ĠÐĴÐ¾ÑģÑĤÐ¾": 3683,
      "ĠÐ±Ð°Ð·": 3684,
      "Ð·Ð°Ð´": 3685,
      "ÑĤÐµÐ»ÑıÐ¼Ð¸": 3686,
      "ĠThe": 3687,
      "ĠÑįÐ¿Ð¾": 3688,
      "ĠÐ¾Ð±ÑģÐ»ÑĥÐ¶Ð¸": 3689,
      "Ð¸Ð»Ð°": 3690,
      "ĠÐĿÑĥ": 3691,
      "Ġ2012": 3692,
      "ĠÑĥÐ²ÐµÐ»Ð¸ÑĩÐ¸": 3693,
      "ĠÑĤÑĢÐ°Ð´Ð¸ÑĨÐ¸Ð¾Ð½": 3694,
      "ÑĤÐ¾Ð»": 3695,
      "ĠÂ°": 3696,
      "ĠÑĦÐ¸Ð»ÑĮÐ¼": 3697,
      "Ð»ÑıÑĤÑĮ": 3698,
      "ĠÐ½Ð¸ÐºÐ¾Ð³Ð´Ð°": 3699,
      "ĠÐŁÑĢÐ°Ð²": 3700,
      "ĠÐ¶ÐµÐ½ÑīÐ¸": 3701,
      "Ð²Ð»Ð¸": 3702,
      "ÑįÑĢ": 3703,
      "ÑĤÑĥÐ³Ð°": 3704,
      "ĠÐłÐ¾Ð±": 3705,
      "ÐŀÐ½": 3706,
      "ĠÐ½Ð°Ð»": 3707,
      "ĠÑģÐ°Ð¹": 3708,
      "ÐŁÐµÑĤÐµÑĢ": 3709,
      "Ð¼Ð¸Ð½Ð°": 3710,
      "ĠÐ¿Ð°ÑģÑģÐ°Ð¶Ð¸": 3711,
      "ĠÑĢÐ°Ð·Ð¼ÐµÑĢ": 3712,
      "ĠÐ¾Ð±ÑĬÑıÐ²Ð¸": 3713,
      "Ð·Ð½Ð¾Ð´Ð¾ÑĢÐ¾Ð¶": 3714,
      "ĠÐ¢ÐµÐ¼": 3715,
      "Ġ31": 3716,
      "ĠÐĵÑĢÐ¸": 3717,
      "ĠÐ¿Ð¾ÑĤÐµÐ½": 3718,
      "ĠÐ¾Ð·Ð½Ð°ÑĩÐ°ÐµÑĤ": 3719,
      "ĠÐĴÐ¸Ð»ÑĮ": 3720,
      "ĠÑĢÐµÐ°Ðº": 3721,
      "ĠÐ½Ð¾Ð²ÑĭÐµ": 3722,
      "ÑĩÐ°ÑģÑĤ": 3723,
      "Ġv": 3724,
      "ÑĢÐµÐ½Ð¸Ðµ": 3725,
      "ÑģÐ¸Ñİ": 3726,
      "Ġ2014": 3727,
      "ĠÐ½ÐµÐ´Ð¾": 3728,
      "ĠÐ·Ð°ÑģÐ»Ñĥ": 3729,
      "ĠÐļÐ°ÑĢÐ»": 3730,
      "ĠÑģÐ¾Ð·Ð´Ð°Ð½Ð¸Ñı": 3731,
      "ĠÐ´Ð¾Ð»Ð»Ð°ÑĢÐ¾Ð²": 3732,
      "ĠÑģÐ²ÑıÑīÐµÐ½": 3733,
      "Ġth": 3734,
      "Ð¼Ð¾ÑĤÑĢÐµÑĤÑĮ": 3735,
      "ĠÐ¿ÑĢÐ¾Ð³ÑĢÐ°Ð¼Ð¼Ð¸": 3736,
      "ÑİÑĢ": 3737,
      "ĠÐ´ÐµÐ¹ÑģÑĤÐ²Ð¸Ñı": 3738,
      "ĠÐ²Ð¾Ð·Ð¼Ð¾Ð¶Ð½Ð¾ÑģÑĤÐ¸": 3739,
      "ĠÐ¿Ð°ÑĤ": 3740,
      "ÐµÐºÑĤ": 3741,
      "ĠÐĺÑģÑĤÐ¾ÑĢÐ¸Ñı": 3742,
      "ĠÐ¿ÐµÐ´Ð°Ð³Ð¾Ð³": 3743,
      "ÑĩÐ½ÑĥÑİ": 3744,
      "ĠÐºÑĢÑĭ": 3745,
      "ĠÐ¿ÑĢÐ¾Ð¸ÑģÑħÐ¾Ð´Ð¸ÑĤ": 3746,
      "ĠÐĿÐ¾Ð±ÐµÐ»ÐµÐ²": 3747,
      "ÑĢÑĥÐµÑĤÑģÑı": 3748,
      "Ð»Ð¸Ð±Ð¾": 3749,
      "ĠÐ¾Ð·": 3750,
      "ĠÐĳÐ¾Ð³": 3751,
      "âĢĻ": 3752,
      "ĠÑĩÐ°ÑģÐ¾Ð²": 3753,
      "ĠÐ¼Ð°ÑĢÑĪ": 3754,
      "ĠÐ²ÑģÐµÐ¹": 3755,
      "ĠÐ½Ð°ÑģÑĤÐ¾ÑıÑīÐµÐµ": 3756,
      "Ġ000": 3757,
      "ÑĨÐ¸Ð¾Ð½Ð¸": 3758,
      "ĠÐ¿Ð»Ð°ÑĤ": 3759,
      "ĠÐ¿ÑĢÑı": 3760,
      "Ð¾Ð²Ð°Ð½Ð¸Ð¹": 3761,
      "ĠÐ¾Ð±ÑĢÐ°Ð·Ð¾Ð²Ð°Ð½Ð¸Ñı": 3762,
      "ÑĨÐ¸Ð¾Ð½Ð°": 3763,
      "ĠÐ¸Ð¼ÐµÑĤÑĮ": 3764,
      "ĠÐ±Ð¾Ð»ÑĮÑĪÐ¾Ð¹": 3765,
      "ĠÑıÐ¿Ð¾Ð½": 3766,
      "ĠÐ´ÐµÐ½ÑĮÐ³Ð¸": 3767,
      "ÑģÐ¾Ð»": 3768,
      "193": 3769,
      "ĠÐ¿ÐµÐ²ÐµÑĨ": 3770,
      "ĠÐ§Ð°": 3771,
      "Ð²Ð¾Ð´Ð°": 3772,
      "ĠIV": 3773,
      "ĠÐ¿Ð°ÑĢÑĤÐ¸Ñı": 3774,
      "ÑĪÐºÐ¾Ð¼": 3775,
      "Ð²Ð°Ð¹ÑĤÐµ": 3776,
      "ĠÐ·Ð°ÐºÐ¾": 3777,
      "ĠÐļÐ¾Ð³Ð´Ð°": 3778,
      "ĠÐ¼Ð°Ð»Ð¾": 3779,
      "ĠÐĿÐ°ÑĩÐ°": 3780,
      "ĠÐ°ÑģÑĤÑĢ": 3781,
      "ĠÑĥÐ·Ð½Ð°": 3782,
      "ĠÐ¿ÑĢÐ¸Ð¼ÐµÑĢÐ½Ð¾": 3783,
      "ĠÐ¸ÑģÑģÐ»ÐµÐ´Ð¾Ð²Ð°Ð½Ð¸Ñı": 3784,
      "ĠÐºÐ¾Ð½ÐµÑĩÐ½Ð¾": 3785,
      "ÐµÐ²Ð¸Ñĩ": 3786,
      "ĠÐ¶ÑĥÑĢÐ½Ð°Ð»Ð¸": 3787,
      "ĠÐĳÐ¾Ð»ÑĮÑĪ": 3788,
      "ĠÐ¸ÑģÐ¿Ð¾Ð»ÑĮÐ·Ð¾Ð²Ð°": 3789,
      "ĠÐ¾Ð±Ðµ": 3790,
      "ĠÑĥÑĢÐ¾Ð²Ð½Ñı": 3791,
      "Ð»Ð¸Ð·Ð°": 3792,
      "ĠÑģÐ»Ð°": 3793,
      "ĠÑĤÐµÐ½": 3794,
      "ĠÐ¿Ð¾Ð»Ð¾Ð¶Ð¸": 3795,
      "Ð´ÐµÐ½Ð¸Ñı": 3796,
      "ĠÐ¿Ð¾Ð´Ð³Ð¾ÑĤÐ¾Ð²": 3797,
      "ÑİÑīÑĥÑİ": 3798,
      "ĠÐ±Ð¸Ð±Ð»Ð¸": 3799,
      "ĠÐĵÑĢÐµ": 3800,
      "Ġ2017": 3801,
      "Ð²ÑĪÐµÐ³Ð¾": 3802,
      "ĠÐ·ÑĢÐµÐ½Ð¸Ñı": 3803,
      "Ġ2013": 3804,
      "ĠÐĴÐµÐ»Ð¸ÐºÐ¾Ð±ÑĢÐ¸ÑĤÐ°Ð½Ð¸Ð¸": 3805,
      "Ð°ÑĢÐ´": 3806,
      "ÑĤÐ¸ÑĩÐµÑģÐºÐ¾Ð³Ð¾": 3807,
      "ĠÐ²Ð¾Ð¾ÑĢÑĥÐ¶": 3808,
      "40": 3809,
      "Ð°Ð»Ð°": 3810,
      "ĠÐ¼ÐµÑĢÐµ": 3811,
      "Ð½Ð¸Ð½": 3812,
      "ĠÐ²ÐµÐ»": 3813,
      "ĠÐ´Ð½ÐµÐ¹": 3814,
      "ĠÐ¾ÐºÐ¾Ð½": 3815,
      "Ð´Ð¸ÑĤÑĮ": 3816,
      "ĠÐľÐ¾Ð»": 3817,
      "ÑģÑĤÐ°Ð²Ð¸ÑĤÑĮ": 3818,
      "ĠÐ²Ð¸Ð´Ð¾Ð²": 3819,
      "23": 3820,
      "ĠÑĥÐ´Ð¾Ð²": 3821,
      "Ð°Ð»Ñĭ": 3822,
      "ÐºÐ¾Ð»ÑĮ": 3823,
      "ÐµÑħ": 3824,
      "....<|": 3825,
      "Ð¾Ð¿Ð¸Ñģ": 3826,
      "ĠÐ¾ÑĢÐ³Ð°Ð½Ð¸Ð·Ð°": 3827,
      "ĠÐ²ÑĭÑħÐ¾Ð´": 3828,
      "ĠÐºÑĢÐµÑģÑĤÑĮ": 3829,
      "Ð·Ð¸Ñı": 3830,
      "ĠÐ·Ð½Ð°ÑĩÐ¸ÑĤ": 3831,
      "ĠÐ¿ÑĢÐµÐ´ÑģÐµ": 3832,
      "Ġ2004": 3833,
      "ĠÑĦÐ¸Ð½Ð°Ð½ÑģÐ¾Ð²": 3834,
      "Ð¾ÑģÐ°": 3835,
      "ĠÐ¾Ð±ÑĬÐµÐ´Ð¸Ð½": 3836,
      "ĠÐ»ÐµÐ³ÐºÐ¾": 3837,
      "78": 3838,
      "ÑĤÑıÐ¶": 3839,
      "ĠÑĥÐ·": 3840,
      "ĠÐĿÑĮÑİ": 3841,
      "ĠÐĳÐ¾Ð»": 3842,
      "ĠÑģÐ¿ÑĢÐ°": 3843,
      "ĠÐ½Ð°ÑĢÑĥ": 3844,
      "ĠÐ·Ð°ÐºÑĢÑĭ": 3845,
      "ĠÐ¿ÑĢÐµÐ¶": 3846,
      "ĠÐĴÑĤÐ¾ÑĢ": 3847,
      "ÑıÑĤÐ¾Ð¹": 3848,
      "ĠÐ·Ð°Ð¿Ñĥ": 3849,
      "ĠÐºÐ¾Ð¼Ð¿ÑĮÑİÑĤÐµÑĢ": 3850,
      "ĠÐ¾Ð»Ð¸Ð¼Ð¿Ð¸Ð¹ÑģÐºÐ¸Ð¹": 3851,
      "Ð»ÑĮÐ½Ð°Ñı": 3852,
      "Ð°ÑĢÑĭ": 3853,
      "Ġ2018": 3854,
      "ĠÐ´ÑĢÑĥÐ³Ð¸Ð¼Ð¸": 3855,
      "ĠÑĢÑĥÐºÐ¾Ð²Ð¾Ð´Ð¸": 3856,
      "Ð±Ð¾Ð²": 3857,
      "Ð¡Ð¾Ð·Ð´Ð°Ð¹ÑĤÐµ": 3858,
      "ĠÑģÑĤÐ°Ð½Ð´Ð°ÑĢ": 3859,
      "Ġ2019": 3860,
      "ĠÎ": 3861,
      "ĠÐ¿Ð¾Ð¹": 3862,
      "ĠÐ½Ð°Ð·Ð°Ð´": 3863,
      "ĠÐ¿ÑĢÐµÐ´Ð¼ÐµÑĤ": 3864,
      "ÑĤÐºÐ¸": 3865,
      "ÑīÐ¸Ð½": 3866,
      "ĠÐ¸Ð·ÑĥÑĩ": 3867,
      "Ð§ÑĤÐ¾": 3868,
      "Ġde": 3869,
      "Ð½ÑĨÐµ": 3870,
      "ĠÐ¼ÐµÐ»": 3871,
      "ĠÐ¾ÑĤÐ»Ð¸ÑĩÐ°": 3872,
      "Ð½Ð¸ÑĨÑĥ": 3873,
      "ĠÐºÐ°Ð¿Ð¸": 3874,
      "28": 3875,
      "ĠÑģÑĥÑīÐµÑģÑĤÐ²ÑĥÐµÑĤ": 3876,
      "ĠÐºÐ½Ð¸Ð³Ð¸": 3877,
      "Ġ2005": 3878,
      "ÑģÑĤÑĢÐ¸Ð¹": 3879,
      "Ð¿Ð°ÑĢÐ°": 3880,
      "ĠÐ´ÐµÑıÑĤÐµÐ»ÑĮÐ½Ð¾ÑģÑĤÐ¸": 3881,
      "Ð¿ÐµÑĢÐµ": 3882,
      "Ð»ÑıÑħ": 3883,
      "ÐºÑĢÐ°ÑĤÐ½ÑĭÐ¹": 3884,
      "ĠÑĦÑĥÐ½ÐºÑĨÐ¸Ð¸": 3885,
      "ĠÑĨÐ¸ÑĦ": 3886,
      "ĠÐĺÐ¾Ð°Ð½": 3887,
      "Ð¾Ð²Ð°Ð½Ð¸Ð¸": 3888,
      "ĠÐ²Ð¾Ð·Ð²ÑĢÐ°": 3889,
      "ĠÐĹÐµÐ¼Ð»Ð¸": 3890,
      "ĠÐ¿ÑĢÐµÐ¸Ð¼ÑĥÑīÐµ": 3891,
      "ĠÐ¿Ð¸Ð·": 3892,
      "ĠÐĲÐ½Ð°": 3893,
      "ĠÐ¡Ð°Ð½ÐºÑĤ": 3894,
      "ĠÐĿÐ°ÑĢÐ¾Ð´": 3895,
      "ĠÐ±Ñİ": 3896,
      "ĠÐ¾ÑĢÑĥ": 3897,
      "ĠÐµÐ¹": 3898,
      "ĠÐ²ÑĭÐ±": 3899,
      "ĠÐ¶ÐµÐ»": 3900,
      "ĠÑģÑĢÐ¾Ðº": 3901,
      "ĠÑĢÐ°Ð±Ð¾ÑĤÐ°ÐµÑĤ": 3902,
      "ÑĩÐ½Ð¾ÑģÑĤÐ¸": 3903,
      "ĠÐ¼ÐµÐ´": 3904,
      "ĠÐ²Ð¾ÑģÑĤÐ¾": 3905,
      "ĠÐ¿ÐµÑĢÐ²ÑĭÐ¼": 3906,
      "ĠÐ¿ÑĢÐ¸ÑĩÐ¸": 3907,
      "Ð¿ÑĢÐ¸Ð½Ð¸Ð¼Ð°": 3908,
      "ĠÐ¼Ð°Ð»ÐµÐ½ÑĮ": 3909,
      "27": 3910,
      "ĠÐĳÐ¸": 3911,
      "ĠÑĢÐ°Ð·Ð²Ð¸ÑĤÐ¸Ðµ": 3912,
      "ĠÐ·Ð°Ð²Ð¸ÑģÐ¸Ð¼Ð¾ÑģÑĤÐ¸": 3913,
      "ĠÐ´Ð²ÑĥÐ¼": 3914,
      "ĠÑĥÐ±Ð¸": 3915,
      "ÐĴÐ¾": 3916,
      "ĠÐºÐ»Ð°ÑģÑģ": 3917,
      "ĠÑĤÐ°ÐºÐ¾Ð³Ð¾": 3918,
      "ĠÐ¤Ð¸Ð½": 3919,
      "ĠÐ¸Ð½ÑĦ": 3920,
      "ĠÐ¼Ð½Ð¾Ð¶ÐµÑģÑĤÐ²Ð¾": 3921,
      "im": 3922,
      "Ð¼Ð¾Ð½": 3923,
      "ĠÐ¡Ð²Ñı": 3924,
      "ĠÐºÐ¾Ð½ÑģÑĤÑĢÑĥÐº": 3925,
      "Ġ2015": 3926,
      "ĠÐ¡Ð²": 3927,
      "ĠÐ²ÑģÐ¿": 3928,
      "ÑĤÐ¸Ñİ": 3929,
      "ÑĩÐ¸Ñħ": 3930,
      "ĠÑĢÐ°Ð¹Ð¾Ð½Ð°": 3931,
      "ĠÐ¸Ð½ÑĤÐµÐ»Ð»ÐµÐº": 3932,
      "ĠÐĳÐ°Ð»": 3933,
      "ĠÑĥÑĢÐ°Ð²": 3934,
      "Ġ2006": 3935,
      "ÐºÑĢÐµÐ¿": 3936,
      "ĠÐ¼Ð°Ð³Ð°": 3937,
      "ia": 3938,
      "ÑĢÐ°Ð»ÑĮÐ½Ð¾Ð¹": 3939,
      "ĠÐ³Ð¾ÑģÑĥÐ´Ð°ÑĢÑģÑĤÐ²Ð¾": 3940,
      "ĠÑĤÑĢÐµÑĤÑĮ": 3941,
      "ĠÐĲÑĢÐ¼": 3942,
      "ĠÑĤÐ°ÐºÐ°Ñı": 3943,
      "ĠÐ¿Ð¾ÐºÑĥ": 3944,
      "ĠÑĢÐ°Ð±Ð¾ÑĤÐ°ÑĤÑĮ": 3945,
      "ĠÐ¾Ð¶Ð¸": 3946,
      "ĠÐĵÐ»Ð°Ð²": 3947,
      "ĠÐ·Ð°Ð¿Ð¸Ñģ": 3948,
      "ĠÐ²ÐºÐ»Ñİ": 3949,
      "ĠÐ¿ÑĢÐ¸Ð±Ñĭ": 3950,
      "Ð¼Ð¾Ð¶Ð½Ð¾": 3951,
      "ĠÑĢÐ°Ð¹Ð¾Ð½Ðµ": 3952,
      "Ð°Ð»Ð¾Ð²": 3953,
      "ĠÐ¿ÑĢÐµÐ´Ð»Ð°Ð³Ð°": 3954,
      "Ð¼Ð¸ÑĢÐ°": 3955,
      "ĠÑģÐ°Ð¼Ð¸": 3956,
      "ĠÐ¸Ð½ÑĦÐ¾ÑĢÐ¼Ð°ÑĨÐ¸Ñİ": 3957,
      "ĠÐºÐ¾Ð³Ð¾": 3958,
      "ÑĨÐµÑĢ": 3959,
      "ĠÐ¿ÑĢÐ¾Ð²Ð¸Ð½": 3960,
      "ÑĤÐ¾Ð½Ð°": 3961,
      "ĠÐ³Ð¾": 3962,
      "Ð²Ð°Ð»Ð°": 3963,
      "ĠÑĪÐ²ÐµÐ´": 3964,
      "ĠÐ¶Ð¸Ð²Ð¾ÑĤÐ½ÑĭÑħ": 3965,
      "ÐŁÐµÑĢÐµ": 3966,
      "ĠÐ¿ÑĥÑĤÐ¸": 3967,
      "ĠÐŁÐ°Ð¼": 3968,
      "ĠÑįÐ»ÐµÐºÑĤÑĢÐ¸": 3969,
      "ĠÐ¸ÑģÑĤÐ¾ÑĢÐ¸Ðº": 3970,
      "ĠÑģÐ²Ð¾Ð¸Ð¼Ð¸": 3971,
      "ÑģÑĤÐ¾Ð¹ÑĩÐ¸": 3972,
      "ÑīÐ°ÐµÑĤ": 3973,
      "ÑĢÐ°Ð±Ð°ÑĤÑĭ": 3974,
      "Ð¾Ð»Ð¾": 3975,
      "Ð¼ÐµÑĢÑĪÐ¸Ðµ": 3976,
      "ĠÑĤÐ¸Ð¿": 3977,
      "ĠÐ¡Ð¾Ð²ÐµÑĤÑģÐºÐ¾Ð³Ð¾": 3978,
      "ĠÐ²Ð¾ÐµÐ½Ð½ÑĭÐ¹": 3979,
      "ĠÐ°Ð²ÑĤÐ¾Ð¼Ð°": 3980,
      "ÑģÐºÑĥ": 3981,
      "ĠÐ¤Ð¸Ð»Ð¸": 3982,
      "ĠÐ½ÐµÑģÐºÐ¾Ð»ÑĮÐºÐ¸Ñħ": 3983,
      "ÐµÐ½ÑĤÐ¸": 3984,
      "ĠÐ¿ÑĢÐµÐ¾Ð±ÑĢÐ°Ð·": 3985,
      "ÐºÑĥÑĢ": 3986,
      "ĠÑħÐ¾ÑĤÑĮ": 3987,
      "ĠÐŁÐ¾ÑĢ": 3988,
      "Ð¿Ð¸ÑģÐ¸": 3989,
      "ĠÑĨÐµÐ½ÑĤÑĢ": 3990,
      "Ð¿Ð¸ÑģÐºÐ¾Ð¿": 3991,
      "ĠÐļÐ¾Ð½ÑģÑĤÐ°Ð½ÑĤÐ¸Ð½": 3992,
      "ÐºÐ¾ÑĢÐµÐµ": 3993,
      "ÐµÐ·Ð´Ð°": 3994,
      "ÑĨÐ¸Ð°Ð»Ð¸ÑģÑĤÐ¸": 3995,
      "ter": 3996,
      "ĠÐ½Ð°Ð¹": 3997,
      "ÑĤÐ¸ÑĩÐµÑģÐºÐ¸Ð¹": 3998,
      "Ð»Ð¾ÑĢ": 3999,
      "ĠÐ°ÑĤÐ¼Ð¾Ñģ": 4000,
      "av": 4001,
      "Ð¸ÑģÑĤ": 4002,
      "Ġ2016": 4003,
      "Ð¸Ð¼ÐµÐ½": 4004,
      "ÑĪÐµÐ²": 4005,
      "Ð¶ÐµÑĤÑģÑı": 4006,
      "ĠÐļÐ¾Ð½ÑģÑĤÐ¸ÑĤÑĥ": 4007,
      "ĠÐ´ÐµÐ»Ð°ÐµÑĤ": 4008,
      "ĠÐ¿Ð°ÑĢÐ»Ð°Ð¼ÐµÐ½ÑĤ": 4009,
      "ÐĻ": 4010,
      "ÑĢÐ¸Ð»": 4011,
      "ĠÐŀÐŀÐĿ": 4012,
      "ÑĩÐµÐ½Ð¸ÐµÐ¼": 4013,
      "ÑĩÐµÐº": 4014,
      "ĠÐ¿Ð¾Ð´Ð°": 4015,
      "ÐłÐ¾Ð´Ð¸": 4016,
      "ĠÐºÑĢÐµÐ¿Ð¾": 4017,
      "ĠÐ¿ÑĢÐ¸Ð·Ð½": 4018,
      "ĠÐ²ÑģÑİ": 4019,
      "ĠÐ´ÑĢÐ°Ð¼Ð°ÑĤÑĥÑĢ": 4020,
      "ĠÐ¸Ð·Ð±Ð¸ÑĢÐ°": 4021,
      "ĠÑģÐºÐ¾Ð»ÑĮÐºÐ¾": 4022,
      "ĠÐ·ÐµÐ¼Ð»Ð¸": 4023,
      "ÑĤÐ½Ð°Ñı": 4024,
      "Ð¾ÐºÐ¸": 4025,
      "ĠÐ´Ð¸Ð½Ð°ÑģÑĤÐ¸": 4026,
      "ĠÐ¾ÑĤÐ½Ð¾ÑģÑı": 4027,
      "ĠÐ¿ÑĢÐ¾Ð±Ð»ÐµÐ¼Ð°": 4028,
      "Ġis": 4029,
      "ÑıÑģÑĮ": 4030,
      "ĠÐ¡ÑģÑĭÐ»ÐºÐ¸": 4031,
      "Ð¿Ð¾Ð´Ð¾Ð±": 4032,
      "ĠÑģÐ¾ÑģÑĤÐ¾Ð¸ÑĤ": 4033,
      "ĠÐ²Ð´": 4034,
      "ÑĤÐ¾Ð»Ð¸": 4035,
      "Ð±ÑĥÐ´ÑĮ": 4036,
      "ÑĤÐ¾ÑĢÐ¾Ð¼": 4037,
      "ĠÑħÑĥ": 4038,
      "ÑĢÐ°Ð¹": 4039,
      "Ð¿Ð°ÑĢ": 4040,
      "ĠÐºÐ¾ÑĤÐ¾ÑĢÑĭÐ¼": 4041,
      "ĠÑĢÐ°Ð·Ð»Ð¸ÑĩÐ½ÑĭÐµ": 4042,
      "ĠÐŁÑĢÐ°Ð²Ð¸": 4043,
      "ĠÑįÐºÑģÐ¿ÐµÑĢÐ¸": 4044,
      "ĠÐ¼ÐµÐ´Ð¸ÑĨÐ¸Ð½": 4045,
      "ĠÐ¼Ð»ÑĢÐ´": 4046,
      "ÐµÑģÑĤÐ¸": 4047,
      "ÑĮÐµÑĤ": 4048,
      "ĠÐ±Ð¾Ð³Ð°": 4049,
      "ĠÐ¸Ð½Ð¾Ð³Ð´Ð°": 4050,
      "ĠÐ´Ð°Ð²": 4051,
      "ĠIn": 4052,
      "ĠÐ¿ÑĢÐ¾Ð²ÐµÑĢ": 4053,
      "Ð·ÑĭÐ²Ð°ÐµÑĤ": 4054,
      "ĠÐĵÐµÑĢÐ¾Ð¹": 4055,
      "ĠÐ¿Ð¾Ð±Ðµ": 4056,
      "ÑĢÐ¸ÑĨÐ°": 4057,
      "ÐµÐ¼Ð¾Ð³Ð¾": 4058,
      "Ð²ÐµÐ»": 4059,
      "ÑıÐ±ÑĢÐµ": 4060,
      "ĠÐ¿ÑĢÐ¾Ð´ÑİÑģÐµÑĢ": 4061,
      "ÐºÑĥÐ´Ð°": 4062,
      "ĠÐ´ÑĢÑĥÐ·": 4063,
      "ĠÐ³Ð»Ð¾Ð±": 4064,
      "ÑĥÑİÑīÐ¸Ð¼": 4065,
      "60": 4066,
      "ĠÑĥÐ¿ÑĢÐ°Ð²Ð»Ñı": 4067,
      "ĠÐ¾Ð¿ÑĢÐµÐ´ÐµÐ»ÑĳÐ½": 4068,
      "Ð¾Ð´Ñĥ": 4069,
      "ĠÐ½Ð°ÑĩÐ°Ð»": 4070,
      "ĠÐ½Ð°ÑĥÐº": 4071,
      "ĠÐ°Ð³": 4072,
      "ĠÐ¿ÑĢÐ¾Ð¸ÑģÑħÐ¾Ð¶Ð´ÐµÐ½Ð¸Ñı": 4073,
      "ÑħÐ¾Ð´Ñĭ": 4074,
      "ÑıÑĤÐ½Ð¾": 4075,
      "ĠÐ¥Ð¾ÑĤÑı": 4076,
      "ĠÐ¾Ð±ÑīÐµÑģÑĤÐ²Ð°": 4077,
      "ĠÑģÐ¾Ð±Ñĭ": 4078,
      "ĠÐ¡ÑĢÐµÐ´Ð¸": 4079,
      "Ġ;": 4080,
      "Ġst": 4081,
      "ĠÐ¾ÑĢÐ³Ð°Ð½Ð¸Ð·": 4082,
      "ĠÐ²Ð¼ÐµÑģÑĤÐ¾": 4083,
      "ĠÐ¿ÑģÐ¸Ñħ": 4084,
      "ÑĤÐµÑĤ": 4085,
      "Ð¾ÑĢÐ¾Ð½Ðµ": 4086,
      "ÑĤÐµÐ»ÑĮÑģÑĤÐ²Ð¾": 4087,
      "ĠÐĺÑĢ": 4088,
      "ĠÐ¾Ð¿ÑĥÐ±Ð»Ð¸": 4089,
      "ÑĤÐµÐ»ÑıÐ¼": 4090,
      "ĠÑģÑĭÐ½": 4091,
      "Ð¿Ð¾ÑģÐ»ÐµÐ´": 4092,
      "ce": 4093,
      "ÐºÐ°ÑĤÐµÑĢÐ¸": 4094,
      "ĠÐ´Ð¾Ð¿Ð¾Ð»Ð½Ð¸": 4095,
      "ĠÐ³Ð»Ñĥ": 4096,
      "ate": 4097,
      "Ð¾Ð²ÑĭÐµ": 4098,
      "ĠÐ¸Ð·Ð±ÑĢÐ°Ð½": 4099,
      "ĠIS": 4100,
      "ÐµÐ¼Ð¾Ð¹": 4101,
      "Ġ60": 4102,
      "ÑĳÑĤÐ°": 4103,
      "ĠÐĳÐ¾ÑĢÐ¸": 4104,
      "ÐºÐ¾Ð»Ð¾Ð³Ð¸": 4105,
      "ĠÐºÐ¸Ð½": 4106,
      "ĠÑĢÐ°Ð¼": 4107,
      "Ð°Ð¼Ð±": 4108,
      "ÑīÐ¸Ðº": 4109,
      "ĠÑģÐ²Ð¾Ñĳ": 4110,
      "ĠÐ´Ð°Ð»Ðµ": 4111,
      "ĠÐ¿Ð¾Ð»ÐµÐ·": 4112,
      "29": 4113,
      "ĠÐ½Ð¾Ð²Ð¾Ð³Ð¾": 4114,
      "ĠÐ³Ð¾ÑĢÐ¾Ð´Ð¾Ð²": 4115,
      "ÐºÐ¾ÑĤÐ¾ÑĢÑĭÐµ": 4116,
      "ÑıÐµÑĤÑģÑı": 4117,
      "Ð±ÑĢÐ¸": 4118,
      "Ð¾ÑĤÑĢÐµÐ±": 4119,
      "ĠÐ¿Ð¾Ð¼Ð¾ÑīÐ¸": 4120,
      "ÑĥÐ¼Ñĭ": 4121,
      "ĠÑĤÑĥÑĢ": 4122,
      "Ð¶ÐµÐ½ÐµÑĢ": 4123,
      "ĠÑģÑĤÐµÐ¿ÐµÐ½Ð¸": 4124,
      "ĠK": 4125,
      "ÑĨÐµÐ¹": 4126,
      "Ġ1980": 4127,
      "ĠÑıÑĢ": 4128,
      "ÐµÐºÑģÐ¸": 4129,
      "ÑĤÐ¸ÑģÑĤÐ¸": 4130,
      "ĠÑĢÐ°Ð·ÑĢÑĥ": 4131,
      "ĠÐ¾ÑģÐ½Ð¾Ð²Ð½ÑĭÑħ": 4132,
      "ĠÑĥÑĤÐ²ÐµÑĢÐ¶Ð´Ð°": 4133,
      "Ð¾Ñı": 4134,
      "Ð¼Ð¾ÑĢ": 4135,
      "ĠÐ·Ð½Ð°ÑĩÐµÐ½Ð¸Ñı": 4136,
      "ĠÐ½Ð°Ð·ÑĭÐ²Ð°ÐµÑĤÑģÑı": 4137,
      "op": 4138,
      "ĠÐ³Ð³": 4139,
      "ÑĤÐµÐ»ÑĮÐ½ÑĥÑİ": 4140,
      "ĠÐ´ÐµÐ»Ðµ": 4141,
      "ĠÐ³Ð¾Ð»Ð¾Ð²": 4142,
      "ist": 4143,
      "Â²": 4144,
      "Ð½ÑĥÐ»": 4145,
      "ĠÐ¸Ð·Ð¼ÐµÐ½Ð¸": 4146,
      "ĠÐŃÑĤÐ°": 4147,
      "ĠÑģÐµÑĢÑĮ": 4148,
      "Ð½Ð´": 4149,
      "ĠÐ´Ð²Ð¸Ð³Ð°": 4150,
      "ĠÐ¾Ð±ÑĢÐ°ÑĤ": 4151,
      "ÑĩÐºÑĥ": 4152,
      "ĠÐ¾Ð±ÑĢÐ°Ð±Ð¾ÑĤ": 4153,
      "ĠÐ¿Ð¾Ð»Ð¸ÑĤÐ¸Ðº": 4154,
      "ĠÐļÑĥÑĢ": 4155,
      "ĠÑĢÐµÐ´": 4156,
      "ĠÑģÐºÐ°Ð·Ð°ÑĤÑĮ": 4157,
      "ĠÐ´ÑĢÐ°Ð¼Ð°ÑĤÑĥÑĢÐ³": 4158,
      "ĠÐ¸ÑģÐ¿Ð¾Ð»ÑĮÐ·ÑĥÑİÑĤÑģÑı": 4159,
      "ÑīÐµÐ½Ð¸Ð¸": 4160,
      "ĠÑįÑĤÐ¾Ð¼Ñĥ": 4161,
      "ĠÐľÐ¸Ð½": 4162,
      "Ð¾Ð²ÑĭÑħ": 4163,
      "Ð³Ð°Ð»": 4164,
      "Ð´Ð¸ÑĤ": 4165,
      "ĠÐ¾Ð¿Ð°Ñģ": 4166,
      "ĠÐºÐ¾Ð¼Ð¿Ð°Ð½Ð¸Ñı": 4167,
      "Ð´ÐµÑĢÐ¶Ð¸": 4168,
      "80": 4169,
      "ÑĩÐ¸ÑģÐ»Ð¸": 4170,
      "ĠÑģÐµÑĢÐµÐ´Ð¸": 4171,
      "ĠÐļÐ°Ð½Ð°": 4172,
      "ĠÐ¿Ð¾Ð¿ÑĭÑĤ": 4173,
      "ÑĢÐ¾Ð²Ð¸": 4174,
      "Ð¾Ð²Ð°Ð»Ð°": 4175,
      "ÑĤÐ¸Ð²Ð½ÑĭÐµ": 4176,
      "Ġfor": 4177,
      "Ð»Ð°ÑĤ": 4178,
      "Ġ1918": 4179,
      "ĠÐ¿Ð¾Ð²Ñĭ": 4180,
      "ĠÐ±Ð¾Ð»ÑĮÑĪÐ¸Ð½ÑģÑĤÐ²Ð¾": 4181,
      "ĠÐ²Ð¾ÐºÑĢÑĥÐ³": 4182,
      "Ð±Ð°Ð»": 4183,
      "Ð¾ÐºÐ¾Ð¹": 4184,
      "Ð·Ð°Ð¹": 4185,
      "Ð´ÑĳÑĤ": 4186,
      "ĠÐ¿ÑĢÐ¾Ð³ÑĢÐ°Ð¼Ð¼Ñĭ": 4187,
      "ÐµÐ¹Ð½": 4188,
      "ĠÐ¾ÑĤÐºÐ°Ð·Ð°": 4189,
      "ÑĨÐ¸ÑıÑħ": 4190,
      "ĠÐºÐ°ÐºÐ¸Ðµ": 4191,
      "ÑĢÐ°Ð»ÑĮÐ½Ð¾Ð³Ð¾": 4192,
      "ĠÐ¾Ð³ÑĢÐ¾Ð¼": 4193,
      "Ð»ÑĮÐ½ÑĭÐ¼": 4194,
      "ĠÐ²Ð¾Ð·Ð¼Ð¾Ð¶Ð½Ð¾": 4195,
      "``": 4196,
      "Ð¾Ð·Ñĭ": 4197,
      "ĠÑģÐ¸Ð»ÑĮÐ½Ð¾": 4198,
      "ĠÑĢÐµÐ³ÑĥÐ»ÑıÑĢ": 4199,
      "ĠÐ¼ÑĥÑģ": 4200,
      "Ð´Ð°ÑĤ": 4201,
      "ÑĥÑİÑīÐ¸Ð¹": 4202,
      "ĠÐĵÐµÐ¾ÑĢ": 4203,
      "ĠÐ¼Ð¸Ðº": 4204,
      "ĠÐ¼Ð¸ÑĦ": 4205,
      "Ð´ÐµÑĢÐ»Ð°Ð½Ð´": 4206,
      "ĠÐ²ÑĭÐ±Ð¾": 4207,
      "ÐłÐ¾Ð´Ð¸Ð²ÑĪÐ¸ÐµÑģÑı": 4208,
      "ĠÐ³ÑĢÑĥÐ¿Ð¿Ð°": 4209,
      "ĠÐķÐ²ÑĢÐ¾Ð¿Ðµ": 4210,
      "ĠÑģÐ¾Ð»Ð½Ðµ": 4211,
      "ĠÐºÐ¾Ð½ÑĦÐ»Ð¸": 4212,
      "26": 4213,
      "ÑģÐ½Ð¾": 4214,
      "ĠÐºÑĢÐ¾Ð¼Ðµ": 4215,
      "ÑĢÑĭÐ¹": 4216,
      "ÑĤÐ¸Ð²Ð½ÑĭÑħ": 4217,
      "ĠÐķÐºÐ°ÑĤÐµÑĢÐ¸": 4218,
      "Ð£Ð¼ÐµÑĢÑĪÐ¸Ðµ": 4219,
      "Ġ2021": 4220,
      "ĠÐĿÐ¾Ð±ÐµÐ»ÐµÐ²ÑģÐºÐ¾Ð¹": 4221,
      "ĠÑħÐ²Ð°": 4222,
      "Ġ1970": 4223,
      "ĠÐ¿Ð»Ð¾ÑīÐ°Ð´Ð¸": 4224,
      "Ð¾Ñĥ": 4225,
      "Ð´ÐµÐ¼": 4226,
      "Ð¿ÑĤÐ¸": 4227,
      "ĠÐºÐ¾Ð»Ðµ": 4228,
      "ĠÑĥÑĩÐµÐ±": 4229,
      "ĠÐķÐ³Ð¸Ð¿": 4230,
      "ÑģÑĤÐ¾Ð»": 4231,
      "Ð»Ð°Ð¼": 4232,
      "ÑĨÐ¸ÑģÑĤ": 4233,
      "ĠÐ½Ð¸ÐºÑĤÐ¾": 4234,
      "Ġx": 4235,
      "ĠÐ´ÑĥÑħÐ¾Ð²": 4236,
      "ot": 4237,
      "ĠÐ¿ÑĢÐµÐ·Ð¸Ð´ÐµÐ½ÑĤÐ¾Ð¼": 4238,
      "ĠÐ½Ð°Ð²ÐµÑĢ": 4239,
      "ĠÐ¼Ð°ÑģÑĤÐµÑĢ": 4240,
      "ÑĤÐ°ÑģÑĤÑĢÐ¾ÑĦÐ°": 4241,
      "ÑĢÐ¾Ð¶": 4242,
      "ĠÐºÐ¾Ð¼Ð¼ÐµÐ½ÑĤÐ°": 4243,
      "ĠÐºÐ¾ÑģÐ¼Ð¾Ð½Ð°Ð²": 4244,
      "ĠÑģÐ¸Ð»Ñĥ": 4245,
      "ĠÐ½Ð¾ÑĢÐ¼Ð°Ð»ÑĮ": 4246,
      "Ð¾ÑĦ": 4247,
      "ĠÑĦÑĢÐ¾Ð½": 4248,
      "Ġ2003": 4249,
      "ĠÐ»Ð¸ÑĤÐµÑĢÐ°ÑĤÑĥÑĢ": 4250,
      "ÑĢÑĥÐ·": 4251,
      "Ð½Ð¾Ð²ÑĢÐµÐ¼ÐµÐ½": 4252,
      "ĠÐ¿ÑĢÐµÐ´Ð»Ð¾Ð¶ÐµÐ½Ð¸Ñı": 4253,
      "ĠÑħÑĥÐ´Ð¾Ð¶Ðµ": 4254,
      "Ð½Ð°ÑĢ": 4255,
      "ĠÑĢÐ°Ð·Ð½Ð¾": 4256,
      "ÑĤÐ¸Ð²Ð¸": 4257,
      "ĠÐ²Ð½Ð¸Ð¼Ð°Ð½Ð¸Ðµ": 4258,
      "Ð²Ð°Ð»ÑģÑı": 4259,
      "ÑģÐ°Ð¼Ð¸": 4260,
      "ĠÐ¼Ð¾Ð³Ð»Ð¸": 4261,
      "ĠÐ¾ÑĩÐµÑĢÐµÐ´ÑĮ": 4262,
      "ÑĤÐ¾Ð½Ð¸": 4263,
      "Ð»ÑĮÐ½Ð¸Ðº": 4264,
      "ĠÑĢÐ°Ð·Ð½ÑĭÐµ": 4265,
      "ĠÑģÐ»ÐµÐ´ÑĥÐµÑĤ": 4266,
      "ÑħÐ¾Ð¼": 4267,
      "ĠÐ²Ð¸Ð½": 4268,
      "Ð´Ð°Ð¼": 4269,
      "ĠÑĦÐ¸Ð»Ð¾ÑģÐ¾ÑĦÐ¸Ð¸": 4270,
      "Ð¾Ð´Ñĭ": 4271,
      "ĠÐ½ÐµÐ¸Ð·": 4272,
      "ĠÐ¾Ð¿ÑĭÑĤ": 4273,
      "ĠÑģÑĤÑĢÐ°ÑĤÐµ": 4274,
      "ÑħÐ¾ÑĤ": 4275,
      "ĠÑģÑĤÑĥÐ´": 4276,
      "ÐºÐ°Ð½ÑĤ": 4277,
      "ĠÐ¾ÑģÑĥÑīÐµÑģÑĤÐ²Ð»Ñı": 4278,
      "ĠÑģÐ¿ÐµÑĨÐ¸Ð°Ð»Ð¸": 4279,
      "ĠÐ½Ñĭ": 4280,
      "Ð½Ð¸Ð»": 4281,
      "ĠÐ±Ð»Ð°Ð³": 4282,
      "Ð½ÑİÑİ": 4283,
      "Ð²Ð°Ð»Ð¸ÑģÑĮ": 4284,
      "ĠÐ¾ÑĤÑģ": 4285,
      "Ġ%.": 4286,
      "Ð¿Ð»Ð¾Ð¼Ð°": 4287,
      "ĠÐ¼Ð¸Ð½ÑĥÑĤ": 4288,
      "ĠÐ¿Ð¾ÑģÐ²Ñı": 4289,
      "ĠÐ¿ÑĢÐ°Ð²Ð¸Ð»Ð¾": 4290,
      "Ð»ÑĮÐ·Ñı": 4291,
      "ĠÐĴÐĴ": 4292,
      "ĠÐ´Ð¾Ð±Ð°": 4293,
      "Ð°ÐºÑĤ": 4294,
      "195": 4295,
      "Ġ1960": 4296,
      "Ð¿ÑĢÐ°Ð²": 4297,
      "Ð´Ð°Ð¼Ð¸": 4298,
      "ĠÑĢÐµÐ±": 4299,
      "ĠÐ´Ð¾ÑģÑĤÐ°ÑĤÐ¾ÑĩÐ½Ð¾": 4300,
      "ĠÐļÐ°Ð·Ð°Ñħ": 4301,
      "Ġ1941": 4302,
      "ĠÐ¶Ð¸Ð²Ð¾Ð¿Ð¸": 4303,
      "ay": 4304,
      "Ð¸ÑģÐ¿": 4305,
      "Ð·Ð¸Ñģ": 4306,
      "ĠÐ·Ð¸Ð¼": 4307,
      "70": 4308,
      "ĠÐĺÑģÐ¿Ð¾Ð»ÑĮÐ·": 4309,
      "ÑĢÐ¸ÑģÑĤÐ¾": 4310,
      "ĠÑħÐ¾ÑĢÐ¾": 4311,
      "ĠÑĥÐ²ÐµÐ»Ð¸Ñĩ": 4312,
      "Ð¸Ð·Ð¼": 4313,
      "ĠÐĹÐ°Ðº": 4314,
      "ÑģÐ¸Ð²": 4315,
      "ĠÐ¿ÑĢÐµÐ²ÑĢÐ°": 4316,
      "ĠÐ¿ÑĢÐ¸ÑģÑĥÑĤ": 4317,
      "ĠÐ¾ÑĤÐ½Ð¾ÑģÐ¸ÑĤÑģÑı": 4318,
      "ĠÐ¿ÑıÑĤÐ¸": 4319,
      "ĠÐ³Ð¾Ñģ": 4320,
      "os": 4321,
      "ĠÐ½Ð¾Ñģ": 4322,
      "ĠÐ¿ÑĢÐ¾Ð¶Ð¸": 4323,
      "Ġ1945": 4324,
      "ĠÐļÐ¸ÑĤÐ°Ð¹": 4325,
      "ĠÐ¿ÑĢÐ¸Ð²Ð¾Ð´Ð¸ÑĤ": 4326,
      "Ð°Ð½Ð´Ð¸": 4327,
      "ĠÐ¼Ð½ÐµÐ½Ð¸Ñİ": 4328,
      "Ð½Ð°ÑĩÐ°Ð»Ð°": 4329,
      "ÐľÐ°": 4330,
      "ÑħÐ°Ð½": 4331,
      "Ð³Ð¾Ð½": 4332,
      "ĠÑģÐ¸ÑģÑĤÐµÐ¼Ñĥ": 4333,
      "ÑĤÐ¸ÑĩÐµÑģÐºÐ¸Ñħ": 4334,
      "ĠÐ¿Ð¾Ð±ÐµÑĢÐµÐ¶": 4335,
      "ĠÐºÐ²Ð°": 4336,
      "ĠÑģÐ¾Ð²ÑģÐµÐ¼": 4337,
      "ĠÐ¸ÑģÐºÑĥÑģÑģÑĤÐ²Ð°": 4338,
      "ĠÑģÐ¾ÑĤÑĢÑĥÐ´Ð½Ð¸": 4339,
      "ĠÐ¿ÑĢÐ¾ÑĦÐµÑģÑģÐ¸": 4340,
      "ÑĤÐ¸Ð²Ð°": 4341,
      "ĠÑģÐ¾Ð³Ð»Ð°ÑģÐ½Ð¾": 4342,
      "ĠÐ´ÑĥÐ¼Ð°Ñİ": 4343,
      "Ð·Ð¾Ð½": 4344,
      "ĠÐ¼ÑĥÑĩÐµÐ½Ð¸": 4345,
      "ĠÐ¿ÑĢÐ¾ÑĤÐ¸": 4346,
      "ĠÐ²ÐµÐ»Ð¸ÑĩÐ¸": 4347,
      "ÑĤÐ¸Ð²Ð½Ð¾": 4348,
      "ĠÐ¸Ð¼Ð¿ÐµÑĢÐ°ÑĤÐ¾ÑĢÐ°": 4349,
      "ĠÐ¡ÐµÑĢÐ³ÐµÐ¹": 4350,
      "ĠÐ½Ð¸Ð¼Ð¸": 4351,
      "ĠÐ¿ÐµÑĢÐ²ÑĭÐµ": 4352,
      "ĠÐ³ÐµÑĢÑĨ": 4353,
      "id": 4354,
      "ĠÐ±ÐµÐ´": 4355,
      "ĠÑĢÐ°Ð±Ð¾ÑĤÐµ": 4356,
      "BN": 4357,
      "ĠÐ¼Ð¾Ð·": 4358,
      "ĠÑĤÐ¾Ð²Ð°": 4359,
      "ĠÑĢÐ°ÑģÐº": 4360,
      "ĠÐ¦Ðļ": 4361,
      "Ð·Ð°ÑĤÑĮ": 4362,
      "ÐĺÐ·": 4363,
      "Ð²Ð¾Ð»Ð¸": 4364,
      "ĠÐ¿ÑıÑĤÑĮ": 4365,
      "ĠÐ½ÐµÐ»ÑĮÐ·Ñı": 4366,
      "ĠÐ·Ð°Ð¼Ðµ": 4367,
      "ÑĪÐµÐ´": 4368,
      "ĠÑĤÐµÐ»ÐµÐ²Ð¸Ð´": 4369,
      "ĠÑĢÐµÐ²Ð¾Ð»ÑİÑĨÐ¸Ð¸": 4370,
      "ÑĤÐ°ÑĨÐ¸Ð¸": 4371,
      "Ð´Ð°Ð»ÑĮ": 4372,
      "ers": 4373,
      "Ð»ÐµÐ½Ð½Ð¾Ð¹": 4374,
      "Ð´Ð½Ð¾": 4375,
      "Ð¿Ð»Ð¸": 4376,
      "Ð´Ð°Ðº": 4377,
      "ĠÐ¯Ð¿Ð¾Ð½Ð¸Ð¸": 4378,
      "ĠÐ¼Ð°ÐºÑģÐ¸": 4379,
      "ĠÐ½Ð°ÑĥÐºÐ¸": 4380,
      "Ð¾Ð»Ñĭ": 4381,
      "ĠÐ´Ð¾ÑģÑĤÐ¸Ð³": 4382,
      "Ð³Ð¾Ð¼": 4383,
      "Ġ1917": 4384,
      "ÑİÑīÐµÐ³Ð¾": 4385,
      "ĠÐ¿ÑĢÐµÐ¿Ð¾Ð´Ð¾Ð±": 4386,
      "ĠÐ¶Ð¸ÑĤÐµÐ»ÐµÐ¹": 4387,
      "ĠÐ¼ÑĭÑģÐ»Ð¸": 4388,
      "ÑĥÑĩÐ¸": 4389,
      "ĠÐ²ÑĭÐ´Ð°": 4390,
      "Ġ2002": 4391,
      "ĠÐ±ÑĢÐ¸ÑĤÐ°Ð½ÑģÐºÐ¸Ð¹": 4392,
      "Ġy": 4393,
      "Ð¾Ð³Ñĥ": 4394,
      "ĠÐ¿ÐµÑĢÐ²ÑĭÑħ": 4395,
      "ĠÑģÐ°Ð¼ÑĭÐ¹": 4396,
      "ĠÑģÐ¾ÑģÑĤÐ°Ð²Ðµ": 4397,
      "ÑģÐ¸ÑĤÑĮ": 4398,
      "Ġg": 4399,
      "ÑĥÐµÑĤÑģÑı": 4400,
      "ÑĳÑĤÑĢ": 4401,
      "ĠÐ³ÑĢÐ°ÑĦÐ¸": 4402,
      "ĠÐ¿Ð¾Ð»Ð¸ÑĤÐ¸ÑĩÐµÑģÐºÐ¸Ð¹": 4403,
      "ĠÐļÐŁ": 4404,
      "ĠÐ¿ÑĢÐµÐ¿": 4405,
      "ĠÑģÐ²ÐµÑĢ": 4406,
      "ĠÐ´Ð²ÑĥÐ¼Ñı": 4407,
      "ĠÑģÐ¾ÐµÐ´Ð¸Ð½": 4408,
      "ĠÑĩÐ¸ÑģÐ»ÐµÐ½": 4409,
      "ĠÐºÑĥÐ´Ð°": 4410,
      "Ð¾Ð»Ñİ": 4411,
      "ĠÑĤÐ°Ð¹": 4412,
      "ĠÐ²Ð°Ð¶Ð½Ð¾": 4413,
      "ĠÐ¸Ð³ÑĢÑĭ": 4414,
      "ĠÑĩÐµÐ¼Ð¿Ð¸Ð¾Ð½ÐºÐ°": 4415,
      "ÐºÑĥÐ»ÑĮÐ¿": 4416,
      "ĠÑĢÑĥÐ±Ð»ÐµÐ¹": 4417,
      "ÑģÑĤÐ°ÑĤÐ¸": 4418,
      "ĠÐ½Ð¾ÑĢÐ¼Ð°": 4419,
      "ĠÑĥÐ½Ð¸Ð²ÐµÑĢÑģÐ¸ÑĤÐµÑĤÐ°": 4420,
      "ĠÑĥÐºÐ°Ð·": 4421,
      "ĠÑģÐ°Ð¼Ð¾Ð¼": 4422,
      "ĠÐ¯Ð½": 4423,
      "ĠÑģÑĩÐ¸ÑĤÐ°ÐµÑĤÑģÑı": 4424,
      "ĠÐ¾ÑģÐ½Ð¾Ð²Ð°ÑĤÐµÐ»ÑĮ": 4425,
      "ĠÐ»ÑİÐ´": 4426,
      "ĠÐ»Ð¸Ð½Ð¸Ð¸": 4427,
      "ĠÐĺÑĤÐ°Ð»Ð¸Ð¸": 4428,
      "ĠÐ¶ÑĥÑĢÐ½Ð°Ð»Ð¸ÑģÑĤ": 4429,
      "ĠÐ¿ÑĢÐ¸Ð·": 4430,
      "ĠÑģÐµÐ³Ð¾Ð´Ð½Ñı": 4431,
      "ĠÐ½Ð°ÑģÐµÐ»ÐµÐ½Ð¸Ðµ": 4432,
      "ÑĤÐµÑħ": 4433,
      "ÑĩÐ°ÑĤÑĮ": 4434,
      "ĠÑģÐ¾Ð²ÐµÑĤÑģÐºÐ°Ñı": 4435,
      "Ð±Ð°Ð¹Ð´Ð¶": 4436,
      "ÑĤÑĭÐ¼": 4437,
      "Ð½ÑĨÐ°": 4438,
      "ÑįÐ»ÑĮ": 4439,
      "ĠÐ´Ð¸Ð¿Ð»Ð¾Ð¼Ð°": 4440,
      "ĠÐ¿Ð¾Ð»ÑĥÑĩÐ¸ÑĤÑĮ": 4441,
      "Ð´Ð²Ð¸": 4442,
      "ÐµÐ»ÐµÐ½": 4443,
      "ĠÐ¿Ð»Ð°Ð½Ð¸": 4444,
      "Ð»ÐµÐ³": 4445,
      "ĠÑģÐºÐ°Ð·Ð°Ð»": 4446,
      "ĠÑĥÑģÐ¿ÐµÑĪ": 4447,
      "ĠÐ½Ð°Ð±Ð»ÑİÐ´Ð°": 4448,
      "ÑĩÐµÐ½Ð¸Ð¹": 4449,
      "ÑĢÐµÐº": 4450,
      "ĠÐŁÐ¾Ð¼": 4451,
      "ÑĨÐµÐ¿": 4452,
      "Ġ2001": 4453,
      "ĠÐ¾ÑĤÐ¿ÑĢÐ°Ð²Ð¸": 4454,
      "Ð¾ÑĢÑı": 4455,
      "Ð¾Ð±Ðµ": 4456,
      "ĠÐĵÐ¾Ð»": 4457,
      "ĠÐ´ÐµÐ¼Ð¾ÐºÑĢÐ°": 4458,
      "ĠÐ²Ð°Ð»": 4459,
      "ĠÐ¿ÑĢÐ¾Ð¸Ð·Ð²Ð¾Ð´ÑģÑĤÐ²Ð°": 4460,
      "ĠÐ¤Ðµ": 4461,
      "ÑģÑĤÐ²ÑĥÑİÑĤ": 4462,
      "ĠÐ²Ð¾ÑģÑģÑĤÐ°Ð½Ð¾Ð²": 4463,
      "ĠÐĵÐ¸": 4464,
      "Ð·ÐµÑĢÐ±Ð°Ð¹Ð´Ð¶": 4465,
      "ÑģÐ¿ÐµÐº": 4466,
      "ĠÐ±Ð»Ð°Ð³Ð¾Ð´Ð°ÑĢÑı": 4467,
      "ÑģÑĤÐ¾ÐºÐµ": 4468,
      "ĠÑģÑħ": 4469,
      "ÑĢÐ¸ÑĦ": 4470,
      "Â»),": 4471,
      "Ð½ÐµÑĪ": 4472,
      "ĠÐŃÑĢ": 4473,
      "ĠÐ°ÑĢÐ¼": 4474,
      "ĠÑĥÑĩÑĳÐ½ÑĭÐ¹": 4475,
      "Ð³Ð¾Ðµ": 4476,
      "ÐºÐ¾Ð¼ÐµÐ½": 4477,
      "ĠÑģÑĢÐµÐ´ÑģÑĤÐ²Ð°": 4478,
      "Ġ```": 4479,
      "ĠISBN": 4480,
      ".).": 4481,
      "ĠÐ·Ð½Ð°ÑĩÐ¸ÑĤÐµÐ»ÑĮÐ½Ð¾": 4482,
      "ĠÐ¿ÑĢÐ¾ÑĤÑıÐ¶": 4483,
      "ĠÐłÐ¾": 4484,
      "ĠÐ´ÐµÑıÑĤÐµÐ»ÑĮÐ½Ð¾ÑģÑĤÑĮ": 4485,
      "ĠÐĺÐ·ÑĢÐ°": 4486,
      "ĠÐ¿ÑĢÐµÑģ": 4487,
      "ĠÐºÐ¾Ð»Ð»ÐµÐº": 4488,
      "ĠÐ¾Ð±ÐµÑģÐ¿ÐµÑĩÐµÐ½Ð¸Ñı": 4489,
      "ĠÐ¿ÑĢÐ°ÐºÑĤÐ¸ÑĩÐµÑģÐºÐ¸": 4490,
      "ĠÐ±Ð¸Ð±Ð»Ð¸Ð¾ÑĤÐµ": 4491,
      "Ð´ÑĢÐ¾": 4492,
      "ĠÐ±Ð»Ð¸": 4493,
      "ĠÐ¾ÑĤÐ´Ðµ": 4494,
      "Ġ1992": 4495,
      "ĠÐ¾ÑĤÐºÑĢÑĭÑĤ": 4496,
      "Ð»Ð°Ð²Ð¸": 4497,
      "ĠÑĥÐºÐ°Ð·ÑĭÐ²Ð°": 4498,
      "ĠÐ¿ÐµÑģÐµÐ½": 4499,
      "ĠÐĲÐ½Ð³Ð»Ð¸Ð¸": 4500,
      "ĠÐ¿ÑĢÐ¸ÑħÐ¾Ð´Ð¸": 4501,
      "ĠÐŀÑĤÐµ": 4502,
      "ĠÑģÐ¾Ð²Ð¼ÐµÑģÑĤ": 4503,
      "ĠXXI": 4504,
      "ĠÐ½ÐµÐ·Ð°Ð²Ð¸ÑģÐ¸Ð¼Ð¾ÑģÑĤÑĮ": 4505,
      "ÐºÐ»Ð¸": 4506,
      "ĠÐ²Ð¸Ð´ÐµÐ»": 4507,
      "ĠÐĴÑĤÐ¾ÑĢÐ¾Ð¹": 4508,
      "ÑģÑģÐ¾ÑĢ": 4509,
      "ĠÐ´Ð¾Ð»Ð¶Ð½Ð¾": 4510,
      "ĠÐ²ÑĭÐ±Ð¾ÑĢÑĭ": 4511,
      "ĠÐ°ÑĢÐ¼Ð¸Ñı": 4512,
      "Ð¿Ð¸ÑĤÑĮ": 4513,
      "ĠÐ»ÑĮ": 4514,
      "Ġ1920": 4515,
      "ÑĤÐ¸Ð²Ð½ÑĭÐ¹": 4516,
      "Ġ178": 4517,
      "Ð½Ð¾Ð³Ð¸": 4518,
      "ĠÐ·Ð½Ð°ÐºÐ¾Ð¼": 4519,
      "ÐµÐ¹Ð¼": 4520,
      "ĠÐ½Ð¸ÐºÐ°": 4521,
      "ĠÐºÐ»ÑİÑĩÐµ": 4522,
      "ĠÐ¢ÑĢÐ¾": 4523,
      "ĠÑĩÐµÑģÑĤÑĮ": 4524,
      "ĠÑĩÐµÑĤÑĭÑĢÐµ": 4525,
      "ÑĤÐ¾Ð±Ñĭ": 4526,
      "ĠÐ´Ð¾Ð»Ð¶Ð½Ð°": 4527,
      "ĠÑģÐ¾Ð±ÑģÑĤÐ²ÐµÐ½": 4528,
      "ĠÐ¼Ð¾Ð½Ð°ÑģÑĤÑĭ": 4529,
      "ĠÑģÑĦÐ¾ÑĢÐ¼Ð¸": 4530,
      "ĠÐŁÑĳÑĤÑĢ": 4531,
      "ĠÐŃÐ¹": 4532,
      "ĠÐ´ÑĢÑĥÐ³Ð¸Ð¼": 4533,
      "ĠÐ·Ð°ÑĩÐµÐ¼": 4534,
      "ÐµÐ½Ð½Ð¾Ð¹": 4535,
      "ÑģÐµÑĨ": 4536,
      "Ð»Ð°Ð½Ð´Ð¸Ð¸": 4537,
      "ÑģÐ¾Ð»ÑİÑĤ": 4538,
      "ĠÑģÐ¾Ð±ÑĭÑĤÐ¸Ñı": 4539,
      "ÑıÑĤÐ¾Ð³Ð¾": 4540,
      "Ġ1999": 4541,
      "ĠÐ²Ð½ÑĥÑĤÑĢÐ¸": 4542,
      "ĠÐ·Ð°Ð¼ÐµÑĤ": 4543,
      "ĠÐ¾Ð±Ð»Ð°ÑģÑĤ": 4544,
      "ĠÐ¾Ð±ÑĥÑĩÐµÐ½Ð¸Ðµ": 4545,
      "ÑģÑĤÑĢÐ¾Ð¼": 4546,
      "Ð»Ð¾ÑĤÐ°": 4547,
      "ĠÑģÐ°Ð¼ÑĭÐ¼": 4548,
      "Ð°Ð½Ð¸ÐµÐ¹": 4549,
      "ĠÐĽÐ¾Ð½Ð´": 4550,
      "Ð°Ð½Ñĥ": 4551,
      "ĠÐļÐ»Ð¸": 4552,
      "Ð¾Ð²Ð°Ð»Ð¾": 4553,
      "ĠÐ¾ÑĢÑĥÐ¶Ð¸": 4554,
      "Ð½Ð¾Ð¿": 4555,
      "Ð¿ÑĢ": 4556,
      "ĠÐ½ÐµÐ±Ð¾Ð»ÑĮÑĪ": 4557,
      "Ð»ÐµÑĤÐ¸": 4558,
      "ÐºÐ¸Ð¿Ð°": 4559,
      "ĠÑĨÐµÐ»Ð¸": 4560,
      "ÑĩÐµÐ½Ñĭ": 4561,
      "ĠÐºÐ½ÑıÐ·ÑĮ": 4562,
      "ĠÐ¿Ð¾ÐºÑĥÐ¿Ð°": 4563,
      "Ð¾Ð»ÑĮÐ½Ð¾": 4564,
      "ĠÐ²Ð·Ð³Ð»Ñı": 4565,
      "ĠÐ´Ð°Ð»ÑĮÐ½ÐµÐ¹": 4566,
      "ĠÐļÑĥÐ±": 4567,
      "Ð½Ð°Ð¿ÑĢÐ¸Ð¼ÐµÑĢ": 4568,
      "ĠÐ²ÐµÑīÐµ": 4569,
      "ĠÐ¿Ð¾ÑģÑĤÐ¾ÑıÐ½Ð½Ð¾": 4570,
      "ĠÐ°Ð½Ð°Ð»": 4571,
      "ĠÐŁÐµÑĤÑĢÐ°": 4572,
      "Ð¼Ð¼": 4573,
      "ĠÐ½ÐµÐ¾Ð±ÑħÐ¾Ð´Ð¸Ð¼": 4574,
      "ÐĿÐ°Ð·": 4575,
      "ĠÐ¾Ð±ÑĢÐ°Ð·Ð¾Ð²Ð°Ð½Ð¸Ðµ": 4576,
      "ÑģÐ¼": 4577,
      "Ð´Ð½ÐµÐ²": 4578,
      "190": 4579,
      "ÑĨÐ¸Ð¾Ð½Ð½Ð¾Ð¹": 4580,
      "ĠÐĿÐµÐºÐ¾ÑĤÐ¾ÑĢÑĭÐµ": 4581,
      "ĠÑĥÐ±Ð¸Ð¹": 4582,
      "ÑĤÑĮÑı": 4583,
      "ĠÐĺÐ»Ð¸": 4584,
      "ĠÐ¿ÐµÑĢÐµÐ¼ÐµÐ½": 4585,
      "ĠÐĴÐ°Ð»": 4586,
      "ĠÐ¾ÑĤÐ²Ðµ": 4587,
      "ÑģÐ°Ð¹": 4588,
      "ĠÐ¿ÐµÑĢÐ²Ð¾Ðµ": 4589,
      "ĠÐ½Ð¸Ð¶Ðµ": 4590,
      "ÑģÑĤÑı": 4591,
      "ĠÐ¿Ð¾ÑģÑĤÐ°Ð²": 4592,
      "ĠÑģÐ¾Ð±Ð¸ÑĢÐ°": 4593,
      "Ġ70": 4594,
      "ĠÑĨÐµÐ»ÑĮÑİ": 4595,
      "ĠÐ·Ð°Ð²Ð¸ÑģÐ¸": 4596,
      "ÑģÑĤÐ¸ÑĤÑĮ": 4597,
      "ĠÐ¾Ð±ÑĬÑıÐ²": 4598,
      "ĠÐĲÐ»ÐµÐºÑģÐ°Ð½Ð´ÑĢÐ°": 4599,
      "ÐµÑģ": 4600,
      "ĠÐ¿ÑĥÑĤ": 4601,
      "Ð¾Ð¶Ð´Ð°": 4602,
      "ĠÐ²ÐµÑĢÐ½Ñĥ": 4603,
      "ĠÐ¾ÑĤÐ½Ð¾ÑģÐ¸ÑĤÐµÐ»ÑĮÐ½Ð¾": 4604,
      "ab": 4605,
      "ÑĩÐ½Ð¾ÑģÑĤÑĮ": 4606,
      "Ð¾ÑĢÑĭ": 4607,
      "ĠÐ¿Ð¾Ð´ÑĤÐ²ÐµÑĢ": 4608,
      "Ġ1994": 4609,
      "ĠÐ¶ÐµÐ»ÐµÐ·Ð½Ð¾Ð´Ð¾ÑĢÐ¾Ð¶": 4610,
      "ĠÐ¼Ð°ÑĢÑĪÑĢÑĥ": 4611,
      "ÑģÑĤÐµÐ¿": 4612,
      "ĠÑģÑĢÐµ": 4613,
      "ĠÑĢÑĭÐ½": 4614,
      "ĠÐĺÑģÐ¿Ð°Ð½Ð¸Ð¸": 4615,
      "ĠÐ¿Ð¾Ð½ÑıÐ»": 4616,
      "ĠÐ³Ð¾ÑģÑĥÐ´Ð°ÑĢÑģÑĤÐ²": 4617,
      "ĠÐ²ÐºÑĥÑģ": 4618,
      "ĠÑģÐ»Ð¸ÑĪÐºÐ¾Ð¼": 4619,
      "ĠÐ¾ÐºÐ°Ð·ÑĭÐ²Ð°": 4620,
      "ĠÐ»Ð¸Ð½": 4621,
      "ĠÐľÑĭ": 4622,
      "ĠÐ¢ÐµÑĢ": 4623,
      "ĠÐ¿Ð¾ÑģÑĤÐ°Ð½Ð¾Ð²": 4624,
      "ĠÐ¤Ð°": 4625,
      "Ð½Ð¾Ð²ÑĢÐµÐ¼ÐµÐ½Ð½Ð¾": 4626,
      "ue": 4627,
      "ÑĪÐ°Ð»": 4628,
      "ĠÑĢÐ°ÑģÑģÑĤÐ¾Ñı": 4629,
      "ĠÐ´Ð¾ÑĢÐ¾Ð³Ð¸": 4630,
      "ĠÐºÐ¾Ð´": 4631,
      "Ð»Ð¸Ð²Ð°": 4632,
      "Ð¶Ð´ÑĳÐ½": 4633,
      "ĠÐ¿ÐµÑĢÐ²ÑĥÑİ": 4634,
      "ĠÑģÐ»ÐµÐ´ÑĥÑİÑīÐ¸Ðµ": 4635,
      "ÐµÑĦ": 4636,
      "Ð²Ð¾Ð²": 4637,
      "ĠÐ¼ÐµÑģÑıÑĨ": 4638,
      "ĠÑģÐºÑĥÐ»ÑĮÐ¿": 4639,
      "ÑģÑģÐ¾": 4640,
      "ĠÐ¿ÑĢÐ¾Ð¼ÑĭÑĪÐ»ÐµÐ½Ð½Ð¾ÑģÑĤÐ¸": 4641,
      "ĠÐ¿ÑĢÐ¾Ð¿": 4642,
      "ĠÐ§ÑĤÐ¾": 4643,
      "Ġ80": 4644,
      "ĠÐ±Ð°ÑĢ": 4645,
      "ĠÐ¨Ð²Ðµ": 4646,
      "ĠÐ³ÑĢÐ°ÑĦ": 4647,
      "ĠÑĥÐ½Ð¸ÑĩÑĤ": 4648,
      "ĠÐ·Ð°ÐºÐ»ÑİÑĩÐ°": 4649,
      "ĠÐ²ÑĭÐ²Ð¾Ð´": 4650,
      "Ð²Ð°Ð»ÑĮ": 4651,
      "ĠÐĲÐ»ÐµÐº": 4652,
      "Ġ90": 4653,
      "Ġ1989": 4654,
      "Ð½Ð¸ÑģÑĤÐ¸": 4655,
      "Ð¾Ð¿Ð¾Ð»ÑĮ": 4656,
      "Ð´ÐµÐ±": 4657,
      "ĠÐ¿ÑĢÐ°Ð²Ð¾ÑģÐ»Ð°Ð²": 4658,
      "ĠÐ°ÑįÑĢÐ¾Ð¿": 4659,
      "Ġar": 4660,
      "Ð°Ð°": 4661,
      "ÑĤÐ¸ÐºÐµ": 4662,
      "ĠÐºÐ¾Ð½ÑĨÐ°": 4663,
      "ÑĤÐ¸Ð²Ð½Ð¾Ð¹": 4664,
      "ĠÐ´ÐµÐ½ÐµÐ³": 4665,
      "Ð»Ð¸Ð²Ð¾": 4666,
      "ĠÑĤÐµÐ¾ÑĢÐµ": 4667,
      "Ð¿Ð¾ÑģÐ»ÐµÐ´ÑģÑĤÐ²Ð¸Ð¸": 4668,
      "ÑĥÐ¹ÑĤÐµ": 4669,
      "Ð²Ð°Ð½Ð°": 4670,
      "ĠÐ½Ð¾Ð²Ð¾Ð¹": 4671,
      "ĠÐŀÐ±ÑĬ": 4672,
      "ĠÑĢÐ°Ð¹Ð¾Ð½": 4673,
      "ĠÑĢÑıÐ´Ð¾Ð¼": 4674,
      "ĠÑģÐ¸ÑģÑĤÐµÐ¼Ðµ": 4675,
      "ĠÐºÐ°Ð¶Ð´Ð¾Ð³Ð¾": 4676,
      "ĠÐ¾ÑĨÐµÐ½Ð¸": 4677,
      "ĠÐ¿ÑĢÐ¸Ð¾Ð±": 4678,
      "ĠÐ¤ÑĢÐ¸Ð´": 4679,
      "ĠÐ¿Ð¾Ð±ÐµÐ´Ð¸": 4680,
      "ÑĩÐµÐ½Ð¸Ð¸": 4681,
      "ĠÐ¿ÐµÑĢÐµÑģÐµ": 4682,
      "ĠÐ½ÐµÐ·Ð°Ð²Ð¸ÑģÐ¸Ð¼Ð¾ÑģÑĤÐ¸": 4683,
      "ĠÐºÐ°Ð¶ÐµÑĤÑģÑı": 4684,
      "Ð¼Ð°Ñħ": 4685,
      "ĠÐ¿Ð¾Ð»Ðµ": 4686,
      "ĠÐ°ÑĢÐ¼Ð¸": 4687,
      "ĠÐĲÐ²Ð³Ñĥ": 4688,
      "ĠÐ²ÑĭÐ±Ð¾ÑĢÐ°Ñħ": 4689,
      "ĠÐ¢Ð°Ð¼": 4690,
      "Î±": 4691,
      "ÐºÐ²Ð°": 4692,
      "Ð½Ð°ÑģÑĤ": 4693,
      "Ð»Ð°Ð¹Ð½": 4694,
      "ĠÐ·Ð°ÑĤ": 4695,
      "Ð²ÐµÑĢÐµ": 4696,
      "ĠÐ·Ð°Ð´Ð°ÑĩÐ¸": 4697,
      "ĠÐ½Ð°ÑħÐ¾Ð´": 4698,
      "ĠÐ±Ð¾Ð»ÑĮÑĪÐ¾Ðµ": 4699,
      "ĠÐ¿ÑĢÐ¾Ð³Ð½": 4700,
      "ĠÐ¿Ð»Ðµ": 4701,
      "ĠÐ»Ð¾Ð¶": 4702,
      "ĠÐµÐ¶Ðµ": 4703,
      "ĠÐ¸Ð½Ð¶ÐµÐ½ÐµÑĢ": 4704,
      "ÑĥÐ³Ð¾Ð»ÑĮ": 4705,
      "Ð¾Ð±ÑĢÐ°Ð·Ð¸": 4706,
      "Ð°Ð»ÑĮÐ½Ð¾": 4707,
      "ĠÐ¡Ð¾ÑİÐ·": 4708,
      "ĠÐĺÐ¼Ð¿ÐµÑĢÐ°": 4709,
      "ĠÐ½Ð°Ð¿Ð¸ÑģÐ°Ð»": 4710,
      "ĠÐ¾Ð±Ð¾ÑĢ": 4711,
      "ÑģÑĤÑĥÐ¿Ð»ÐµÐ½Ð¸Ñı": 4712,
      "ĠÐ¼Ð¾Ð¹": 4713,
      "ĠÐ¿Ð¾Ð²ÑĤÐ¾ÑĢ": 4714,
      "ĠÐ»ÑİÐ±Ð¾Ð¹": 4715,
      "Ð¾ÑħÑĢÐ°Ð½": 4716,
      "ĠÐ´Ð¸Ð½Ð°ÑģÑĤÐ¸Ð¸": 4717,
      "ĠÐ¿Ð°ÑĢÑĤÐ¸Ð¹": 4718,
      "ĠÑģÐ²ÑıÐ·": 4719,
      "ĠÐºÐ¾Ð½ÑĨÐµÐ¿": 4720,
      "ĠÑĢÐµÐ¹": 4721,
      "ĠÐŁÐ¾Ð»Ð¸": 4722,
      "ĠÐ»ÐµÑģ": 4723,
      "ĠÐ¿ÑĢÐ¸Ð²ÐµÑģÑĤÐ¸": 4724,
      "ÑĤÐ¾ÑĢÐ¸Ð¸": 4725,
      "ĠÐłÐ¾Ð¼": 4726,
      "ÐłÐ°Ð·": 4727,
      "ĠÑģÑĤÑĢÐ°Ð½Ð°Ñħ": 4728,
      "ðŁ": 4729,
      "ÑģÐºÐ¾ÑĢ": 4730,
      "ĠÐ·Ð¾Ð»": 4731,
      "ĠÐ°ÑĥÐ´Ð¸": 4732,
      "Ð¡Ð¡": 4733,
      "Ð±ÑĥÑĢÐ³Ðµ": 4734,
      "ĠÐ¿Ð»Ñİ": 4735,
      "ĠÐ´Ð°ÑĤ": 4736,
      "ÑĪÐ¸Ð»": 4737,
      "ĠÐĽÐ¸ÑĤ": 4738,
      "ĠÐ¯ÑĢÐ¾Ñģ": 4739,
      "ĠÐ¿Ð¾Ð²Ðµ": 4740,
      "ÑĨÐ¸Ð¾Ð½Ð½ÑĭÑħ": 4741,
      "ĠÐ¸Ð½Ð´Ñĥ": 4742,
      "ÑĦÐ¸ÐºÐ°ÑĨÐ¸Ð¸": 4743,
      "ĠÑģÑĤÑĢ": 4744,
      "ÑĨÐ¸Ð¾Ð½Ð½ÑĭÐµ": 4745,
      "ĠÐ½ÑĳÐ¼": 4746,
      "ĠÑģÐ¾ÑĨÐ¸Ð°Ð»ÑĮÐ½ÑĭÑħ": 4747,
      "ĠÐ¾Ð´Ðµ": 4748,
      "Ð³Ð¸Ñİ": 4749,
      "ÐŁÑĢÐµÐ´": 4750,
      "ĠÑģÐ²Ð¸Ð´Ðµ": 4751,
      "Ð°Ð½Ñģ": 4752,
      "ĠÐ½Ð°ÑĪÐµÐ¹": 4753,
      "ÑĢÑĥÑİÑĤ": 4754,
      "Ð³Ð¸Ð½Ð°": 4755,
      "ĠÑĩÐ°ÑģÑĤÑĮÑİ": 4756,
      "ÑİÑīÐ¸ÑħÑģÑı": 4757,
      "ĠÐ¡Ð¾Ð±": 4758,
      "ĠÐºÐ¾ÑĤÐ¾ÑĢÐ¾Ð¼Ñĥ": 4759,
      "ÑĢÐ¾Ð¼Ð°": 4760,
      "ĠÐ·Ð²": 4761,
      "ĠÐĶÑĢÑĥ": 4762,
      "Ð¼Ð¸Ð½Ð¸ÑģÑĤÑĢ": 4763,
      "ĠÐ°Ð²ÑĤÐ¾Ð½Ð¾Ð¼": 4764,
      "ÂŃ": 4765,
      "ĠÏ": 4766,
      "Ð´Ð°Ð»Ð¸": 4767,
      "Ð¾Ð¸": 4768,
      "ĠÑģÐ¾ÑģÐµÐ´": 4769,
      "ÐµÐ½Ð½Ð°Ñı": 4770,
      "Ġ1993": 4771,
      "ĠÐĿÐ¸ÐºÐ¾Ð»Ð°": 4772,
      "ĠÐ´ÐµÐ¼Ð¾Ð½": 4773,
      "ĠÐŁÐ»Ð°": 4774,
      "ĠÑĥÑģÐ»Ð¾Ð²Ð¸ÑıÑħ": 4775,
      "ĠÐ¿Ð¾Ð³Ð¸Ð±Ð»Ð¸": 4776,
      "Ð´ÑĨÐ°": 4777,
      "ĠÐ½ÑĢÐ°Ð²Ð¸": 4778,
      "ĠÐ¸Ð½Ð´Ð¸": 4779,
      "ĠÐ½ÐµÐ·Ð°Ð²Ð¸ÑģÐ¸": 4780,
      "Ð°Ð»ÑĮÐ½Ð¾Ð¹": 4781,
      "ĠÐ´Ð²Ð¸Ð¶ÐµÐ½Ð¸Ðµ": 4782,
      ".),": 4783,
      "ÑĤÑĢÐ¾Ð¿": 4784,
      "Ð´Ð¶Ð¸": 4785,
      "ĠÑģÐ»Ð¾": 4786,
      "ÑĩÐ¸Ðµ": 4787,
      "ĠÐ´ÑĢÑĥÐ³Ð°": 4788,
      "ĠÐ¸ÑģÐ¿Ð¾Ð»ÑĮÐ·ÑĥÑı": 4789,
      "Ð¾ÑĢÐ¸ÑĤ": 4790,
      "Ġ1996": 4791,
      "Ġ1930": 4792,
      "ÑĩÑĤÐ¾": 4793,
      "ĠÐ¿Ð¾Ð»Ð½Ð¾Ð¼": 4794,
      "ĠÑģÐ¾Ð·Ð´Ð°ÑĤÑĮ": 4795,
      "ĠÐ¿Ð°Ð½": 4796,
      "ĠÐ°ÑĢÐµ": 4797,
      "ĠXVIII": 4798,
      "Ð°Ð½Ð½ÑĭÐµ": 4799,
      "Ð¶ÐµÐ¹": 4800,
      "ÑĤÐ¸ÑĤÐµ": 4801,
      "ĠÐ¿ÑĢÐµÐ´Ñĥ": 4802,
      "ÑĨÐ¸ÑıÐ¼Ð¸": 4803,
      "ĠÑģÐ°Ð¼Ð¾Ð³Ð¾": 4804,
      "ĠÐ¸ÑģÑĤÐ¾ÑĢÐ¸Ñİ": 4805,
      "ĠÐ¡ÐµÐ²ÐµÑĢÐ½Ð¾Ð¹": 4806,
      "ĠÐ¿ÑĤÐ¸": 4807,
      "ĠÐ½ÐµÑĳ": 4808,
      "ĠÑĢÐ°Ð¼ÐºÐ°Ñħ": 4809,
      "ĠÐ²Ð¾Ð·Ð´ÑĥÑħÐ°": 4810,
      "99": 4811,
      "Ð¾ÑģÐ½Ð¾Ð²": 4812,
      "ĠÑĦÑĢÐ°": 4813,
      "Ð¿Ð¾ÑĤÐµ": 4814,
      "ĠÐ°ÑĢÐ°Ð±": 4815,
      "Ð°Ð½Ð¾Ð¼": 4816,
      "Ð¾ÑĢÐ¾Ð²": 4817,
      "ĠÑĢÐµÐºÐ»Ð°": 4818,
      "ĠÑĥÑĩÐ°ÑģÑĤÐ¸Ðµ": 4819,
      "ĠÐ¼ÑĭÑĪ": 4820,
      "ÑīÐµÐ½Ð°": 4821,
      "ĠÑģÑĢÐµÐ´Ñĭ": 4822,
      "ĠÐ½Ð°Ð·Ð²Ð°Ð½": 4823,
      "ĠÐºÐ½ÑıÐ¶Ðµ": 4824,
      "ÑĤÐ°Ð»Ð¸": 4825,
      "ĠÐ±Ð¾Ð¼": 4826,
      "ĠÐļÑĢÑĭ": 4827,
      "ĠÐ²ÑĭÐ´ÐµÐ»Ñı": 4828,
      "ĠÑĢÑĥÑģÑģÐºÐ¾Ð³Ð¾": 4829,
      "ĠÑĦÐ¾ÑĢÐ¼Ñĭ": 4830,
      "ĠÐ¿Ð¾ÑģÐ»ÐµÐ´Ð½Ð¸Ð¹": 4831,
      "ĠÐ²Ð¾Ð´Ð°": 4832,
      "Ð»Ð°Ñı": 4833,
      "Ð²Ð°Ð½ÑĤÐ¾Ð²": 4834,
      "Ð®": 4835,
      "Ġ*": 4836,
      "Ð½Ð¸ÑĨÐµ": 4837,
      "ĠÐ³Ð¸Ð¼": 4838,
      "ord": 4839,
      "ĠÑģÐ¾Ð¾ÑĤÐ²ÐµÑĤÑģÑĤÐ²Ð¸Ð¸": 4840,
      "ĠÑģÐ¾Ð·Ð´Ð°Ð½Ð¸Ðµ": 4841,
      "ĠÑĤÐµÐºÑģÑĤ": 4842,
      "ÑĦÐ°Ð²Ð¸": 4843,
      "ÐºÑĥÑİ": 4844,
      "ĠÐ¾Ð±Ð¸": 4845,
      "ÐĺÐ½": 4846,
      "ĠÐºÐ¸Ð½Ð¾Ð°ÐºÑĤ": 4847,
      "Ð»Ñĳ": 4848,
      "ĠÐ·Ð°Ð´Ð°Ñĩ": 4849,
      "Ð¾Ð»ÐµÑĤ": 4850,
      "ĠÐ²Ð°ÑĪ": 4851,
      "ÑĢÐ°Ð½Ð°": 4852,
      "Ð»Ð°Ñħ": 4853,
      "ĠÐ¡ÑĤÐµ": 4854,
      "ĠÐºÑĥÐ¿": 4855,
      "ĠÐ¼ÐµÑĤÐ¾Ð´Ñĭ": 4856,
      "Ð¿Ð¾Ð»Ð¸": 4857,
      "Ð²ÐµÐ´ÐµÐ½Ð¸Ñı": 4858,
      "ĠÐ¿Ð¾ÑĤÐµÐ½ÑĨÐ¸Ð°Ð»ÑĮ": 4859,
      "Ð½Ð¸Ð±ÑĥÐ´ÑĮ": 4860,
      "ĠÐ½ÐµÐ²Ð¾Ð·": 4861,
      "urn": 4862,
      "ĠÑĢÐ°Ð´Ð¸Ð¾": 4863,
      "ĠÑģÐ¼Ð¾Ð³": 4864,
      "ple": 4865,
      "Ð¿Ð¾Ð»Ð½Ðµ": 4866,
      "ĠÐ¿Ð¾ÑģÑĤÐ°": 4867,
      "ĠÐĳÐ¾Ð»ÑĮ": 4868,
      "Ð»ÐµÐ²": 4869,
      "ĠÐĽÑĮ": 4870,
      "ĠÐ¤ÐµÑĢ": 4871,
      "ĠÑĦÐ¸Ð·Ð¸Ðº": 4872,
      "ĠÑĩÐµÐ»": 4873,
      "ĠÐŁÑĢ": 4874,
      "ĠÐĶÑĥ": 4875,
      "ĠÑĢÐ°Ð·Ð³": 4876,
      "ĠÐ¸Ð½ÑĤÐµÑĢÐµ": 4877,
      "ĠÐ¿ÑĢÐ¾Ð´ÑĥÐºÑĤÐ¾Ð²": 4878,
      "Ġ?<|": 4879,
      "ĠÑĢÐµÐºÐ¾Ð¼ÐµÐ½": 4880,
      "ĠÐ¿ÐµÑĢÐµÑħÐ¾Ð´": 4881,
      "Ð³Ð½Ð¸ÑĤ": 4882,
      "ĠÐ»ÐµÐ²": 4883,
      "Ð±Ð°ÑĢ": 4884,
      "ÑģÐ¸Ð½": 4885,
      "ĠÐ²ÑĭÐ³Ð»Ñı": 4886,
      "ĠÐ¼Ð½Ð¾Ð³Ð¾ÑĩÐ¸Ñģ": 4887,
      "ÑĮÐµÐ²": 4888,
      "Ð»ÑĮÑı": 4889,
      "Ð¾Ð±Ð½Ð¾Ð²": 4890,
      "ÑĳÑģ": 4891,
      "ĠÑĢÐ¾Ð»Ð¸": 4892,
      "Ð±ÐµÑĢÐ³": 4893,
      "ĠÐĵÑĢÑĥ": 4894,
      "Ð¿Ð°ÑģÐ¸Ð±Ð¾": 4895,
      "Ð¶Ð¸ÑĤÐµ": 4896,
      "Ð¾ÑģÐ¸Ð¿Ðµ": 4897,
      "ĠÑĤÐµÐ¼Ð¿ÐµÑĢÐ°ÑĤÑĥÑĢÐ°": 4898,
      "ĠÐľÐ¾ÑĢ": 4899,
      "ĠÑĢÐ¾Ðº": 4900,
      "ĠÐ¤Ñĳ": 4901,
      "Ð°Ð»ÑĮÐ½ÑĭÐµ": 4902,
      "ĠÐ¿ÑĢÐ¸Ð½ÑıÐ»": 4903,
      "ĠÐ³ÐµÐ½ÐµÑĢÐ°": 4904,
      "ĠÐ¾Ð´Ð½Ñĥ": 4905,
      "oc": 4906,
      "Ð´Ð°Ñħ": 4907,
      "ĠÐ²ÐµÑģ": 4908,
      "ÐľÐ½Ðµ": 4909,
      "ov": 4910,
      "ĠÐłÐ°Ñģ": 4911,
      "Ð±Ð¸Ð»Ð¸": 4912,
      "ĠÐ¿ÑĢÐµÐ´Ð¿Ð¾": 4913,
      "Ð¾Ð¶Ð´Ðµ": 4914,
      "ĠÑįÐ¼Ð¾": 4915,
      "ÐµÐºÑĥ": 4916,
      "Ð¾Ð²Ð¸ÑĤÐµ": 4917,
      "ĠÐ¿Ð¸ÑĤ": 4918,
      "Ð²Ð¸ÑĤÑĮ": 4919,
      "ĠÑĢÐµÑĪÐµÐ½Ð¸Ð¹": 4920,
      "ÑĩÑĳÐ½": 4921,
      "ĠÐ½Ð°Ð±Ð¾ÑĢ": 4922,
      "ĠÐ¶Ð¸Ð»": 4923,
      "ĠÑĤÐµÑħÐ½Ð¾Ð»Ð¾Ð³Ð¸Ð¸": 4924,
      "ĠÐ°ÑĢÑĤÐ¸ÑģÑĤÐºÐ°": 4925,
      "Ġ2022": 4926,
      "ĠÑģÑģÑĭ": 4927,
      "ĠÐ½Ð°ÑĩÐ°Ð»Ð¸": 4928,
      "Ġ1940": 4929,
      "ĠÐºÐ°Ð½Ð°Ð´": 4930,
      "ĠÐ¿ÑĢÐµÐ¶Ð´Ðµ": 4931,
      "ĠÐ¾Ð±ÑīÐµÐ¹": 4932,
      "ĠÐľÐµÐ½": 4933,
      "ĠÐĳÐµÐ·": 4934,
      "Ġ1995": 4935,
      "ĠÑĢÑĥÑģÑģÐºÐ¾Ð¹": 4936,
      "ĠÐ¿Ð¾ÐºÑĥÐ¿": 4937,
      "ĠÑģÑĤÐ¾Ñı": 4938,
      "ĠÑĥÐ½Ð¸ÐºÐ°": 4939,
      "ĠÐ·Ð°ÐºÐ¾Ð½Ð¾Ð´Ð°": 4940,
      "ĠÐºÐ°Ð½Ð´Ð¸": 4941,
      "ĠÑĥÐ½Ð¸Ð²ÐµÑĢÑģÐ¸ÑĤÐµÑĤ": 4942,
      "ÐºÐ½Ñĥ": 4943,
      "ĠÐ½Ð°ÑģÑĤÑĢÐ¾": 4944,
      "ÑĤÐ¸ÑĤ": 4945,
      "ĠÐ¿ÑģÐ¸ÑħÐ¸": 4946,
      "Ð¶ÐµÐ½Ð½ÑĭÐ¹": 4947,
      "ĠÐ¾Ð±ÑıÐ·Ð°Ð½": 4948,
      "ÑħÐ°ÑĢ": 4949,
      "Ġ(),": 4950,
      "ĠÐĴÐ¾Ð¹": 4951,
      "ĠÑĤÐµÐºÑģÑĤÐ°": 4952,
      "ĠÑģÑĩÑĳÑĤ": 4953,
      "ĠÐ¾ÑĤÐµ": 4954,
      "ĠÐ·Ð°ÑģÐµ": 4955,
      "ĠÑģÐµÐ²ÐµÑĢÐ¾": 4956,
      "yth": 4957,
      "ĠÐ¸Ð·Ð¼ÐµÑĢ": 4958,
      "ÑħÐ¸Ð¸": 4959,
      "Ð´ÑĭÑħ": 4960,
      "ĠÐ¾ÑĤÐ¼ÐµÐ½": 4961,
      "ĠÐ¾ÑĤÐ¼ÐµÑĩÐ°": 4962,
      "Ð¾Ð¿ÑĢÐ¸": 4963,
      "ĠÑģÐ¾ÑģÑĤÐ¾ÑıÐ½Ð¸Ñİ": 4964,
      "ÐĿÐ°Ð¿Ð¸ÑĪÐ¸ÑĤÐµ": 4965,
      "ĠÑģÐ°Ð¼Ð¾Ðµ": 4966,
      "ĠÐ´Ð¸Ð·Ð°Ð¹": 4967,
      "ĠÐ½Ð°Ð¿ÑĢÑı": 4968,
      "ÑİÑīÐ¸Ð¼Ð¸": 4969,
      "ĠÐ¿ÑĢÐ¸ÑĢÐ¾Ð´Ñĭ": 4970,
      "Ð¾Ð²Ð°Ñı": 4971,
      "Ð½ÑıÐµÑĤ": 4972,
      "ĠÑĤÑĢÐ°Ð¼": 4973,
      "ĠÑħÐ°ÑĢÐ°ÐºÑĤÐµÑĢÐ¸ÑģÑĤÐ¸": 4974,
      "ĠÑģÑĥÐ´Ð°": 4975,
      "ÑĨÐ°ÑĢ": 4976,
      "ĠÐłÑĭ": 4977,
      "ĠÐ²Ð¾Ð¹Ð½Ðµ": 4978,
      "ĠÐ³ÑĢÑĥÐ¿Ð¿": 4979,
      "ĠÐºÐ»Ð¸Ð¼Ð°ÑĤÐ°": 4980,
      "ĠÐĹÐ½Ð°": 4981,
      "ĠÐºÑĢÐµÑģÑĤÑĮÑıÐ½": 4982,
      "Ð¼ÐµÑĤÐ¸": 4983,
      "ÑĢÐ¸Ñģ": 4984,
      "Ð¸ÑģÑĮ": 4985,
      "ĠÐľÐ¸Ð½Ð¸": 4986,
      "ĠÑĢÑĥÑģÑģÐºÐ¸Ñħ": 4987,
      "Ð¾Ð»Ð°Ð³Ð°": 4988,
      "ÐºÐ»Ð¾Ð¿": 4989,
      "ÐµÐ½Ð½Ð¾Ð³Ð¾": 4990,
      "Ð¾ÑĤÐ¾Ð¼Ñĥ": 4991,
      "Ð½Ð¸Ð¼Ð°Ð½Ð¸Ñı": 4992,
      "ĠÑįÐ»ÐµÐ¼ÐµÐ½ÑĤÐ¾Ð²": 4993,
      "ĠÑģÑİ": 4994,
      "Ð´ÑĢÐ°Ð²Ð¾": 4995,
      "od": 4996,
      "Ð¿Ð¾Ð·Ð¸": 4997,
      "âĢľ": 4998,
      "ĠÑģÐ²ÐµÑĤÐ°": 4999,
      "ĠÐĲÐ²ÑģÑĤÑĢÐ°": 5000,
      "ĠÑģÐ´Ðµ": 5001,
      "ĠÐ¼ÑĥÐ·Ðµ": 5002,
      "ĠÐ±Ð¸Ð·Ð½ÐµÑģ": 5003,
      "ÑĤÐ¸ÐµÐ¼": 5004,
      "ĠÐ·Ð°Ð±Ñĭ": 5005,
      "Ð´ÑĢÐ°Ð²Ð¾Ð¾ÑħÑĢÐ°Ð½": 5006,
      "ĠÐ³Ñĥ": 5007,
      "ÑĦÐµÐ¹": 5008,
      "Ð²Ð°ÐµÐ¼": 5009,
      "ÑĦÐ¾ÑĢÐ¼Ñĭ": 5010,
      "ĠÐ²ÐµÐ½": 5011,
      "ĠÐ¸Ð¼Ð¿": 5012,
      "Ð¢Ðŀ": 5013,
      "ÑīÐ°ÐµÑĤÑģÑı": 5014,
      "ĠÑĢÐµÑģÐ¿ÑĥÐ±Ð»Ð¸ÐºÐ¸": 5015,
      "35": 5016,
      "Ð¾Ð½Ñĥ": 5017,
      "ĠÐºÑĢÐ¸ÑĤÐ¸Ðº": 5018,
      "ĠÐ°ÐºÐ°Ð´ÐµÐ¼Ð¸Ðº": 5019,
      "Ð²Ð°Ð½Ð¸ÐµÐ¼": 5020,
      "ÑīÐ°ÑĤÑĮÑģÑı": 5021,
      "ĠÐ·Ð°Ð³ÑĢÑı": 5022,
      "Ð½ÐµÐ½Ð¸Ñİ": 5023,
      "ĠÑģÐ¾Ð²ÑĢÐµÐ¼ÐµÐ½Ð½Ð¾Ð¹": 5024,
      "ĠÑģÑĤÐ°ÑĤÐ¸ÑģÑĤÐ¸": 5025,
      "ĠÐ¸ÑģÑĤÐ¾ÑĢÐ¸Ñı": 5026,
      "ĠÐ½Ð°Ð·ÑĭÐ²Ð°ÑİÑĤ": 5027,
      "ĠÐ°Ð²ÑĤÐ¾Ð¼Ð¾Ð±Ð¸": 5028,
      "ĠÐ¸ÑģÐ¿Ð¾Ð»Ð½Ð¸": 5029,
      "ÑĦÑĢÐ¸": 5030,
      "Ð¿ÐµÑĩÐ°ÑĤ": 5031,
      "ĠÑģÑĤÐ°Ð½ÑĨÐ¸Ð¸": 5032,
      "ĠÐºÐ½Ð¸Ð³": 5033,
      "ÑİÑīÐ¸ÐµÑģÑı": 5034,
      "ĠÐ»ÑİÐ´ÑıÐ¼": 5035,
      "ĪĴ": 5036,
      "ĠÐ´Ð¾Ð¿Ñĥ": 5037,
      "ÑĤÐ¾ÑĢÐ¾Ðµ": 5038,
      "ĠÐ±Ð»Ð¾Ðº": 5039,
      "Ð²ÐµÐ´Ñĥ": 5040,
      "ÑģÐ°Ñħ": 5041,
      "Ð¶Ð°Ð¹": 5042,
      "ĠÐ¿Ð¸ÑģÐ°Ð»": 5043,
      "Ð±Ð¾Ð¹": 5044,
      "ĠÐ²ÑĭÑģÑĤÑĥÐ¿Ð°": 5045,
      "ĠÐĵÐ¾ÑĢÐ¾Ð´": 5046,
      "res": 5047,
      "ĠÑĥÐ²ÐµÑĢ": 5048,
      "Ð±ÐµÐ»ÑĮ": 5049,
      "ĠÑĢÐ°ÑģÐ¿ÑĢÐµÐ´Ðµ": 5050,
      "ĠÐŁÐ°Ð²": 5051,
      "ĠÐ¿ÑĢÐ¾Ð¸Ð·Ð²Ð¾Ð´ÑģÑĤÐ²Ð¾": 5052,
      "ĠÐ°ÑĤÐ¼Ð¾ÑģÑĦÐµÑĢ": 5053,
      "ĠÐºÐ°ÑĤÐµÐ³Ð¾": 5054,
      "ĠÐ¾ÑĤÐ»Ð¸ÑĩÐ¸Ðµ": 5055,
      "ĠÐĶÐ¶Ðµ": 5056,
      "Ð»ÐµÐ½Ð½ÑĭÐ¹": 5057,
      "Ð½ÑĨÐ¸ÐºÐ»Ð¾Ð¿": 5058,
      "ĠÐ¢Ñĭ": 5059,
      "Ð°Ð¹ÑĤÐµ": 5060,
      "ĠÐ½ÐµÐ¼Ð½Ð¾Ð³Ð¾": 5061,
      "ÑħÐ°Ð¼": 5062,
      "ĠÐ³ÐµÐ½": 5063,
      "ĠÐĵÐ°ÑĢ": 5064,
      "ĠÐĲÐ½ÑĤÐ¸": 5065,
      "ĠÑĥÑģÑĤÐ¾Ð¹ÑĩÐ¸": 5066,
      "Ð²Ð¾Ð½Ð°ÑĩÐ°": 5067,
      "Ð½Ð¾Ð¼ÑĥÑĩÐµÐ½Ð¸": 5068,
      "Ð¾ÑĤÐ¾Ð²Ð¸": 5069,
      "Ð¼Ð°ÑĤ": 5070,
      "ĠÐ¿Ð¾ÑģÐ»ÐµÐ´Ð½Ð¸Ðµ": 5071,
      "ĠÐļÐ°Ð»Ð¸Ð½Ð¸": 5072,
      "ĠÐ¤Ð¸Ð½Ð»ÑıÐ½": 5073,
      "ĠÐĴÐ°ÑĢ": 5074,
      "ÐłÐ°": 5075,
      "ĠÐŁÐ¾Ñį": 5076,
      "ÑĨÐ¸Ð¾Ð½Ð½Ð¾Ð³Ð¾": 5077,
      "ĠÐ¿Ð¾ÑģÐµ": 5078,
      "ĠÐ¾Ð´Ð½Ð¾Ð¼": 5079,
      "ÑģÑĤÐ°Ð½Ð°Ð²Ð»Ð¸": 5080,
      "ÑĦÑĭ": 5081,
      "ÑĪÐ¸ÑģÑĮ": 5082,
      "Ġ=.<|": 5083,
      "ĠÑģÐµÐ¼ÐµÐ¹": 5084,
      "ĠÐ¿Ð¾Ð¼Ð¾Ð³Ð°ÐµÑĤ": 5085,
      "ÑģÐ¼Ð¾ÑĤÑĢÑı": 5086,
      "ĠÐĳÐ»Ð°": 5087,
      "ĠÐ²Ð¾Ð·Ð´ÐµÐ¹": 5088,
      "ĠÐ±ÑĥÐ¼Ð°": 5089,
      "ĠÐºÑĢÐ°ÑģÐ¸": 5090,
      "ĠÐ°Ð»ÑĦÐ°Ð²Ð¸": 5091,
      "ĠÐ¿Ð¾ÑĤÐµÑĢÑı": 5092,
      "ment": 5093,
      "ĠÐĴÐµÐ½Ðµ": 5094,
      "ĠÐ¢ÑĢÑĥ": 5095,
      "37": 5096,
      "ÑĢÐ¸Ð¼": 5097,
      "ĠÐĶÐ¼Ð¸ÑĤ": 5098,
      "ĠÐ¿Ð¾Ð´Ð²ÐµÑĢ": 5099,
      "Ð°Ð»ÑĮÐ½ÑĭÑħ": 5100,
      "ĠÐ¿Ð¾ÐºÑĢÑĭ": 5101,
      "ÑĢÐ¾Ð´Ð¸": 5102,
      "ÑıÐµÑĤ": 5103,
      "ÑĤÐ°Ð»": 5104,
      "ĠÑĢÐ°Ð½ÐµÐµ": 5105,
      "ÑĦÐ¸ÑĨÐ¸Ð°Ð»ÑĮ": 5106,
      "Ð¾Ð½ÐµÑĨ": 5107,
      "ĠÐ¾Ð±ÑĬÐµÐ´Ð¸": 5108,
      "ĠÑģÐ²ÑıÐ·ÑĮ": 5109,
      "Ð¾ÑĤÑĥ": 5110,
      "ÑĢÐ¾Ð²Ð°Ð»Ð¸": 5111,
      "ĠÐ´Ð¾Ð¼Ð°ÑĪ": 5112,
      "Ð¶Ð½ÑĭÑħ": 5113,
      "ÑģÑĤÐ°Ð»": 5114,
      "ĠÐĶÑĢÐµÐ²": 5115,
      "ĠÐ£Ð¸Ð»ÑĮ": 5116,
      "ĠÐ¿Ð»Ð¾ÑīÐ°Ð´ÑĮ": 5117,
      "ÑĢÐµÐ¼Ñı": 5118,
      "ĠÐ¾ÑĦÐ¸ÑĨÐ¸Ð°Ð»ÑĮÐ½Ð¾": 5119,
      "ou": 5120,
      "ÑĤÐ°Ð½Ð°": 5121,
      "ĠÐ¿ÑĢÐ°Ð²Ð¸Ð»ÑĮÐ½Ð¾": 5122,
      "ĠÐ¿Ð¸ÑĪ": 5123,
      "ĠÐ¿ÑĢÐµÐ´Ð¿Ð¾Ð»Ð°Ð³Ð°": 5124,
      "ew": 5125,
      "ĠÐ°Ð²ÑģÑĤÑĢÐ¸Ð¹": 5126,
      "ĠÑĢÐ¾ÑģÑĤ": 5127,
      "ÐµÐ¼Ð°": 5128,
      "ĠÐ¿ÐµÑĩÐ°": 5129,
      "Ð³Ð¾ÑģÑı": 5130,
      "Ð¸Ð³": 5131,
      "Ð²ÑĪÐ¸Ð¼": 5132,
      "Ġ500": 5133,
      "ĠÑįÐ»ÐµÐ¼ÐµÐ½ÑĤÐ°": 5134,
      "ĠÐ¿ÑĢÐ¾ÑĦÐµÑģÑģÐ¸Ð¾Ð½Ð°Ð»ÑĮ": 5135,
      "Ġ1997": 5136,
      "ÑĤÐ¸ÑĩÐµÑģÐºÐ¾Ðµ": 5137,
      "ÐºÐ½Ð¾Ð²": 5138,
      "ĠÐ¿Ð¾ÑħÐ¾Ð´": 5139,
      "ÑĦÐ¸Ð»ÑĮ": 5140,
      "ĠÐ¿Ð¾Ð¿Ð°": 5141,
      "Ð¾Ð»Ð¾Ð³Ð¸Ð¹": 5142,
      "ĠÑĥÐ´Ð¾Ð²Ð»ÐµÑĤ": 5143,
      "ĠÐ¿ÑĢÐµÐ´ÐµÐ»Ð°": 5144,
      "ĠÐ¥Ñĥ": 5145,
      "ĠÐ²Ð¸Ð´ÐµÐ¾": 5146,
      "ÑĤÐµÐ»ÑĮÐ½ÑĭÐ¼Ð¸": 5147,
      "ĠÐ²Ð¾Ð·Ð³Ð»Ð°": 5148,
      "ĠÐļÑĢÐµ": 5149,
      "ĠÐ¿ÑĢÐ¾ÑĪ": 5150,
      "Ġ176": 5151,
      "ĠÐ²ÐµÑĢÑħ": 5152,
      "Ð´ÐµÐ»Ð¸ÑĤÐµ": 5153,
      "Ð½ÑĨÐ¸ÐºÐ»Ð¾Ð¿ÐµÐ´Ð¸": 5154,
      "Ð¾ÑģÑĢÐµÐ´": 5155,
      "ĠÐ¢Ð¸Ñħ": 5156,
      "Ð¡Ð¾ÑģÑĤÐ°Ð²ÑĮÑĤÐµ": 5157,
      "ĠÐ±ÐµÑĢ": 5158,
      "ĠÑģÐ²Ð¾Ð¹ÑģÑĤÐ²Ð°": 5159,
      "ĠÐĴÐµÑĢÑħÐ¾Ð²Ð½Ð¾Ð³Ð¾": 5160,
      "Ð²Ð°Ð»Ð¾": 5161,
      "Ð»ÐµÐ±": 5162,
      "ĠÐ¼Ð°Ð½": 5163,
      "ĠÑįÐºÐ¾Ð»Ð¾Ð³Ð¸": 5164,
      "ĠÐ½Ð°ÑģÐ»ÐµÐ´": 5165,
      "ĠÐ¿Ð¾ÑıÐ²": 5166,
      "ÑĬÑıÑģ": 5167,
      "Ð±ÑĥÑĢÐ³Ð°": 5168,
      "ĠÐ½ÐµÐ´Ð°": 5169,
      "Ð±Ð¸Ð½Ð°": 5170,
      "Ġ1944": 5171,
      "ĠÐ½Ð°Ð·Ð²Ð°Ð½Ð¸Ñı": 5172,
      "ĠÐ¸Ð³ÑĢ": 5173,
      "ĠÐ³Ð»ÑĥÐ±Ð¾Ðº": 5174,
      "ĠÑģÐºÐ¾ÑĢÐµÐµ": 5175,
      "ÑĤÐµÑĢÐµ": 5176,
      "Ð½Ð°Ð·Ð½Ð°": 5177,
      "ĠÑħÑĢÐ°Ð½": 5178,
      "ĠÐ²ÐºÐ»ÑİÑĩÐ°ÑİÑĤ": 5179,
      "ĠÑĢÐµÐ³Ð¸Ð¾Ð½Ð°": 5180,
      "ĠÑĢÐ¸Ð¼ÑģÐºÐ¸Ð¹": 5181,
      "Î¿": 5182,
      "Ð°Ð½Ð½ÑĭÐ¹": 5183,
      "Ð³ÑĢÐ¸": 5184,
      "ĠÑĤÐµÐ»Ð°": 5185,
      "ÐĶÐł": 5186,
      "Ġ1998": 5187,
      "ĠÑĥÐ¿Ð¾ÑĤÑĢÐµÐ±": 5188,
      "ĠÑģÐ»Ð°Ð²ÑıÐ½": 5189,
      "ĠÐĶÐ¶Ð¾ÑĢ": 5190,
      "ĠÑģÐ»ÐµÐ´ÑĥÑİÑīÐ¸Ð¹": 5191,
      "ĠÑĪÐ¸ÑĢÐ¾ÐºÐ¾": 5192,
      "ĠÑģÑĤÑĢÐ¾Ð¸ÑĤÐµÐ»ÑĮÑģÑĤÐ²Ð¾": 5193,
      "ĠÐ±Ð¾Ð»ÐµÐ·": 5194,
      "ĠÑģÐ°Ð¼Ð¾ÑģÑĤÐ¾Ñı": 5195,
      "ĠÐ°Ð¼": 5196,
      "Ð¾Ð¶Ð½Ð¾": 5197,
      "ĠÐºÐ°ÑĤÐ¾Ð»Ð¸": 5198,
      "ÑģÐ¸Ð´": 5199,
      "ĠÐºÐ¾Ð»Ð¸ÑĩÐµÑģÑĤÐ²Ð°": 5200,
      "ĠÐ·Ð°Ð²Ð¸ÑģÐ¸ÑĤ": 5201,
      "ĠÐ¶ÐµÐ½ÑīÐ¸Ð½": 5202,
      "ĠâĢŀ": 5203,
      "Ð´Ð¾Ñħ": 5204,
      "ĠÑıÐ´ÐµÑĢ": 5205,
      "ĠÑģÑĤÑĢÐ°Ð½Ð°": 5206,
      "ĠÐ¿ÑĢÐµÐ´Ð¾ÑģÑĤÐ°Ð²Ð»Ñı": 5207,
      "ĠÑĥÐ½Ð¸ÑĩÑĤÐ¾Ð¶": 5208,
      "Â»;": 5209,
      "ĠÐ²ÑĭÑĩÐ¸Ñģ": 5210,
      "ÑīÐ°ÑĤÑĮ": 5211,
      "ĠÑģÐ»ÐµÐ´ÑĥÑİÑīÐµÐµ": 5212,
      "ĠÑĤÑĢÐ°Ð½ÑģÐ¿Ð¾ÑĢÑĤÐ°": 5213,
      "ĠÐ°Ð½Ð°Ð»Ð¸Ð·Ð°": 5214,
      "Ð»Ð¾Ð¹": 5215,
      "ÐºÑģÐ°": 5216,
      "ĠÐ¡ÑĥÑīÐµÑģÑĤÐ²": 5217,
      "ÑĨÐ¸Ð¾Ð½Ð½ÑĭÐ¹": 5218,
      "45": 5219,
      "75": 5220,
      "Ð½Ð°Ð½Ð¸Ðµ": 5221,
      "ĠÐŁÐµÑĢÐ²ÑĭÐ¹": 5222,
      "ĠÐĸÐ°Ð½": 5223,
      "ĠÐ¿ÑĢÐ¾Ð´Ð¾Ð»Ð¶Ð¸": 5224,
      "ĠÑĥÐ»ÑĥÑĩÑĪÐ¸ÑĤÑĮ": 5225,
      "ĠÐ¿ÑĢÐ¾ÑģÑĤÑĢÐ°Ð½ÑģÑĤÐ²Ð°": 5226,
      "ython": 5227,
      "Ð¾ÑģÑĤÑĮ": 5228,
      "ĠÑģÐµÐ·": 5229,
      "ĠÐ´Ð½Ð¸": 5230,
      "ĠÐ·Ð°ÑıÐ²Ð¸": 5231,
      "ÑħÐ°ÑĤÑĮ": 5232,
      "ĠSt": 5233,
      "ĠÐ¾Ð±Ð½Ð¾Ð²": 5234,
      "ĠÐ¿ÑĢÑıÐ¼Ð¾": 5235,
      "ĠÐ´Ð»Ð¸Ð½": 5236,
      "ÑĨÐµÐ¼": 5237,
      "ĠÑĢÐ°Ð·Ð°": 5238,
      "Ġ1919": 5239,
      "ĠÑİÐ³Ð¾": 5240,
      "ĠÐ¿ÐµÑĢÐ¸Ð¾Ð´Ð°": 5241,
      "ĠÐ°Ð±ÑģÐ¾Ð»ÑİÑĤ": 5242,
      "ĠÐºÐ¸Ð»": 5243,
      "ĠÐ¾ÑģÐ½Ð¾Ð²Ð½ÑĭÐµ": 5244,
      "ĠÑģÐ¾Ð²ÐµÑĢÑĪ": 5245,
      "ĠÐĿÐ°ÑĩÐ°Ð»Ð¾": 5246,
      "ÑĬÐµÐº": 5247,
      "ĠÐ²Ð¾Ð¹Ð½Ñĥ": 5248,
      "ĠÐ¾ÐºÐµÐ°Ð½Ð°": 5249,
      "Ð²Ð¸Ð»": 5250,
      "ĠÑħÐ¾Ðº": 5251,
      "ĠÐ½Ð°Ð²Ñĭ": 5252,
      "ĠÐ¡Ð¾ÐºÑĢÐ°": 5253,
      "ÑģÐ¸ÐµÐ¹": 5254,
      "ÐĲÐ³Ð°": 5255,
      "ĠÑģÐ¿Ñĥ": 5256,
      "ĠÐ³Ð¾ÑģÑĥÐ´Ð°ÑĢÑģÑĤÐ²ÐµÐ½Ð½Ð¾Ð³Ð¾": 5257,
      "ÑģÑĤÑĥÐ¿Ð»ÐµÐ½Ð¸Ðµ": 5258,
      "ĠÐºÐ¾ÑģÐ¼Ð¾Ñģ": 5259,
      "ĠÐ¿Ð¾Ð»Ð¾Ð¶ÐµÐ½Ð¸Ðµ": 5260,
      "ÐµÐ½Ð½Ð¾ÑģÑĤÐ¸": 5261,
      "ĠÐ¿ÑĢÐ¸Ð²ÐµÐ´": 5262,
      "ĠÐ¾Ð¿ÑĤÐ¸": 5263,
      "all": 5264,
      "Ð³Ð¾Ð´Ð½Ð¾": 5265,
      "ĠÐ´Ð¾ÑģÑĤÐ¸Ð¶ÐµÐ½Ð¸Ñı": 5266,
      "ĠÑģÐ¾Ð¾Ð±ÑīÐµÐ½Ð¸Ñı": 5267,
      "90": 5268,
      "ĠÐŁÐ¾Ð·": 5269,
      "Ð´Ð¸Ð»": 5270,
      "Ð°Ð»ÑĮÐ½ÑĭÐ¹": 5271,
      "ĠÐ¸Ð´ÐµÐ¸": 5272,
      "ĠÐ¼ÑĥÐ·ÐµÐ¹": 5273,
      "ĠÐ¶Ð¸Ð²Ð¾Ð¿Ð¸ÑģÐµÑĨ": 5274,
      "ĠÑĥÑĢÐ¾Ð²Ð½Ðµ": 5275,
      "ĠÑħÐ¾Ð»Ð¾Ð´": 5276,
      "ÐĿÐ°Ð·Ð¾Ð²Ð¸ÑĤÐµ": 5277,
      "ĠÐ±ÑĢÐ°ÑĤÑĮ": 5278,
      "ĠÑĥÐ²Ð¸": 5279,
      "Ġ35": 5280,
      "Ð»Ð°ÑģÑģÐ¸": 5281,
      "ĠÐ·ÐµÐ¼ÐµÐ»ÑĮ": 5282,
      "ĠÐ·Ð°Ð±Ð¾Ð»ÐµÐ²": 5283,
      "ĠÐ¸Ð½Ð¸": 5284,
      "ÑĨÐºÐ¾Ð³Ð¾": 5285,
      "ÐºÐ¸Ð½Ð°": 5286,
      "ĠÐ¾ÑĤÑģÑĤÐ°Ð²": 5287,
      "ĠÐ´Ð°Ð²Ð½Ð¾": 5288,
      "ĠÐļÐ¸ÑĤÐ°": 5289,
      "ĠÐ¿Ð¾Ð»ÑĥÑĩÐ¸Ð»Ð°": 5290,
      "ĠÐľÐ¾ÑģÐºÐ²Ñĭ": 5291,
      "ĠÐ²Ð¾Ð¿ÑĢÐ¾ÑģÑĭ": 5292,
      "ĠÐ¾Ð±Ð¾ÑĢÑĥÐ´": 5293,
      "ĠÑģÐ½Ðµ": 5294,
      "Ð²ÐµÐ»Ð¸": 5295,
      "ĠÑħÐ¾Ð´Ð¸": 5296,
      "ĠÐ¼Ð½ÐµÐ½Ð¸Ðµ": 5297,
      "Ġ#": 5298,
      "ÑģÐºÐ¾Ð»ÑĮÐºÐ¾": 5299,
      "ĠÐ¦Ð¸": 5300,
      "ÐºÐ¾Ð»Ðµ": 5301,
      "Ð¼Ð°Ð½Ð°": 5302,
      "Ð¾Ð²Ð¾Ð³Ð¾": 5303,
      "Ð¾Ð²Ð°Ð½Ð¸Ñİ": 5304,
      "Ð½ÑĮÑĪÐµ": 5305,
      "em": 5306,
      "ĠÐ½Ð°Ðº": 5307,
      "Ð½ÐµÑĤÐµ": 5308,
      "ĠÑģÐ¾ÑĨÐ¸": 5309,
      "ÐĴÑģÐµ": 5310,
      "ĠÑģÐ¾Ð±Ð°": 5311,
      "ĠÑĩÐ»ÐµÐ½Ð¾Ð²": 5312,
      "ĠÐ²Ð¾Ð·Ð´ÑĥÑĪ": 5313,
      "ĠÐºÐ¾Ð¼Ð¸Ñģ": 5314,
      "ÑĥÐ»ÑĮÐ¼Ð°Ð½": 5315,
      "ÐºÐ¾Ð¼Ñĥ": 5316,
      "Ð½Ð¾Ð³Ð¸Ðµ": 5317,
      "ĠÐºÐ¾Ð¼Ð¿Ð¾Ð½": 5318,
      "ĠÐ²ÐµÑĢÑģÐ¸Ð¸": 5319,
      "ÑģÐºÐ¾ÑĢÐµ": 5320,
      "ĠÐ¾ÐºÑĢÑĥÐ³Ð°": 5321,
      "ĠÐŁÑĢÐµÐ·Ð¸Ð´ÐµÐ½ÑĤ": 5322,
      "ĠÐ¡Ð¡Ðł": 5323,
      "ĠÑĥÐ¼Ðµ": 5324,
      "ÑĢÐ¾Ð²Ð°ÑĤÑĮÑģÑı": 5325,
      "Ð²ÑĪÐµÐµ": 5326,
      "Ð½Ð¸Ð¼Ð¸": 5327,
      "ÑĢÐ¾Ð²Ð°Ð½Ñĭ": 5328,
      "ĠÑĥÑģÑĤÐ°Ð½Ð¾Ð²Ð¸": 5329,
      "ĠÐ¡Ðº": 5330,
      "ĠÐ¶Ð°Ð»": 5331,
      "ĠÐ¶ÐµÐ½Ð°": 5332,
      "ĠÑģÐ°Ð¼Ð¾Ð¹": 5333,
      "ĠÐľÐ°ÑĢÐ¸": 5334,
      "ĠÐ®Ð¶Ð½Ð¾Ð¹": 5335,
      "ĠÐºÐ°ÐºÐ°Ñı": 5336,
      "ĠÐ¿Ð¾Ð»ÐºÐ¾Ð²": 5337,
      "ĠÑģÐ¾Ð¶": 5338,
      "Ð·Ð°Ð»": 5339,
      "Ð¸Ð·Ð¼Ð°": 5340,
      "ĠÐ¿Ð°Ð¼ÑıÑĤÐ¸": 5341,
      "ĠÑĦÐ¾ÑĢÐ¼Ðµ": 5342,
      "Ð³Ð½Ð°": 5343,
      "ÑĤÐµÑĢÐ½Ð°": 5344,
      "ĠÐ¸ÑģÐ¿Ð¾Ð»ÑĮÐ·ÑĥÑİÑĤ": 5345,
      "ĠÐľÐ°ÐºÑģÐ¸": 5346,
      "ĠÐ·Ð´Ð¾ÑĢÐ¾Ð²ÑĮÑı": 5347,
      "ĠÐ¿ÑĢÐµÐ´Ð¿ÑĢÐ¸ÑıÑĤÐ¸Ñı": 5348,
      "ĠÐ¡Ð¸Ð¼": 5349,
      "ĠÐĺÐ½Ð´Ð¸Ð¸": 5350,
      "ĠÐ±ÐµÐ»Ð¾ÑĢÑĥÑģ": 5351,
      "ĠÐŁÐµÑĤÐµÑĢ": 5352,
      "ĠÐ²Ð¾ÑģÑģÑĤÐ°Ð½Ð¸Ðµ": 5353,
      "ĠÐ´Ð¾ÑĢÐ¾Ð³": 5354,
      "ĠÐ¼Ð¸Ð»Ð»Ð¸Ð¾Ð½Ð¾Ð²": 5355,
      "ĠÑĩÐµÑĤÑĭÑĢ": 5356,
      "ĠÑĤÐµÐ»ÐµÐ²Ð¸Ð´ÐµÐ½Ð¸Ñı": 5357,
      "ĠÐ¨Ð°": 5358,
      "ĠÐ¿Ð¾Ð»ÑĥÑĩÐ¸Ð»Ð¸": 5359,
      "ĠÑĩÐ¸ÑģÑĤ": 5360,
      "ĠÐŁÐ¾ÑĢÑĤÑĥÐ³Ð°": 5361,
      "ĠÐĴÐ¾Ñģ": 5362,
      "ĠÐ¿Ð¾ÐµÐ·Ð´": 5363,
      "Ð½Ð¾Ð²ÑĮ": 5364,
      "ĠÐ´ÑĢÑĥÐ³Ð¾Ð¼": 5365,
      "ĠÐ¿Ð¾Ð²ÐµÑĢÑħÐ½Ð¾ÑģÑĤÐ¸": 5366,
      "ÑĢÐ¾Ð²ÐºÐ¸": 5367,
      "ĠÐ¿ÑĢÐ¾ÑħÐ¾Ð´Ð¸": 5368,
      "ĠÑĢÐ¾Ð´Ð°": 5369,
      "ĠÐ¿Ð¾Ð¼Ð¾Ð³": 5370,
      "ĠÐ¾Ð±ÑīÐµÑģÑĤÐ²ÐµÐ½Ð½ÑĭÐ¹": 5371,
      "ĠÐ¸Ð·Ð¾Ð±ÑĢÐ°Ð¶": 5372,
      "ĠÐ¸Ð½ÑĤÐµÐ»Ð»ÐµÐºÑĤÐ°": 5373,
      "ĠÑĢÐ°Ð½ÑĮÑĪÐµ": 5374,
      "ĠÐºÐ¾Ð¼Ð¸ÑĤÐµ": 5375,
      "ÑģÐºÐ°ÑĤÑĮ": 5376,
      "int": 5377,
      "Ð²Ð°Ñİ": 5378,
      "ag": 5379,
      "ĠÐ´ÐµÐ»Ð¸": 5380,
      "ÐµÐ±": 5381,
      "ĠÐļÐ°ÑĤ": 5382,
      "ĠÑĦÑĥÐ½": 5383,
      "Ð¼ÑĥÐ»Ð¸": 5384,
      "á½": 5385,
      "ÐºÐµÑĢ": 5386,
      "ĠÐ½Ð°Ð³ÑĢÐ°": 5387,
      "ĠÐĲÐ·Ð¸Ð¸": 5388,
      "ĠÐ¿ÑĢÐµÐ´Ð¾ÑģÑĤÐ°Ð²": 5389,
      "ĠÐ¿ÑĢÐµÐ´Ð½Ð°Ð·Ð½Ð°": 5390,
      "ĠÐĿÐµÑģÐ¼Ð¾ÑĤÑĢÑı": 5391,
      "ĠÐĳÐµÐ»Ð¾ÑĢÑĥÑģ": 5392,
      "ĠÐĿÐ¾ÑĢÐ²Ðµ": 5393,
      "Ð´ÐµÐ½Ð°": 5394,
      "ĠÐ¡ÑĤÑĢÐ°": 5395,
      "Ġ1964": 5396,
      "ĠÑĢÐ¸Ñģ": 5397,
      "ĠÑģÑĢÐµÐ´ÑģÑĤÐ²": 5398,
      "ĠÐ°Ð²ÑĤÐ¾Ð±": 5399,
      "ÐµÐ½ÐºÐ¾": 5400,
      "Ġ1000": 5401,
      "ĠÑĤÑĥÐ´Ð°": 5402,
      "ĠÐ·Ð°ÑıÐ²": 5403,
      "ĠÐ±Ð¸Ð·Ð½Ðµ": 5404,
      "Ð¸Ð½Ð°": 5405,
      "ÑĤÐ¸Ð²Ð½Ð¾Ðµ": 5406,
      "ĠÐ´Ð¾Ð±Ñĭ": 5407,
      "Ð¾Ð¿ÑĢÐ¸Ñı": 5408,
      "ÑīÐ¸ÑħÑģÑı": 5409,
      "ĠÑĤÑĢÑĥÐ´Ð°": 5410,
      "ĠÑĢÐ¾Ð¼Ð°Ð½": 5411,
      "ĠÐ²ÐµÐ»Ð¾ÑģÐ¸Ð¿Ðµ": 5412,
      "ĠÐ½Ð°ÑħÐ¾Ð´ÑıÑĤÑģÑı": 5413,
      "ÑĪÑĤÐµÐ¹": 5414,
      "ĠÐ¿Ð¾ÑĢÑĤ": 5415,
      "Ġ1939": 5416,
      "og": 5417,
      "ĠÑĤÑĢÐµÐ½": 5418,
      "ĠÑĤÐµÐ»ÐµÐ²ÐµÐ´Ñĥ": 5419,
      "ĠÐ¾Ð¿ÑĥÐ±Ð»Ð¸ÐºÐ¾Ð²": 5420,
      "ĠÐµÐ·": 5421,
      "ĠÑģÑĢÐ°Ð²Ð½Ð¸": 5422,
      "Ð²Ð°Ð»Ð°ÑģÑĮ": 5423,
      "ĠÐ²ÑĭÐ½Ñĥ": 5424,
      "ĠÐ´Ð¸ÑģÐº": 5425,
      "ÑģÑĤÑĢÐ°Ð¸": 5426,
      "ÑĢÐ¾Ð²Ð°Ð½Ð½ÑĭÑħ": 5427,
      "ĠÐ³Ð¾Ð²Ð¾ÑĢÐ¸ÑĤ": 5428,
      "Ð´ÐµÐ»Ðµ": 5429,
      "ĠÑĤÐµÑħÐ½Ð¾Ð»Ð¾Ð³Ð¸Ð¹": 5430,
      "ĠÐĴÑĭÑģ": 5431,
      "ÑĩÑĳÐ¼": 5432,
      "ÑĢÐ¸ÐºÐ°": 5433,
      "Ġ().": 5434,
      "ĠÐļÐ¾ÑĢÐµ": 5435,
      "Ġ1973": 5436,
      "ĠÐ¿ÑĢÐ°Ð²Ð´Ð°": 5437,
      "Ð²ÑģÐµ": 5438,
      "ĠÐ²Ð¿Ð¾Ð»Ð½Ðµ": 5439,
      "Ð³ÑĢÑĥÐ¿": 5440,
      "ĠÐ¿Ð¾Ð»ÑĳÑĤ": 5441,
      "Ð½Ð¸ÐºÐ°Ð¼": 5442,
      "ĠÐ²Ð°ÑĢÐ¸Ð°Ð½ÑĤ": 5443,
      "ĠÐºÐ²Ð°Ð½ÑĤÐ¾Ð²": 5444,
      "ÐºÐ¾Ñģ": 5445,
      "ĠÐŁÐ°ÑĢÐ¸": 5446,
      "ĠÐŁÐ¾ÑģÐ»ÐµÐ´": 5447,
      "ĠÐ´Ð¾Ð±Ð°Ð²": 5448,
      "ĠÐ½Ð°Ð·Ð½Ð°ÑĩÐµÐ½": 5449,
      "ĠÐ¶ÑĥÑĢÐ½Ð°": 5450,
      "ĠÑĨÐµÐ½ÑĤÑĢÐ°": 5451,
      "ĠÑįÐºÐ¾Ð½Ð¾Ð¼Ð¸ÐºÐ¸": 5452,
      "se": 5453,
      "ĠÐľÐ¸Ñħ": 5454,
      "ĠÐ¿ÑĥÑĤÑĮ": 5455,
      "Ġ1979": 5456,
      "Ġ1950": 5457,
      "ĠÐºÐ»Ð¸ÐµÐ½ÑĤÐ°": 5458,
      "ÑĨÐ²ÐµÑĤ": 5459,
      "ĠÐĴÐ¸Ð·": 5460,
      "ĠÐĲÐ»ÐµÐºÑģÐµÐ¹": 5461,
      "Ð°Ð»ÑĮÐ½Ð¾Ð³Ð¾": 5462,
      "Ð²ÑĪÐ¸ÑħÑģÑı": 5463,
      "ĠÐ½Ð°ÑĢÐ¾Ð´Ð°": 5464,
      "ÐµÐ½Ð½Ð¾Ðµ": 5465,
      "ĠÐ»ÑĳÑĤ": 5466,
      "ĠÐ»Ð¸ÑĤÐ¾Ð²": 5467,
      "ĠÐ¿Ð¾Ð½ÑıÑĤÑĮ": 5468,
      "ĠÑģÐ¾Ð³Ð»Ð°Ñģ": 5469,
      "ĠÐ¼ÑĥÐ·ÑĭÐºÐ°Ð½ÑĤ": 5470,
      "ĠÐ´ÐµÐ¹ÑģÑĤÐ²Ð¸Ð¹": 5471,
      "ĠÑĨÐµÑĢÐºÐ¾Ð²ÑĮ": 5472,
      "ĠÑģÐ¿ÑĢÐ¾Ñģ": 5473,
      "ĠÐļÐ¸ÐµÐ²": 5474,
      "ÐĻÐ¾ÑĢ": 5475,
      "ĠÐĺÐ¼Ð¿ÐµÑĢÐ°ÑĤÐ¾ÑĢ": 5476,
      "Ġ?": 5477,
      "ĠÐ·Ð´ÑĢÐ°Ð²Ð¾Ð¾ÑħÑĢÐ°Ð½": 5478,
      "ÐºÐ¸ÑģÑĤÐ°Ð½": 5479,
      "ĠÐĶÐ¾Ð±": 5480,
      "ĠÐ²ÐµÐ´Ñĥ": 5481,
      "ĠÐ³Ð¾ÑģÑĥÐ´Ð°ÑĢÑģÑĤÐ²ÐµÐ½Ð½Ð¾Ð¹": 5482,
      "ĠÐ·ÐµÐ¼Ð»Ðµ": 5483,
      "ĠÑĩÐ¸ÑģÐµÐ»": 5484,
      "ĠÐ¸Ð½ÑĤÐµÑĢÐµÑģÐ½Ð¾": 5485,
      "ĠÐ´Ð¾ÐºÑĥÐ¼ÐµÐ½ÑĤÐ°": 5486,
      "ĠÐ³ÐµÑĢÑĨÐ¾Ð³": 5487,
      "Ð¾ÐµÐ´Ð¸": 5488,
      "ĠÑįÐºÑģÐ¿ÐµÐ´Ð¸": 5489,
      "76": 5490,
      "Ð¿Ð»Ð¾": 5491,
      "ĠÐºÐ¸ÑģÐ»Ð¾ÑĤ": 5492,
      "ĠÐ²ÑĭÐ±ÑĢÐ¾Ñģ": 5493,
      "Ð¶Ð½ÑĭÐµ": 5494,
      "ÑĢÐ¾Ð½Ð¸": 5495,
      "Ð¾Ð»ÑĮÑĦ": 5496,
      "ĠÐ¾ÑĢÐ³Ð°Ð½Ð¸Ð·Ð°ÑĨÐ¸Ñı": 5497,
      "ĠÑģÐµÐ¼ÑĮÐ¸": 5498,
      "ĠÐ¼Ð°ÑĤÐµÐ¼Ð°ÑĤÐ¸Ðº": 5499,
      "ĠÐ¡Ð¸Ð½": 5500,
      "ÐºÐ¸Ñģ": 5501,
      "Ġ45": 5502,
      "ĠÑĢÑĭÐ±": 5503,
      "ĠÐºÐ»Ð°ÑģÑģÐ°": 5504,
      "36": 5505,
      "ĠÐ¿Ð»Ð¾ÑĤ": 5506,
      "ÑĪÐºÑĥ": 5507,
      "Ð¶ÐµÐ¼": 5508,
      "ÑĦÐµÑĢÐµ": 5509,
      "ĠÐ¾ÑĤÐ»Ð¸Ñĩ": 5510,
      "Ġ1967": 5511,
      "ĠÑģÐ¼ÐµÑĪ": 5512,
      "Ð»ÑıÑĨÐ¸Ð¸": 5513,
      "ĠÐ¶Ð°Ð½": 5514,
      "ĠÐºÑĢÐ°ÑĤ": 5515,
      "ĠÑĥÑģÑĤÑĢÐ¾Ð¹ÑģÑĤÐ²Ð°": 5516,
      "Ð»ÑĮÑģÐºÐ¸Ð¹": 5517,
      "ÑģÑĤÐ²Ð¸Ð¹": 5518,
      "ĠÐ·Ð°Ð´": 5519,
      "ĠÐ¾ÑĤÑĢÐ¸ÑĨÐ°": 5520,
      "ĠÐĲÐ¼": 5521,
      "ĠÐĳÐ¾ÑĢÐ¸Ñģ": 5522,
      "Ð¾Ð²ÑĭÐ¹": 5523,
      "ÑģÑĤÐ²Ð¾Ð²Ð°Ð»": 5524,
      "ÐµÐ¼Ð°Ñı": 5525,
      "ĠÐ¾ÐºÑĢÑĥÐ¶Ð°ÑİÑīÐµÐ¹": 5526,
      "ĠÐ´ÐµÐ¿ÑĥÑĤÐ°ÑĤÐ¾Ð²": 5527,
      "ĠÐ±ÑİÐ´Ð¶": 5528,
      "ÑĨÐ°Ð¼": 5529,
      "ĠÐ¼ÐµÑĩ": 5530,
      "ĠÐºÐ¾Ð¼Ñĥ": 5531,
      "ĠÐ¾Ð±ÑīÐµÐ³Ð¾": 5532,
      "ĠÐ³Ð»Ð°Ð·Ð°": 5533,
      "ĠÐ²Ð¾Ð¹ÑģÐºÐ°Ð¼Ð¸": 5534,
      "Ð¢Ð¾": 5535,
      "ĠÐ»Ð¸ÑĤÐµÑĢÐ°ÑĤÑĥÑĢÑĭ": 5536,
      "ĠÑĢÐ¾ÑģÑĤÐ°": 5537,
      "ÑĩÐµÐ½Ð°": 5538,
      "ĠÑģÑĩÐµÑĤ": 5539,
      "ĠÑĤÐ¾Ð¹": 5540,
      "ĠÐºÐ¾Ð½ÑĤ": 5541,
      "ĠÐĿÐ°ÑĥÐºÐ°": 5542,
      "ÑĳÐ½Ð½ÑĭÐ¹": 5543,
      "ÑĦÐ¾ÑĢÐ¼": 5544,
      "ĠÑĥÑĩÐ°ÑģÑĤÐ½Ð¸Ðº": 5545,
      "ĠÐ±Ð¾Ð³Ð¾Ñģ": 5546,
      "ĠÑģÑĤÐ°ÑĤÑĥÑģ": 5547,
      "ÑĤÐ¾Ð³Ð¾": 5548,
      "ĠÐ²ÐºÐ»Ð°Ð´": 5549,
      "Ð½Ð¸Ð¼ÑĥÐ¼": 5550,
      "ĠÐ¼ÑĥÐ¶Ð¸": 5551,
      "ĠÐºÑĢÑĥÐ¿Ð½ÑĭÑħ": 5552,
      "ĠÐķÐ²ÑĢÐ¾Ð¿ÐµÐ¹": 5553,
      "ĠÐ¿ÑĢÐ¾Ð¸Ð·Ð¾ÑĪÐ»Ð¾": 5554,
      "Ġ{": 5555,
      "ĠÐ¾ÑīÑĥ": 5556,
      "Ð¶ÐµÑĤ": 5557,
      "Ġ150": 5558,
      "ith": 5559,
      "ber": 5560,
      "ĠÐĲÐ·ÐµÑĢÐ±Ð°Ð¹Ð´Ð¶": 5561,
      "Ð²ÐµÑĢÐ°": 5562,
      "ĠÐ¦ÐµÑĢ": 5563,
      "ĠÐºÐ½Ð¸Ð³Ð°": 5564,
      "47": 5565,
      "ÑĤÐ¸ÐºÑĥ": 5566,
      "ĠÐ¾Ð±Ð¾Ð·": 5567,
      "ÑĢÐ¾Ð²Ð°Ð½Ð°": 5568,
      "ĠÑĪÐ°Ñħ": 5569,
      "ĠÐ²Ð½Ð¾Ð²ÑĮ": 5570,
      "ĠÐºÑĢÐ¸Ð·Ð¸Ñģ": 5571,
      "ĠÐ´Ð¾ÑģÑĤÐ¸Ð³Ð°": 5572,
      "ĠÐ¿ÑĢÐ¾Ð¸Ð·Ð²ÐµÐ´ÐµÐ½Ð¸Ñı": 5573,
      "ÑģÑĤÐ½Ð¾": 5574,
      "Ð·Ð¸ÑĢÐ¾Ð²Ð°ÑĤÑĮ": 5575,
      "ĠÐ³ÑĢÐ°Ð½Ð¸ÑĨÑĭ": 5576,
      "Ð±ÐµÑĢÑĤ": 5577,
      "ĠÐ¾Ð±Ð¾": 5578,
      "ĠÐ¾ÑģÑĤÑĢÐ¾Ð²Ð¾Ð²": 5579,
      "ÑĢÐ°ÑĨÐ¸Ñı": 5580,
      "ĠÑĥÑĤ": 5581,
      "ĠÐ¿ÑĢÐ°Ð²Ð»ÐµÐ½Ð¸Ñı": 5582,
      "ĠÐ·Ð°Ð½Ð¸Ð¼Ð°ÐµÑĤ": 5583,
      "Î½": 5584,
      "ĠÑĤÑİ": 5585,
      "ĠÐ¤Ð¾ÑĢ": 5586,
      "ĠÐºÐ¾Ð¼Ð½Ð°": 5587,
      "ĠÐ¶Ð¸Ð´": 5588,
      "ĠÐĲÐ½Ð´ÑĢÐµ": 5589,
      "Ð¾ÑģÐµ": 5590,
      "Ð°Ð½Ð½ÑĭÑħ": 5591,
      "ĠÐ±Ð»": 5592,
      "Ġ1942": 5593,
      "ĠÑĤÑıÐ¶Ðµ": 5594,
      "Ð²Ð°ÑĢÐ¸": 5595,
      "Ð»ÐµÐ¶Ð¸": 5596,
      "ĠÐ¼Ð¾Ð½Ð°ÑĢ": 5597,
      "ĠÐ¾ÑĤÐ½Ð¾ÑĪÐµÐ½Ð¸Ð¸": 5598,
      "Ð³ÑĢÐ°Ð½": 5599,
      "ĠÐ½Ð¾ÑĢÐ¼": 5600,
      "ĠÐ¸Ð½Ð¾ÑģÑĤÑĢÐ°Ð½Ð½ÑĭÑħ": 5601,
      "48": 5602,
      "Ð²Ð¾ÑĤ": 5603,
      "ĠÐ¸ÑģÐ»Ð°": 5604,
      "ÑģÑıÑĤ": 5605,
      "ĠÐ¡ÐµÐ¼": 5606,
      "ĠÑģÐ¿ÑĥÑĤ": 5607,
      "Ġ1975": 5608,
      "ĠÐ³Ð°ÑĢÐ°Ð½": 5609,
      "ĠÐ¾ÑĤÐ½Ð¾ÑģÑıÑĤÑģÑı": 5610,
      "ÑģÐ°Ð¼": 5611,
      "ĠÐ¾Ð´Ð½Ð¾Ð²ÑĢÐµÐ¼ÐµÐ½Ð½Ð¾": 5612,
      "ĠÐ¾Ð½Ð»Ð°Ð¹Ð½": 5613,
      "ĠÐ·Ð°Ð¿ÑĢÐ¾Ñģ": 5614,
      "ÑĢÑĤÑĥÐ°Ð»ÑĮ": 5615,
      "ĠÐ½ÐµÐµ": 5616,
      "ÑĩÐ¸ÐºÐ¾Ð²": 5617,
      "ĠÐ²Ð¾ÐµÐ½Ð½Ð¾": 5618,
      "ĠÐ®ÑĢÐ¸Ð¹": 5619,
      "Ð±Ð»Ð¸Ð·Ð¸": 5620,
      "ĠÐ½ÐµÐ¿Ð¾ÑģÑĢÐµÐ´": 5621,
      "ĠÑģÐ¾ÑģÑĢÐµÐ´": 5622,
      "ĠÐ¼Ð°ÑĪÐ¸Ð½Ñĭ": 5623,
      "ÑīÐ°Ð»": 5624,
      "ĠÐ¿ÑĢÐµÐ²Ñĭ": 5625,
      "ĠÐ²ÑĭÑģÐºÐ°": 5626,
      "ĠÐºÐ¾Ð½ÑĦÐµÑĢÐµÐ½": 5627,
      "ĠÐ¼Ð¾Ð¶ÐµÐ¼": 5628,
      "ĠÐ·Ð½Ð°Ð¼ÐµÐ½Ð¸": 5629,
      "ĠÑĤÐµÑĢÑĢÐ¸ÑĤÐ¾ÑĢÐ¸Ñı": 5630,
      "ĠÐºÐ¾Ð»Ð¾Ð½Ð¸": 5631,
      "Ġret": 5632,
      "Ð´Ð¾Ð¹": 5633,
      "ĠÑģÐ¼Ð¾ÑĤ": 5634,
      "ĠÑĥÑĤÑĢÐ°": 5635,
      "Ġ1968": 5636,
      "ĠÑħÐ¾ÑĤÐµÐ»": 5637,
      "ĠÑĥÑģÐ»Ð¾Ð²": 5638,
      "ĠÑģÑĤÐ¾ÑĢÐ¾Ð½Ñĥ": 5639,
      "ĠÐĵÑĢÐ°Ð¶Ð´Ð°Ð½": 5640,
      "ĠÐµÐ¿Ð¸ÑģÐºÐ¾Ð¿": 5641,
      "Ð»ÑĥÐ°": 5642,
      "Ð¼Ð¾ÑģÑĤÐ¸": 5643,
      "ĠÐľÐ°ÑĢÐ¸Ñı": 5644,
      "ĠÐ°Ð½Ð°Ð»Ð¾Ð³Ð¸": 5645,
      "ht": 5646,
      "Ð²Ð°Ð»Ð¾ÑģÑĮ": 5647,
      "ĠÐ¢Ð¾": 5648,
      "ĠÐ¿Ð¾ÑģÐµÐ»": 5649,
      "ĠÑĢÐ¾Ñģ": 5650,
      "ĠÐŁÑĢÐ¾ÑģÑĤÐ¾": 5651,
      "ĠÐ²ÑĢÐµÐ¼ÐµÐ½ÐµÐ¼": 5652,
      "Ð´Ñı": 5653,
      "ĠÑĤÐ¾Ð²": 5654,
      "ĠÐĵÐ¾Ð½": 5655,
      "ĠÐŀÐ»Ð¸Ð¼Ð¿Ð¸Ð¹": 5656,
      "Ġ1988": 5657,
      "ĠÐ¼ÐµÑĢÐ¾Ð¿ÑĢÐ¸Ñı": 5658,
      "ÑĤÐ½Ð¾Ð¹": 5659,
      "ÑĤÐ¾Ðµ": 5660,
      "ĠÐ»Ñĥ": 5661,
      "Ð²ÑĪÐ¸Ð¹ÑģÑı": 5662,
      "ĠÐ¸Ð·Ð¾Ð±ÑĢÐµÑĤÐ°": 5663,
      "ĠÐĲÐº": 5664,
      "ÐĿÐ¸": 5665,
      "ĠÐłÐµÑģÐ¿ÑĥÐ±Ð»Ð¸ÐºÐ°": 5666,
      "ÑıÐ·Ñĭ": 5667,
      "ÑĢÐ¾ÑĤÐ¸Ð²": 5668,
      "ĠÐ²Ð¾Ð·Ð¾Ð±Ð½Ð¾Ð²": 5669,
      "ĠÐ²ÑĢÐ°Ñĩ": 5670,
      "ÑĨÐ¸Ð¾Ð½Ð°Ð»Ð¸": 5671,
      "ĠÐºÑĢÑĥÐ³": 5672,
      "ÑĪÐµÐº": 5673,
      "Ġ%)": 5674,
      "Ġ1922": 5675,
      "ĠÐ°Ð²ÑĤÐ¾Ð¼Ð¾Ð±Ð¸Ð»ÑĮ": 5676,
      "Ð¾Ð»ÑĮÐ½ÑĭÐ¹": 5677,
      "ÑģÑĤÐ²ÐµÐ½Ð½Ð¾Ð¼": 5678,
      "Ð»Ð¸ÑĩÐ¸Ñı": 5679,
      "ĠÐĴÐ¸ÐºÑĤÐ¾ÑĢ": 5680,
      "ĠÐ½ÑĢÐ°Ð²Ð¸ÑĤÑģÑı": 5681,
      "Î¹": 5682,
      "Ð°Ð½Ð³": 5683,
      "ĠÐ°Ð´Ð°": 5684,
      "ĠÐ´ÐµÐ¹ÑģÑĤÐ²Ð¸ÑĤÐµÐ»ÑĮÐ½Ð¾": 5685,
      "Ð¶Ð½ÑĭÐ¹": 5686,
      "ĠÐ½ÐµÐ¿ÑĢÐµ": 5687,
      "Ð½ÐµÐ²Ðµ": 5688,
      "ĠÐ»ÑİÐ±Ð¸": 5689,
      "ĠÑĤÐµÐ¼Ð¿ÐµÑĢÐ°ÑĤÑĥÑĢÑĭ": 5690,
      "ĠÐļÐŁÐ¡Ð¡": 5691,
      "Ð°Ð½ÑģÐºÐ¸Ð¹": 5692,
      "ĠÑĦÐ°Ð½ÑĤÐ°": 5693,
      "ÑģÐ¿Ð¾ÑĢÑĤ": 5694,
      "ÑĩÐµÐ½Ð¾": 5695,
      "ĠÐºÐ¾ÑĢÐ¾ÑĤ": 5696,
      "ĠÐ¨Ð¸": 5697,
      "ĠÐ¸Ð¼ÐµÐ»": 5698,
      "Ð¸Ð¼Ð¾ÑģÑĤÑĮ": 5699,
      "ĠÐĴÐ¸Ð»ÑĮÐ³ÐµÐ»ÑĮ": 5700,
      "ĠÐ£Ð¸Ð»ÑĮÑıÐ¼": 5701,
      "ĠÑĩÑĢÐµÐ·": 5702,
      "ĠÐ¸Ð½Ð²ÐµÑģÑĤÐ¸": 5703,
      "ĠÐ¼Ð¸Ð½Ð¸Ð¼ÑĥÐ¼": 5704,
      "ĠÐ±Ð¾Ð»ÑĮÑĪÐ¸Ðµ": 5705,
      "ĠÑĢÐ°Ð±Ð¾ÑĩÐ¸Ñħ": 5706,
      "Ġ1987": 5707,
      "ĠÐ¸Ð·Ð²ÐµÑģÑĤÐ½ÑĭÐ¹": 5708,
      "Ð»Ð°ÑĤÑĭ": 5709,
      "ĠÑĤÐµÑĢÐ¼Ð¸Ð½": 5710,
      "ĠÑĥÑĩÐµÐ½Ð¸": 5711,
      "ĠÐ³ÐµÑĢÐ¼Ð°Ð½": 5712,
      "ĠÐ³ÑĢÐ¸": 5713,
      "ÑĢÐ¾Ð²Ð¸Ñĩ": 5714,
      "ĠÐłÑĥÑģÐ¸": 5715,
      "ec": 5716,
      "ub": 5717,
      "ĠÑģÐµÑĤÑĮ": 5718,
      "ĠÑĢÐ°ÑģÑĤÐ¸": 5719,
      "ĠÑĢÑĥÐºÐ¸": 5720,
      "ĠÐ²Ð¾Ð·Ð½Ð¸ÐºÐ°": 5721,
      "Ġ175": 5722,
      "ĠÐµÐ²ÑĢÐµÐ¹": 5723,
      "ĠÐļÐ¾ÑĢÐ¾Ð»ÐµÐ²": 5724,
      "ĠÑĦÐ¸Ð³Ñĥ": 5725,
      "ĠÑģÐºÐ¾ÑĢÐ¾ÑģÑĤÑĮ": 5726,
      "ĠÐ½ÐµÐ±Ð¾Ð»ÑĮ": 5727,
      "Ð¾Ñī": 5728,
      "ÑģÑĤÑĢÐ¸Ð¸": 5729,
      "ĠÐĿÐ°Ð¸Ð±Ð¾Ð»ÐµÐµ": 5730,
      "ĠÐĽÐµÐ½Ð¸Ð½Ð°": 5731,
      "ĠÐ¿ÑĢÐ¸Ð²ÐµÐ»Ð¾": 5732,
      "ĠÐ¿Ð°ÑĤÑĢÐ¸": 5733,
      "33": 5734,
      "Ð°Ð¼ÐµÑĢÐ¸ÐºÐ°Ð½": 5735,
      "ĠÐ¶Ð¸ÑĤÑĮ": 5736,
      "ĠÐ¿Ð¾Ð»Ð¸ÑĤÐ¸ÐºÐ¸": 5737,
      "ĠÑģÐ½Ð°": 5738,
      "ĠÐ¸ÑĤÐ¾Ð³Ðµ": 5739,
      "ÑĤÐ¸ÑĢÐ¾Ð²Ð°ÑĤÑĮ": 5740,
      "ÑģÑĤÐ°Ð¼Ð¸": 5741,
      "ÐŁÐ¾Ð´": 5742,
      "ĠÐ±Ð¾Ð»ÑĮÑĪÐ¸Ñħ": 5743,
      "ÑģÑĤÐ°Ð²Ð¸Ð»": 5744,
      "ĠÐ¼ÑĭÑģ": 5745,
      "ÐºÐ°Ð·Ð°Ð½": 5746,
      "Ð´ÐµÑĪÑĮ": 5747,
      "Ġ1962": 5748,
      "Ð´Ð°Ð½Ð¸Ð¹": 5749,
      "ĠÐ¿Ð¾Ð»ÑĮÑģÐºÐ¸Ð¹": 5750,
      "ÑģÑĳ": 5751,
      "ĠÐ¼ÐµÑĤÐ°": 5752,
      ":.<|": 5753,
      "Ð½Ð¸ÑĨÐ¸": 5754,
      "ÑįÐ»": 5755,
      "ĠÑģÐ²Ð¾ÑĳÐ¼": 5756,
      "ĠÑģÐ¸Ñħ": 5757,
      "Ġ1943": 5758,
      "ĠÑģÑĤÐ°Ð½Ð¾Ð²": 5759,
      "ĠÐ´ÑĢÑĥÐ·ÑĮÑı": 5760,
      "ĠÐºÐ¾ÑĤ": 5761,
      "Ð¼ÐµÐ½Ð½Ð¾": 5762,
      "ĠÐ¼Ð°Ð³Ð¸": 5763,
      "ĠÑĨÐµÐ½ÑĤÑĢÐµ": 5764,
      "ĠÐ¾ÑĤÐ½Ð¾ÑĪÐµÐ½Ð¸Ð¹": 5765,
      "ĠÐ²ÐµÑīÐµÑģÑĤÐ²Ð°": 5766,
      "ÐµÐ´Ñĭ": 5767,
      "ĠÐ¿Ð¾Ð¼Ð¾ÑīÑĮ": 5768,
      "ĠÐĴÐĴÐŁ": 5769,
      "ĠÐ·Ð²ÐµÐ·": 5770,
      "ĠÐ²ÑĭÐ·ÑĭÐ²Ð°": 5771,
      "Ġ%),": 5772,
      "Ð´ÐµÑģ": 5773,
      "ĠÐºÐ°Ð·": 5774,
      "ÐºÐ¾Ð²Ð¾Ð¹": 5775,
      "ĠÐ¤Ð¸": 5776,
      "ĠÐĹÐµÐ»": 5777,
      "ĠÐ¿ÑĢÐ¾Ð´ÑĥÐºÑĤÑĭ": 5778,
      "Ð¼Ð¾ÑĤÑĢÐµÐ»": 5779,
      "ÑĩÐ½ÑĭÐ¼Ð¸": 5780,
      "ĠÑģÐµÑĤ": 5781,
      "Ð¾Ð´ÐµÐ»ÑĮ": 5782,
      "ĠÐŁÐ¾Ð²": 5783,
      "Ð´ÐµÑĢÐ¶": 5784,
      "ĠÐ¸Ð½ÑĤÐµÑĢÐ½ÐµÑĤ": 5785,
      "ĠÐŀÑģÐ½Ð¾Ð²Ð½ÑĭÐµ": 5786,
      "ĠÑģÐ¾Ð¼": 5787,
      "ĠÑģÐ¾ÑĢ": 5788,
      "ĠÐ·Ð¾Ð»Ð¾ÑĤ": 5789,
      "ĠÐ½ÐµÐ¿ÑĢÐ¸": 5790,
      "ĠÐ¡Ð¾ÐµÐ´Ð¸Ð½": 5791,
      "ĠÑĢÐµÑĩÑĮ": 5792,
      "ĠÑģÑĤÑĢÐ¾Ðº": 5793,
      "ÐŁÐ¾Ñĩ": 5794,
      "ĠÐ¿ÐµÑĢÐµÐ¼Ðµ": 5795,
      "ĠÑĢÐ°ÑģÐ¿Ð¾Ð»Ð°Ð³Ð°": 5796,
      "ĠÐłÐ°ÑģÐ¿": 5797,
      "ĠÐ¸ÑģÐºÑĥÑģÑģÑĤÐ²ÐµÐ½Ð½Ð¾Ð³Ð¾": 5798,
      "ÑĥÐ²": 5799,
      "ĠÐ·Ð°Ð¼ÐµÐ½": 5800,
      "ĠÐĲÑĤ": 5801,
      "Ð¶Ð´ÐµÐ½Ð¸Ð¹": 5802,
      "Ġ170": 5803,
      "ĠÑĤÐµÑħÐ½Ð¾Ð»Ð¾Ð³Ð¸": 5804,
      "ĠÐĲÐ½Ð´ÑĢÐµÐ¹": 5805,
      "ĠÐ¿ÐµÑĢÐµÐ²Ð¾Ð´ÑĩÐ¸Ðº": 5806,
      "ĠÐŀÑĤÐµÑĩÐµ": 5807,
      "ĠÐ¿ÐµÐ½": 5808,
      "ĠÑģÐ½Ð°ÑĩÐ°Ð»Ð°": 5809,
      "Ġ1946": 5810,
      "ĠÐ¿Ð¾ÑģÐ»ÐµÐ´Ð¾Ð²Ð°": 5811,
      "Ġ1905": 5812,
      "Ġreturn": 5813,
      "ÑģÑĤÐºÐ°": 5814,
      "Ð¾Ð±Ð¾ÑĢÐ¾ÑĤ": 5815,
      "ĠÐ¾ÑĢÐ±Ð¸": 5816,
      "Ġ1938": 5817,
      "ĠÐ¼ÐµÑĤÐ¾Ð´Ð¾Ð²": 5818,
      "ĠÐĲÐ»ÐµÐºÑģÐµ": 5819,
      "ĠÐĶÐµÐ¼": 5820,
      "ĠÑĢÑĥÐº": 5821,
      "ĠÐ½Ð°ÑĩÐ°Ð»Ð°ÑģÑĮ": 5822,
      "ĠÐ´ÑĥÐ¼Ð°Ð»": 5823,
      "ĠÑĥÐºÑĢÐ°Ð¸Ð½ÑģÐºÐ¸Ð¹": 5824,
      "Ġ1971": 5825,
      "Ð´Ð¾Ð½": 5826,
      "ÑįÑĤ": 5827,
      "ĠÐ¾ÑĤÐº": 5828,
      "ĠÐ¢Ð°Ð¹": 5829,
      "ĠÐĽÐµÐ¹": 5830,
      "ÐĿÐł": 5831,
      "ĠÐŃÐºÐ¾Ð½Ð¾Ð¼Ð¸": 5832,
      "ÑĢÐ°Ð»ÑĮÐ½ÑĭÑħ": 5833,
      "ĠÐĴÐ°ÑģÐ¸Ð»Ð¸Ð¹": 5834,
      "ĠÑįÐ¿Ð¾ÑħÐ¸": 5835,
      "ĠÑĥÐ±Ð¸ÑĤ": 5836,
      "ĠÐ¿ÑĢÐ¸Ð²Ð»ÐµÐºÐ°": 5837,
      "ĠÐ¢Ð¾Ð»ÑĮÐºÐ¾": 5838,
      "ĠÐ°ÑĢÐ³Ñĥ": 5839,
      "ction": 5840,
      "ĠÐ»Ð¸Ð½ÐµÐ¹": 5841,
      "ĠÐ¼Ð¸Ð½Ñĥ": 5842,
      "ĠÐ¸Ð·ÑĥÑĩÐ°": 5843,
      "ĠÐĵÐµÐ½Ðµ": 5844,
      "ĠÐĽÐµÐ²": 5845,
      "ÐŀÐ´": 5846,
      "Ð·Ð¾ÑĢ": 5847,
      "Ð¾Ð³Ð°Ð½": 5848,
      "ĠÐļÑĢÑĥÐ¿": 5849,
      "Ð¹ÑĤÐµÑģÑĮ": 5850,
      "ÑĢÐ¾Ð²Ð°Ð½Ð¾": 5851,
      "Ġ1965": 5852,
      "ĠÐ³Ð¾Ð²Ð¾ÑĢÑıÑĤ": 5853,
      "ĠÐ·ÐµÑĢ": 5854,
      "ĠÐ¿Ð¾Ð·Ð¶Ðµ": 5855,
      "Ð´ÑĮÐ¼Ð¸": 5856,
      "Ġ300": 5857,
      "ĠÐĽÑİÐ´": 5858,
      "ĠÐ¿ÑĥÐ±Ð»Ð¸ÑĨÐ¸ÑģÑĤ": 5859,
      "ÑĥÑı": 5860,
      "ĠÐļÐ°Ð½": 5861,
      "ĠÐ¼ÐµÑĤÑĢÐ¾Ð²": 5862,
      "ĠÐĴÐµÐ»Ð¸ÐºÐ¾Ð¹": 5863,
      "ĠÐ²Ð¾ÐµÐ½Ð½ÑĭÑħ": 5864,
      "ĠÐ³Ð°ÑĢ": 5865,
      "ĠÐ¿Ð¾ÑıÐ²Ð»Ñı": 5866,
      "ÑĩÐ¸Ð½Ð°Ñı": 5867,
      "ĠÑģÐ¼ÑĭÑģÐ»Ðµ": 5868,
      "38": 5869,
      "ÑĢÐµÐ³Ð¸": 5870,
      "ĠÐ¿Ð°ÑĢÑĥ": 5871,
      "ÐµÐ½ÑģÐºÐ¸Ð¹": 5872,
      "ĠÐ¸Ð»": 5873,
      "Ġ1961": 5874,
      "ĠÐ¿ÑĢÐ¾ÐµÐºÑĤ": 5875,
      "ĠÐ²Ð¾Ð²": 5876,
      "ĠÑĩÑĤÐ¾Ð±": 5877,
      "ĠÑĤÐµÐ»ÐµÑĦÐ¾Ð½": 5878,
      "ĠÑĥÐ¿ÑĢÐ°Ð²Ð»ÐµÐ½Ð¸Ðµ": 5879,
      "ĠÐ²Ð¾ÑģÐ¿": 5880,
      "ĠÐ³Ð°Ð·Ð°": 5881,
      "ĠÑĤÐµÐ¾ÑĢÐ¸Ñı": 5882,
      "96": 5883,
      "Ð³Ð¾Ð»ÑĮ": 5884,
      "ĠÐ±ÑĢÐ°ÑĤ": 5885,
      "ÑīÐµÐ½Ñĭ": 5886,
      "Ð¾ÑĤÐ²ÑĢÐ°": 5887,
      "ÑģÑĤÐ²Ð¸ÐµÐ¼": 5888,
      "ĠÐ´ÐµÐº": 5889,
      "|>Â«": 5890,
      "ĠÐ¾Ð±Ð²Ð¸": 5891,
      "Ð°Ð»ÑĥÐ¹": 5892,
      "Ġ1937": 5893,
      "ĠÑģÐ¾ÑģÑĤÐ¾ÑıÐ½Ð¸Ñı": 5894,
      "ĠÐºÐ¾Ð½ÑĤÑĢÐ¾Ð»ÑĮ": 5895,
      "ĠÐ¾ÐºÐ¾Ð½ÑĩÐ°": 5896,
      "ĠÐŃÐ´": 5897,
      "Ð¢Ð¾Ð³Ð´Ð°": 5898,
      "Ġ1969": 5899,
      "ĠÐĴÑģÐµÐ¼Ð¸ÑĢ": 5900,
      "ĠÐłÐ¸ÑĩÐ°": 5901,
      "ĠÐ¿Ð¾Ð»ÑĥÑĩÐµÐ½Ð¸Ñı": 5902,
      "ĠÐ¾Ð±Ð¾Ð·Ð½Ð°": 5903,
      "ĠÐĲÑħ": 5904,
      "ÐľÐ¾Ð¶ÐµÑĤ": 5905,
      "ĠÐ¿ÑĢÐ¾ÑĨÐµÑģÑģÐ°": 5906,
      "Ð²ÐºÐ°Ð·": 5907,
      "ĠÐºÑĢÐµÐ´Ð¸": 5908,
      "Ð¶Ð½Ð¾": 5909,
      "Ð½Ð¸ÐºÐµ": 5910,
      "ĠÐŁÑĥÑĪ": 5911,
      "ĠÐľÐ°Ð»": 5912,
      "ĠÑĢÐ°Ð·Ð²Ðµ": 5913,
      "ĠÑĢÐ¾Ð¶Ð´ÐµÐ½Ð¸Ñı": 5914,
      "ĠÐ³ÑĢÐ°Ð¼": 5915,
      "Ð¾Ð½ÐµÑĩÐ½Ð¾": 5916,
      "ĠÐ¿ÑĢÐµÐ´ÑģÑĤÐ°Ð²Ð¸ÑĤÐµÐ»ÐµÐ¹": 5917,
      "95": 5918,
      "Ð¾Ð»Ñĥ": 5919,
      "ÐŀÐ¿Ð¸ÑĪÐ¸ÑĤÐµ": 5920,
      "ÑĳÐ½Ð½Ð¾Ð¹": 5921,
      "Ð¾ÑĢÐ¾ÑĤÐ°": 5922,
      "ĠÐ°Ð½Ð°Ð»Ð¸Ð·": 5923,
      "ĠÐ¾ÑģÑĤÑĢÐ¾Ð²Ðµ": 5924,
      "ĠÑģÐ¼ÑĭÑģÐ»": 5925,
      "ĠÐ¿ÑĢÐ¾Ð³ÑĢÐ°Ð¼Ð¼Ð¸ÑĢÐ¾Ð²Ð°Ð½Ð¸Ñı": 5926,
      "ĠÑģÐ¾ÑģÑĢÐµÐ´Ð¾ÑĤÐ¾": 5927,
      "ÑĪÐµÐ½Ð°": 5928,
      "ÑīÐµÐ¼Ñĥ": 5929,
      "ĠÑħÑĢÐ°Ð½Ð¸": 5930,
      "ĠÑħÑĥÐ¹": 5931,
      "ĠÑįÐ»ÐµÐ¼ÐµÐ½ÑĤÑĭ": 5932,
      "ĠÐ¾Ð¿ÐµÑĢÐ°ÑĨÐ¸Ð¸": 5933,
      "ĠÐĴÑĮÐµÑĤ": 5934,
      "ĠÐľÐ½Ð¾Ð³Ð¸Ðµ": 5935,
      "ĠÐ»ÑİÐ±Ð¾Ð²": 5936,
      "ĠÑĢÐ°Ð·ÑĢÐ°Ð±Ð¾ÑĤÐºÐ¸": 5937,
      "ĠÐ¡ÐŁ": 5938,
      "ĠÑĤÑĢÐ°Ðº": 5939,
      "ĠÐ¶ÐµÑĢÑĤ": 5940,
      "Ð¼ÑĭÐ¼": 5941,
      "ĠÐ¿ÑĢÐ¸Ð¼ÐµÐ½Ñı": 5942,
      "ĠÑĥÑģÐ»ÑĥÐ³": 5943,
      "Ġan": 5944,
      "ĠÑģÐ½Ñı": 5945,
      "ĠÐ½Ð°ÑģÑĤ": 5946,
      "Ð¢Ð°": 5947,
      "ĠÐ½Ð¾Ð²Ð¾Ðµ": 5948,
      "ĠÐ¿Ð¸ÑīÐµ": 5949,
      "ĠÐŁÐ°Ð²ÐµÐ»": 5950,
      "ĠÐºÐ°ÑĢÑĤÐ¸Ð½": 5951,
      "ĠÐ¸Ð½Ð´Ð¸Ð²Ð¸Ð´Ñĥ": 5952,
      "Ð»Ð¸Ñİ": 5953,
      "ÐĲÐĿ": 5954,
      "Ð¾Ð³ÑĢÐ°Ð´": 5955,
      "Ġ1984": 5956,
      "ĠÐ²Ð¾Ð´Ñĥ": 5957,
      "ĠÐ¸ÑģÑĤÐ¾ÑĩÐ½Ð¸ÐºÐ¾Ð²": 5958,
      "Ð¼Ð¾Ð¼": 5959,
      "ÑĩÐ¸Ð¹": 5960,
      "ĠÐ±Ð»Ñİ": 5961,
      "ÐºÐ¾ÑģÑĤÑĮ": 5962,
      "ÑħÑĥÐ¹": 5963,
      "ĠÐ´Ð¸Ð¿Ð»Ð¾Ð¼Ð°ÑĤÐ¸ÑĩÐµÑģÐºÐ¸Ðµ": 5964,
      "Ð³ÐµÑĤÐ¸": 5965,
      "ĠÐĽÐ°ÑĤ": 5966,
      "ĠÑģÐ°Ð½": 5967,
      "Ð¿Ð°Ð½": 5968,
      "ĠÐ¾Ð´Ð¸Ð½Ð°": 5969,
      "ĠÑĥÐ´Ð¸": 5970,
      "ĠÐļÐ°Ð¼": 5971,
      "ÑĢÐ¾Ð²Ð¾Ð¹": 5972,
      "ÑģÑĤÐ²ÐµÐ½Ð½ÑĥÑİ": 5973,
      "ĠÐ»ÑİÐ´ÑĮÐ¼Ð¸": 5974,
      "ĠÐ²ÑĭÐ±Ð¾ÑĢÐ¾Ð²": 5975,
      "ĠÐĳÐ¾Ð»Ð³Ð°": 5976,
      "Ð»ÐµÐ½Ð½Ð¾": 5977,
      "ĠÐ±ÐµÑģÐº": 5978,
      "ĠÑģÐ¾Ð´ÐµÑĢÐ¶Ð°": 5979,
      "ĠÐ¼Ð¸Ð½ÑĥÑģ": 5980,
      "ĠÑĥÐ´Ð¾Ð²Ð»ÐµÑĤÐ²Ð¾ÑĢ": 5981,
      "ap": 5982,
      "Ġ$": 5983,
      "ĠÐºÐ¾Ð¿": 5984,
      "Ð¶Ð¸Ð»": 5985,
      "ĠÐĲÐ»Ð¸": 5986,
      "ĠÑħÐ¾Ð´": 5987,
      "Ġ1982": 5988,
      "ĠÐ´Ð¾Ð»Ð¶Ð½Ð¾ÑģÑĤÑĮ": 5989,
      "Ġ1974": 5990,
      "ĠÐ½Ð°Ð¿ÑĢÐ°Ð²Ð»ÐµÐ½Ð¸Ñı": 5991,
      "ĠÑģÐ¾Ð±ÑĭÑĤÐ¸Ð¹": 5992,
      "Ð±Ð¸Ð»": 5993,
      "Ġ1976": 5994,
      "Ġ1978": 5995,
      "ĠÐ¾ÐºÐºÑĥ": 5996,
      "ĠÐ¸ÑģÐ¿Ð°Ð½ÑģÐºÐ¸Ð¹": 5997,
      "Ð´Ð°Ð½Ð¸Ð¸": 5998,
      "Ñĸ": 5999,
      "ĠÐ¼ÑĥÐ»ÑĮ": 6000,
      "ĠÑįÐ¿Ð¸": 6001,
      "ĠÐłÐµÐ»Ð¸": 6002,
      "ĠÐ½Ð°ÑĩÐ°Ð»Ð¾ÑģÑĮ": 6003,
      "ĠÐ¿Ð¾Ð·Ð²Ð¾Ð»Ð¸": 6004,
      "Ġ1963": 6005,
      "ÑģÐµÑĢÐ²Ð°": 6006,
      "ĠÐĴÐµÐ½Ð³": 6007,
      "Ġ1986": 6008,
      "ÑħÐ¾ÑĤÐ²Ð¾ÑĢ": 6009,
      "ĠÐ½ÐµÐ½Ð°": 6010,
      "ÑħÐ¾Ð¹": 6011,
      "ÑĳÐ³": 6012,
      "ĠÐŁÐ¾Ð¿": 6013,
      "ĠÐ¾ÑĤÐ´ÑĭÑħ": 6014,
      "ĠÐ¿Ð¾Ð´ÑħÐ¾Ð´": 6015,
      "ĠÐ¿Ð¾ÑģÑĢÐµÐ´": 6016,
      "Ġ1972": 6017,
      "Ġ1925": 6018,
      "ĠÑĨÐ²ÐµÑĤÐ°": 6019,
      "ĠÐ¿Ð¸ÑģÑĮÐ¼Ð¾": 6020,
      "ĠÐŁÐ¾ÑįÑĤÐ¾Ð¼Ñĥ": 6021,
      "Ð½Ð¸ÑĨÐ¸Ð¿Ð°": 6022,
      "ĠÑĤÑĥÑĢÐµ": 6023,
      "34": 6024,
      "qu": 6025,
      "Ð´ÐµÐ½Ð¸Ðµ": 6026,
      "ÑĢÐ¸ÐµÐ¹": 6027,
      "ĠÐ·Ð´Ð°Ð½Ð¸Ñı": 6028,
      "Ð¢Ðµ": 6029,
      "ÐºÐ»Ð°Ð´Ñĭ": 6030,
      "ĠÐ¿ÑĢÐµÐ´Ð¿ÑĢÐ¸Ð½Ð¸Ð¼Ð°": 6031,
      "Ð¾ÑģÐ¸Ð±Ð¸ÑĢ": 6032,
      "ĠÑĤÑĥÑĢÐ¸": 6033,
      "ĠÐ´Ð¾ÐºÐ°Ð·Ð°": 6034,
      "ĠÐ¾Ð±ÑīÐµÑģÑĤÐ²": 6035,
      "ÐĵÐ£": 6036,
      "ĠÐ¾Ð¿ÑĢÐµÐ´ÐµÐ»Ð¸ÑĤÑĮ": 6037,
      "32": 6038,
      "ĠÐ¿Ð¾ÑģÑĤÐµÐ¿": 6039,
      "ĠÑģÑĤÐ°Ð²": 6040,
      "ĠÐľÐ°ÑĢÐº": 6041,
      "ĠÐļÑĢÐ¸": 6042,
      "ĠÐ¿Ð¾Ð´ÑĥÐ¼Ð°": 6043,
      "ĠÐ¿Ð¾Ð½ÑıÑĤÐ¸Ñı": 6044,
      "ĠÐ¿Ð¾Ð½Ð¸Ð¼Ð°Ñİ": 6045,
      "ere": 6046,
      "ĠÐ»ÐµÐ´": 6047,
      "ĠÐ¨ÑĤÐ°": 6048,
      "ĠÐ¾ÑĤÐ²ÐµÑĤÑģÑĤÐ²ÐµÐ½": 6049,
      "ĠÑĩÐµÑĤÑĭÑĢÑĳÑħ": 6050,
      "ĠÑĢÐµÑĩÐ¸": 6051,
      "Ð¢Ð°Ð¼": 6052,
      "ĠÐĲÐ¼ÐµÑĢÐ¸ÐºÐ¸": 6053,
      "ĠÑįÐºÐ¸Ð¿Ð°": 6054,
      "ĠÐ¼Ð°Ð¹": 6055,
      "ĠÐ³Ð¾ÑĢÐ¾Ð´Ð°Ñħ": 6056,
      "ĠÐķÐ²Ð³": 6057,
      "ĠÐ¼Ð°ÑģÑĪÑĤÐ°": 6058,
      "ĠÑģÐµÑĢÐµÐ´Ð¸Ð½Ðµ": 6059,
      "ĠÐ¯ÑĢÐ¾ÑģÐ»Ð°Ð²": 6060,
      "ÐºÐ¾Ð²ÑģÐºÐ¸Ð¹": 6061,
      "ĠÐºÐ¾Ð¼Ð¿Ð»ÐµÐºÑģ": 6062,
      "ĠÐŀÐ±ÑĢÐ°Ð·": 6063,
      "ĠÐ¾Ð±ÐµÑģÐ¿ÐµÑĩÐµÐ½Ð¸Ðµ": 6064,
      "ĠÐĵÑĢÐ¸Ð³Ð¾": 6065,
      "if": 6066,
      "ĠÐ¸Ð·Ð±Ðµ": 6067,
      "ĠÑıÐ¹": 6068,
      "ĠÐ¾Ð¿Ð¸ÑģÑĭ": 6069,
      "ĠÑģÐ»ÑĥÐ¶Ð±Ñĭ": 6070,
      "ÐŀÐ½Ð°": 6071,
      "ĠÐ¿ÑĢÐ¾Ð²Ð¾Ð´": 6072,
      "ĠÐĹÐ°ÑĤÐµÐ¼": 6073,
      "ĠÐ¿Ð»Ð°ÑģÑĤÐ¸": 6074,
      "Ð»Ð°Ð½Ð´ÑģÐºÐ¸Ð¹": 6075,
      "ĠÐ¼Ð°ÑĪÐ¸Ð½Ð½Ð¾Ð³Ð¾": 6076,
      "ĠÐºÐ¾Ð½ÑĤÐ¸Ð½": 6077,
      "ĠÐ¶ÐµÐ»Ð°": 6078,
      "Ð¿ÑĢÐµÐ´ÐµÐ»Ð¸ÑĤÐµ": 6079,
      "ÑħÐ¾Ð´Ð¸ÑĤÑĮ": 6080,
      "ÐµÐ»Ð¾Ð²ÐµÐº": 6081,
      "ĠÐ¸ÑģÐºÐ»ÑİÑĩÐ¸": 6082,
      "ĠÐºÐ°ÑĢÑĤÐ¾": 6083,
      "ĠÑĤÑĢÐµÐ½ÐµÑĢ": 6084,
      "Îµ": 6085,
      "Ð¼ÑĭÑħ": 6086,
      "ÑĤÐµÑĢÐµÑģ": 6087,
      "ÑįÐ¼": 6088,
      "ĠÐ¼ÐµÐ¶": 6089,
      "ĠÐ´ÑĢÑĥÐ³Ð¾Ðµ": 6090,
      "ÑĨÐ¸Ð¾Ð½Ð½Ð°Ñı": 6091,
      "ÐŀÐ±ÑĬÑıÑģ": 6092,
      "Ð»Ð°Ðº": 6093,
      "ĠÐŀÐ¼": 6094,
      "ÑĤÐ¸Ð²Ð½Ð¾Ð³Ð¾": 6095,
      "ĠÑĤÑĢÐ¾Ð»": 6096,
      "ĠÐ¿ÑĢÐµÐ´Ð¾ÑĤÐ²ÑĢÐ°": 6097,
      "ĠÐ·Ð½Ð°ÐµÑĤ": 6098,
      "ĠÑĩÐµÐ¼Ð¿Ð¸Ð¾Ð½Ð°": 6099,
      "ĠÐ¿ÑĢÐµÐ´ÑģÑĤÐ°Ð²Ð¸ÑĤÐµÐ»ÑĮ": 6100,
      "ĠÐºÐ¾Ð¼Ð°Ð½Ð´Ñĭ": 6101,
      "85": 6102,
      "Ð²Ð¸Ð»Ð¸": 6103,
      "ĠÐĲÐºÐ°Ð´Ðµ": 6104,
      "Ġ1983": 6105,
      "ĠÐ¾Ð±ÑĬÐµÐºÑĤÐ¾Ð²": 6106,
      "ĠÐ¿Ð°Ðº": 6107,
      "ĠÐ¿Ð»Ð°Ð²": 6108,
      "Ð¾Ð¶Ð°": 6109,
      "ĠâĢĵ": 6110,
      "Ð¸Ð½Ð³Ð²Ð¸": 6111,
      "ĠÐłÐ¾Ð±ÐµÑĢÑĤ": 6112,
      "ÑģÑĤÑĮÑı": 6113,
      "Ġ1921": 6114,
      "ĠÑĦÐ°ÐºÑĤ": 6115,
      "ĠÐĵÐµÐ½ÑĢÐ¸": 6116,
      "ĠÑģÐ½Ð¾Ð²Ð°": 6117,
      "ĠÐ½Ð¾ÑģÐ¸": 6118,
      "Ġ1981": 6119,
      "ĠÐ¿ÑĢÐ¾ÑĤÑıÐ¶ÐµÐ½Ð¸Ð¸": 6120,
      "Ð°Ð½ÑĤÐ¸Ð¹": 6121,
      "ÐµÐ¼Ð¾Ðµ": 6122,
      "ĠÐ¢ÑĢÐ°Ð½": 6123,
      "ĠÑĢÐ°Ð·Ð±Ð¸": 6124,
      "ĠÐŁÐ¾ÑĩÑĳÑĤ": 6125,
      "Ð´ÐµÐ½ÑĤÐ¸": 6126,
      "Ġ1966": 6127,
      "ĠÐļÐ¸ÑĤÐ°Ñı": 6128,
      "ĠÐ²Ð¸Ð·Ñĥ": 6129,
      "ĠÐ¼ÑĥÑģÑĥÐ»ÑĮÐ¼Ð°Ð½": 6130,
      "86": 6131,
      "ĠÐ²ÑģÑĤÑĥÐ¿Ð¸": 6132,
      "ĠÐĴÐ¸Ð½": 6133,
      "Ð¿Ð¸ÑĤ": 6134,
      "ĠÐ»Ð¸ÑĨÐ°": 6135,
      "ĠÐ²Ð¸Ð´Ñĭ": 6136,
      "ĠÐ½Ð°ÑĢÐ¾Ð´Ð½Ð°Ñı": 6137,
      "ĠÐ¿ÑĥÐ½Ðº": 6138,
      "ĠÐ±ÑĥÑĢ": 6139,
      "ĠÐ»Ð¾Ðº": 6140,
      "ĠÑģÑĤÑĢÐ°Ð½Ñĥ": 6141,
      "ie": 6142,
      "Ð»Ð¸ÑĤ": 6143,
      "ÑħÐ¸Ð¼Ð¸": 6144,
      "ĠÐļÐ°ÑĢÐ°": 6145,
      "ĠÑģÑĢÐ°Ð²Ð½ÐµÐ½Ð¸Ñİ": 6146,
      "ĠÐĺÐ·ÑĢÐ°Ð¸": 6147,
      "ĠÐĶÑĢÑĥÐ³Ð¸": 6148,
      "ĠÐŃÐ½": 6149,
      "ĠÐºÐ¾Ð½ÑĨÐµÐ½ÑĤ": 6150,
      "ĠÑģÐ¿Ð¾ÑĢÑĤÐ°": 6151,
      "Ġ:.": 6152,
      "ĠÑĢÐ°Ð±Ð¾ÑĤÐ°ÑİÑĤ": 6153,
      "ĠÐºÐ¾Ð»Ð¾": 6154,
      "ĠÐ±Ð¾Ð»ÑĮÑĪÐ°Ñı": 6155,
      "ĠÑįÐºÑģÐ¿Ð»ÑĥÐ°": 6156,
      "ĠÐ¿ÑĢÐµÐ´ÑģÐµÐ´Ð°": 6157,
      "Ð»Ð¸ÑĤÐµ": 6158,
      "ĠÐ¢Ð¾ÑĢ": 6159,
      "ĠÐĶÐ¶ÐµÐ¹Ð¼": 6160,
      "ĠÐ³Ð¸Ð¿Ð¾ÑĤÐµ": 6161,
      "Ð³Ð¾Ð»": 6162,
      "ĠÑĤÐ°Ð±Ð»Ð¸": 6163,
      "ĠÑħÑĢÐ°": 6164,
      "ĠÑĤÐ°ÐºÐ¸Ð¼Ð¸": 6165,
      "ÑĢÐ°Ð»ÑĮÐ½Ð°Ñı": 6166,
      "ĠÐ´ÐµÐ»Ð°ÑİÑĤ": 6167,
      "Ġpro": 6168,
      "Ð¸ÑĤÑĮÑģÑı": 6169,
      "ĠÐ½ÐµÐ±Ðµ": 6170,
      "ÑĨÐ¸Ð½": 6171,
      "ĠÑĢÐµÑĪÐ°": 6172,
      "ĠÐłÐ¸Ð¼ÑģÐºÐ¾Ð¹": 6173,
      "ÐŀÐ±ÑĬÑıÑģÐ½Ð¸ÑĤÐµ": 6174,
      "ÑģÑĤÐ¾Ð½": 6175,
      "ÐµÐ½Ð½ÑĭÐ¼": 6176,
      "Ġ1947": 6177,
      "ĠÑĤÑıÐ¶": 6178,
      "ĠÐĽÐ¸Ð½": 6179,
      "ĠÐĿÐ°ÑģÐµ": 6180,
      "ĠÑģÐ¾Ð·Ð´Ð°Ð½Ð¸Ð¸": 6181,
      "ĠÐ³Ð¾Ð»Ð¾ÑģÐ¾Ð²": 6182,
      "Ġ'": 6183,
      "ÐµÑģÐ»Ð¸": 6184,
      "Ð½ÐµÐ¼Ñĥ": 6185,
      "ÑĤÐµÐ»Ñİ": 6186,
      "ĠÑģÐ¾Ð¾Ð±ÑīÐµ": 6187,
      "ĠÐ¿ÑĢÐ¾ÑĦÐµÑģÑģÐ¾ÑĢ": 6188,
      "Ġ...<|": 6189,
      "Ð¾Ð²Ð°ÑĤÑĮÑģÑı": 6190,
      "ĠÐ¾ÑģÐ°Ð´": 6191,
      "ĠÐ¿Ð»ÐµÐ¼": 6192,
      "ĠÐ²Ð¿Ð¾ÑģÐ»ÐµÐ´ÑģÑĤÐ²Ð¸Ð¸": 6193,
      "ĠÐ²ÑĭÑĩÐ¸ÑģÐ»Ð¸": 6194,
      "ĠÑĢÐµÑĦÐµÑĢÐµÐ½": 6195,
      "ĠÐ¿Ð¾ÑģÐ°Ð´": 6196,
      "Ġ1929": 6197,
      "ĠÐĶÐ¼Ð¸ÑĤÑĢÐ¸Ð¹": 6198,
      "ĠY": 6199,
      "ÐºÐ¾Ð²ÑĭÑħ": 6200,
      "ĠÐ¾ÑģÐ½Ð¾Ð²Ð½Ð¾Ð¹": 6201,
      "ĠÐ´Ð°Ð»ÑĮÑĪÐµ": 6202,
      "ĠÑģÑĥÐ±ÑĬÐµÐº": 6203,
      "ĠÑģÐ²ÑıÑīÐµÐ½Ð½Ð¾Ð¼ÑĥÑĩÐµÐ½Ð¸": 6204,
      "ÑĢÐ¸Ð´Ð¸": 6205,
      "Ð²Ð¸ÑĩÐ°": 6206,
      "Ð³Ð°Ð¼Ð¸": 6207,
      "ĠÐ¼Ð¸ÑĢÑĥ": 6208,
      "Ġ1957": 6209,
      "ÑİÑīÐ¸Ð¹ÑģÑı": 6210,
      "ĠÐ¼ÑıÐ³": 6211,
      "ĠÐ¸Ð¼Ð¸": 6212,
      "ĠÐ½Ð¾Ð¼ÐµÑĢ": 6213,
      "up": 6214,
      "Ð¼Ð°Ð¹": 6215,
      "ÑĤÐ¸Ð²Ñĭ": 6216,
      "Ð±Ð¸Ð¸": 6217,
      "ĠÑıÐ·ÑĭÐºÐ¸": 6218,
      "ĠÑĦÑĥÐ½ÐºÑĨÐ¸Ð¹": 6219,
      "ĠÐ±Ð¾ÐµÐ²": 6220,
      "ĠÐĹÐ°ÐºÐ¾Ð½": 6221,
      "io": 6222,
      "ÑĤÐµÑĢÐ¾Ð²": 6223,
      "ĠÐ±ÑĭÐ²Ð°ÐµÑĤ": 6224,
      "Ð¸ÑģÐ°": 6225,
      "ĠÐ¿ÑĢÐ¾Ð·": 6226,
      "Ð¶Ð°Ð»Ð¸": 6227,
      "ĠÑĩÐ»ÐµÐ½Ñĭ": 6228,
      "ĠÑĦÐ¸Ð»ÑĮÐ¼Ð°": 6229,
      "ĠÑĥÐ´Ð°Ð»Ð¾ÑģÑĮ": 6230,
      "ÑīÐµÐ½Ð¸Ð¹": 6231,
      "ÑĤÐ¸Ð²Ð½Ð°Ñı": 6232,
      "ĠÐ¾ÑĢÐ´ÐµÐ½": 6233,
      "ĠÐ¿Ð»Ð¾ÑħÐ¾": 6234,
      "ĠÐ²ÑĭÐ¿Ð¾Ð»Ð½Ñı": 6235,
      "ĠÐ²Ð¸Ð´Ð½Ð¾": 6236,
      "ĠÑħÐ¾ÐºÐºÐµ": 6237,
      "ke": 6238,
      "ĠÐ½Ð°Ð³": 6239,
      "ĠÐ·Ð½Ð°Ð½Ð¸Ñı": 6240,
      "ĠÑĢÐµÐ»Ð¸Ð³Ð¸Ð¸": 6241,
      "Ð²ÑĪÐ¸ÑģÑĮ": 6242,
      "ĠÐºÐ»ÑĥÐ±": 6243,
      "ÑģÑģÑĭ": 6244,
      "ĠÐ½Ð¾ÑĩÑĮ": 6245,
      "ĠÑģÐµÐ²ÐµÑĢÐµ": 6246,
      "ĠÑģÑĥÐ¿ÐµÑĢ": 6247,
      "ĠÐŁÐµÑĢÐ²Ð°Ñı": 6248,
      "ĠÐºÐ°Ð¶Ð´Ð¾Ð¹": 6249,
      "ÑĢÐ³Ð¸": 6250,
      "Ð¾Ð²Ð¾": 6251,
      "Ġ1985": 6252,
      "ÑįÐ½ÐµÑĢ": 6253,
      "ÑĩÐ¸Ð½ÐµÐ½Ð¸Ñı": 6254,
      "ĠÑĢÑĥÑģÑģÐºÐ¾Ð¼": 6255,
      "ĠÐĸÐ¸": 6256,
      "ĠÐ±Ð¾Ð»ÑĮÑĪÐµÐ¹": 6257,
      "ĠÐ¿Ð¾ÑĢÑıÐ´ÐºÐµ": 6258,
      "ĠÑħÐ¾Ð·ÑıÐ¹ÑģÑĤÐ²Ð°": 6259,
      "ĠÐłÐ¾ÑģÑĤÐ¾Ð²": 6260,
      "Ð²ÑĳÐ»": 6261,
      "ind": 6262,
      "ĠÐ½ÐµÐ¾Ð±ÑħÐ¾Ð´Ð¸Ð¼Ð¾ÑģÑĤÐ¸": 6263,
      "=\"": 6264,
      "Ã©": 6265,
      "ĠÐŁÑģÐºÐ¾Ð²": 6266,
      "ÑģÑĤÐ¸Ð»": 6267,
      "ĠÐĳÐµÐ»ÑĮ": 6268,
      "Ð°Ð»ÑĮÐ½Ð¾Ðµ": 6269,
      "Ġ1977": 6270,
      "ĠÑĤÑĢÐ°Ð½Ñģ": 6271,
      "ĠÐĹÐ°Ð¿Ð°Ð´Ð½Ð¾Ð¹": 6272,
      "49": 6273,
      "Ð¾ÑĢÐ´Ð¸Ð½Ð°": 6274,
      "ĠÐĿÐĲ": 6275,
      "ĠÑģÐ¸Ð»ÑĮ": 6276,
      "ÑĥÐ½Ð´": 6277,
      "ĠÐ¿Ð¾ÐºÐ¾Ð»": 6278,
      "ĠÐ¡Ð¸Ð±Ð¸": 6279,
      "ĠÐºÐ°ÑĩÐµÑģÑĤÐ²Ð°": 6280,
      "ĠÐºÐ½ÑıÐ·Ñı": 6281,
      "ĠÐ´Ð¾Ð²Ð¾Ð»ÑĮÐ½Ð¾": 6282,
      "ĠÐ½Ð°Ð²ÐµÑĢÐ½Ð¾Ðµ": 6283,
      "ĠÑģÐ½Ð¸Ð¼Ð°": 6284,
      "Ð¶Ð½Ð¾Ð¹": 6285,
      "ĠÐºÐ°Ð»ÐµÐ½": 6286,
      "Ð²ÐµÐ´Ð¸ÑĤÐµ": 6287,
      "ĠÐĺÑģ": 6288,
      "ĠÐĳÐµÐ½": 6289,
      "ĠÐ¿Ð¾ÑģÑĳÐ»": 6290,
      "ĠXVI": 6291,
      "ĠÐ¾Ð²Ð¾": 6292,
      "Ð¾Ð´Ð¾ÑĢ": 6293,
      "ÐµÑĤÑĥ": 6294,
      "Ð»Ð¾Ðµ": 6295,
      "ĠÐ¥Ð°Ð¹": 6296,
      "ĠÐ¿ÑĢÐ¸Ð½ÑıÑĤÐ¾": 6297,
      "Ð²ÑĭÐ¼Ð¸": 6298,
      "ĠÐ±Ð¾Ð»ÑĮÑĪÑĥÑİ": 6299,
      "ĠÐ¿Ð»Ð°Ð½ÐµÑĤÑĭ": 6300,
      "ĠÑģÐ¾Ð³Ð»Ð°ÑĪÐµÐ½Ð¸Ðµ": 6301,
      "Ð½Ð¸ÑĨÐµÐ¹": 6302,
      "ĠÐ¸ÑģÑħÐ¾Ð´": 6303,
      "ĠÐ¿ÑĢÐ¾ÑĤÐ¸Ð²Ð¾ÑĢÐµ": 6304,
      "Ð¾Ð²Ð¾Ðµ": 6305,
      "ĠÐ·Ð½Ð°ÑĤÑĮ": 6306,
      "Ġ1924": 6307,
      "ĠÑĢÐµÐ·ÑĥÐ»ÑĮÑĤÐ°ÑĤÑĭ": 6308,
      "ĠÐ¸Ð·Ð¾Ð±ÑĢÐ°Ð¶ÐµÐ½Ð¸Ñı": 6309,
      "65": 6310,
      "Ð»ÑĭÐ¹": 6311,
      "ÑĨÐ¾": 6312,
      "ĠÐ¥Ð¸": 6313,
      "ĠÐ´Ð¸ÑĢÐ¸Ð¶": 6314,
      "ĠÐ³Ð¾ÑĢÐ¾Ð´ÑģÐºÐ¾Ð¹": 6315,
      "ÑĢÐ¸Ð°": 6316,
      "ÑĢÐ¾Ð²Ð°Ð½Ð¸Ð¸": 6317,
      "Ð¶Ð¸ÑĤÑĮ": 6318,
      "ĠÐ¿Ð¾Ð»ÑĮÐ·Ñĥ": 6319,
      "ĠÐºÐ¾ÑĢÐ°Ð±Ð»Ñı": 6320,
      "ĠÐŁÐ°Ð¼ÑıÑĤÑĮ": 6321,
      "ĠÐ°ÑĢÐ¼ÑıÐ½": 6322,
      "ĠÐ¿ÑıÑĤ": 6323,
      "ĠÐ¾ÑĤÐºÑĥÐ´Ð°": 6324,
      "ĠVI": 6325,
      "ĠÐ¿ÑĢÐ¾ÐµÐºÑĤÐ°": 6326,
      "ĠÐ¿ÑĢÐ¸Ð»Ð¾Ð¶ÐµÐ½Ð¸Ñı": 6327,
      "ĠÐ¿ÑĥÑĤÑĳÐ¼": 6328,
      "ÑĢÐµÐ½Ð°": 6329,
      "ĠÐºÐ»ÐµÑĤ": 6330,
      "ĠÐ¡Ð¾ÑĨÐ¸Ð°Ð»Ð¸ÑģÑĤÐ¸": 6331,
      "Ġ1958": 6332,
      "und": 6333,
      "ĠÑģÐ´ÐµÐ»Ð°Ð½": 6334,
      "64": 6335,
      "ÑģÑĤÐ²ÑĥÑİ": 6336,
      "ĠÐ¾Ð¿Ð¿Ð¾Ð·Ð¸": 6337,
      "ĠÐ¿Ð¸ÑģÐ°ÑĤÐµÐ»ÑĮÐ½Ð¸ÑĨÐ°": 6338,
      "ĠÐ·Ð°ÑīÐ¸ÑĤÑĭ": 6339,
      "ĠÐ¤ÑĢÐ¸Ð´ÑĢÐ¸Ñħ": 6340,
      "ÑıÑĢ": 6341,
      "Ð±ÐµÐº": 6342,
      "ĠÐľÐ¸Ð»": 6343,
      "ĠÐŀÑģÐ¾Ð±": 6344,
      "ĠÐ¸ÑģÑģÐ»ÐµÐ´Ð¾Ð²Ð°Ð½Ð¸Ð¹": 6345,
      "ĠÐļÐ¾ÑĢÐ¾Ð»ÑĮ": 6346,
      "ĠÐ¾ÑĤÐ´ÐµÐ»ÑĮÐ½ÑĭÑħ": 6347,
      "ĠÐ±Ð¾ÑĢÑĮÐ±Ñĭ": 6348,
      "ĠÐºÐ°Ð½Ð´Ð¸Ð´Ð°": 6349,
      "ÑģÑĤÑĢÑĭ": 6350,
      "ÑĦÑĥ": 6351,
      "ĠÐ¼Ð°ÑģÑģÐ¸": 6352,
      "ĠÐ¸ÑģÑģÐ»ÐµÐ´Ð¾Ð²Ð°ÑĤÐµÐ»ÑĮ": 6353,
      "ĠÐ¿Ð¾Ð»ÑĮÐ·Ð¾Ð²Ð°ÑĤÐµÐ»ÐµÐ¹": 6354,
      "____": 6355,
      "ĠÑħÐ¾ÑĩÑĥ": 6356,
      "ÐµÐ³Ð¾": 6357,
      "ĠÑģÐ¾Ð¾ÑĢÑĥÐ¶": 6358,
      "ĠÐ²ÐµÑīÐµÑģÑĤÐ²": 6359,
      "ĠÐ¼ÐµÑĤÑĢÐ¾": 6360,
      "ĠÐ´Ð¾ÑĢÐ¾Ð³Ð°": 6361,
      "ĠÐ¿Ð¾Ð´Ð´ÐµÑĢÐ¶ÐºÑĥ": 6362,
      "ĠÐ¤ÑĳÐ´Ð¾ÑĢ": 6363,
      "ĠÑĩÑĳÑĢ": 6364,
      "ĠÐŁÑĢÑĥÑģ": 6365,
      "ÑģÐ¸Ð»": 6366,
      "Ð²ÐµÐ¶": 6367,
      "ĠÐ²Ð¸ÑĢÑĤÑĥÐ°Ð»ÑĮ": 6368,
      "ĠÐ´ÐµÐ¹ÑģÑĤÐ²Ð¸Ðµ": 6369,
      "ĠÐĲÑĢÐ¸ÑģÑĤÐ¾": 6370,
      "ĠÐ¿Ð¾Ð´Ð½Ñı": 6371,
      "ĠÐ¼Ð°ÑĢÐºÐµÑĤ": 6372,
      "ĠÐ¿Ð¸ÑģÑĮÐ¼ÐµÐ½": 6373,
      "ĠÑĥÐ²Ð°": 6374,
      "ĠÐľÐ°Ð½": 6375,
      "ĠÐ²ÑĭÑĢÐ°Ð¶": 6376,
      "ĠÑİÐ³Ðµ": 6377,
      "ĠÐ¸ÑģÑģÐ»ÐµÐ´Ð¾Ð²Ð°": 6378,
      "ĠÑĪÐºÐ¾Ð»Ð°": 6379,
      "ĠÐ¸Ð½Ð¸ÑĨÐ¸Ð°": 6380,
      "ĠÐºÐ°Ð¼Ð¿": 6381,
      "ĠÐºÐ¾Ð½ÐºÑĥÑĢ": 6382,
      "ĠÐ»Ð¸ÑĩÐ½Ð¾": 6383,
      "Ġ1928": 6384,
      "ĠÐ¾Ð±ÐµÑģÐ¿ÐµÑĩÐ¸ÑĤÑĮ": 6385,
      "ĠÐºÐ¾Ð½ÑĤÑĢÐ¾Ð»Ð¸": 6386,
      "ĠÑģÐ¼Ð¾ÑĤÑĢÐµÑĤÑĮ": 6387,
      "Ð±Ð½": 6388,
      "ĠÐ¼Ð°Ð¼": 6389,
      "Ð¼ÐµÐ´": 6390,
      "Ð¡Ð¸": 6391,
      "ĠÐĳÑĥÑĢ": 6392,
      "ĠÑģÐ¿Ð¾ÑĢÑĤ": 6393,
      "Ġ1926": 6394,
      "ĠÐ±Ð¾Ð¶Ðµ": 6395,
      "ĠÑĦÐ°Ð¹": 6396,
      "ÐŁÐ°": 6397,
      "ĠÐ°ÐºÑĤÐ¸Ð²Ð½Ð¾": 6398,
      "72": 6399,
      "Ġ..<|": 6400,
      "Ð¾ÑģÑĭ": 6401,
      "ĠÐĴÐ¼Ðµ": 6402,
      "Ġ1900": 6403,
      "ĠÐ³Ð¸Ð´": 6404,
      "ĠÑĤÐµÐ½Ð´ÐµÐ½": 6405,
      "ran": 6406,
      "ĠÐ²ÑħÐ¾Ð´": 6407,
      "ĠÐĶÑį": 6408,
      "ĠÐľÐ¾ÑģÐºÐ²Ð°": 6409,
      "ell": 6410,
      "ĠÐ¾Ð±ÑīÐ¸": 6411,
      "Ð¾ÐºÐ¾Ð¼": 6412,
      "ÑģÐ¿Ð¾ÑģÐ¾Ð±": 6413,
      "Ð°Ð½Ð°Ð¼Ð¸": 6414,
      "ĠÐ§Ð¸": 6415,
      "ĠXVII": 6416,
      "ĠÐ¾ÑĤÐ¿ÑĢÐ°Ð²": 6417,
      "ĠÐļÐ°Ð·": 6418,
      "ĠÑģÑĤÑĢÐµÐ¼Ð¸": 6419,
      "ĠÑĢÑıÐ´Ð°": 6420,
      "43": 6421,
      "Ð»ÐµÐ½Ð½Ð°Ñı": 6422,
      "ĠÐºÐ¾Ð¼Ð°Ð½Ð´Ð¸": 6423,
      "Ġ1934": 6424,
      "ĠÐ¿Ð¾Ð´Ð´ÐµÑĢÐ¶ÐºÐ¸": 6425,
      "ĠÐĴÐ°ÑģÐ¸Ð»ÑĮ": 6426,
      "ĠÑģÑĥÑĤ": 6427,
      "ĠÐ¾Ð±Ð¾ÑĢÐ¾Ð½Ñĭ": 6428,
      "ĠÐ¸ÑģÐ¿Ð¾Ð»ÑĮÐ·Ð¾Ð²Ð°Ð½Ð¸ÐµÐ¼": 6429,
      "ĠÑģÑĥÐ¿": 6430,
      "ĠÐ¿Ð°ÑĨÐ¸": 6431,
      "ĠÐ·Ð°ÐºÐ¾Ð½ÑĩÐ¸": 6432,
      "ÑĦÑĢÐ¸ÐºÐ°Ð½": 6433,
      "ÐºÐ¾Ð³": 6434,
      "Ð²Ð¸Ð¹": 6435,
      "Ð½Ð¸ÐºÑĥ": 6436,
      "ÑĢÐ¾ÑģÑĤ": 6437,
      "ĠÐ½Ð°Ð·Ð²Ð°Ð½Ð¸ÐµÐ¼": 6438,
      "ĠÐ¾Ð±ÑıÐ·Ð°ÑĤÐµÐ»ÑĮÐ½Ð¾": 6439,
      "ĠÑĥÐ¿Ð¾Ð¼Ð¸Ð½Ð°": 6440,
      "ĠÐ½Ð°ÑĢÐ¾Ð´Ð¾Ð²": 6441,
      "ĠÐĿÐ¸ÐºÐ¾Ð»Ð°Ñı": 6442,
      "Ð²Ð¸Ñı": 6443,
      "ĠÑĢÐ°ÑģÑģÑĤÑĢÐµ": 6444,
      "ĠÐ¿Ð¾Ð¸ÑģÐºÐ°": 6445,
      "ĠÐ²ÑĭÐ½ÑĥÐ¶Ð´": 6446,
      "gle": 6447,
      "ĠÐ²ÑĢÐµÐ´": 6448,
      "ÑĢÐ¾Ð²Ð°Ð½Ð½ÑĭÐµ": 6449,
      "Ġ1949": 6450,
      "Ġ1935": 6451,
      "ĠÐ½Ð°ÑģÑĩÐ¸ÑĤÑĭ": 6452,
      "ÑĢÐ°Ð»Ð»Ðµ": 6453,
      "ud": 6454,
      "ĠÐ´ÐµÑĤÐ¸": 6455,
      "ÑĪÑĥÑİ": 6456,
      "ĠÐĶÐ¾Ð½": 6457,
      "ĠÐ²Ð¸Ð´Ð°": 6458,
      "ĠÑıÐ·ÑĭÐºÐ°Ñħ": 6459,
      "Ð¾ÑĢÐ²Ð°": 6460,
      "Ð»ÐµÑĢÐ°": 6461,
      "ĠÐĳÐ°Ð½": 6462,
      "Ġ1936": 6463,
      "ĠÑģÐ´ÐµÐ»Ð°Ð»": 6464,
      "ÑĢÐ°Ð·Ð´Ð½Ð¸ÐºÐ¸": 6465,
      "ĠÑģÐ½Ð¸Ð·Ð¸": 6466,
      "ĠÐ³ÑĥÐ±ÐµÑĢÐ½Ð°": 6467,
      "Ð¼Ñı": 6468,
      "Ð¾ÐºÐµ": 6469,
      "Ð¾Ð¿Ð¾": 6470,
      "ĠÑĤÐµÐ¾ÑĢÐ¸": 6471,
      "ĠÐĵÐ°Ð»Ð¸": 6472,
      "ĠÐ¿Ð¾ÑģÐ»ÐµÐ´ÑģÑĤÐ²Ð¸Ñı": 6473,
      "ĠÑĢÐµÑģÑĥÑĢÑģÐ¾Ð²": 6474,
      "ÑĢÐµÑģÑĤ": 6475,
      "ĠÑģÐ²Ð¾ÐµÐ¼Ñĥ": 6476,
      "Ð»Ð¾Ð¶ÐµÐ½Ð¸Ðµ": 6477,
      "ĠÐ¿Ð¾Ð»ÑĮÐ·Ð¾Ð²Ð°ÑĤÐµÐ»Ñı": 6478,
      "Ð²Ð¾Ñģ": 6479,
      "ÑĤÐµÑģÑĮ": 6480,
      "ĠÐŁÑĢÐ¾Ðº": 6481,
      "ĠÐľÐµÑĤ": 6482,
      "ĠÐ³Ð¾ÑĢÐ¾Ð´ÑģÐºÐ¾Ð³Ð¾": 6483,
      "ĠÐ¿Ð¾Ð¿ÑĢÐ¾Ð±": 6484,
      "ĠÐ¿Ð¾Ð»Ð¸ÑĤÐ¸ÐºÐ°": 6485,
      "ĠÐ½Ð°ÑĩÐ¸Ð½Ð°ÐµÑĤÑģÑı": 6486,
      "ĠÐ¾Ð¿ÑĤÐ¸Ð¼Ð¸": 6487,
      "ĠÐľÐ¸ÑħÐ°Ð¹": 6488,
      "ĠÑģÐºÐ¸": 6489,
      "ĠÑģÑĢÐµÐ´Ðµ": 6490,
      "ĠÑĤÑĢÐ°Ð²": 6491,
      "Ð¼ÐµÐ½ÑĤÐ¾Ð¼": 6492,
      "ĠÐĳÐ¾ÑĢ": 6493,
      "ĠÑģÐ¾ÑģÑĤÐ¾ÑıÐ½Ð¸Ð¸": 6494,
      "44": 6495,
      "Ð±Ð»Ð¾": 6496,
      "ĠÐ¡ÐĿ": 6497,
      "ĠÐ¿ÑĢÐ¸Ð½": 6498,
      "Ġ1932": 6499,
      "ĠÑģÑĤÐ¸ÑħÐ¾ÑĤÐ²Ð¾ÑĢ": 6500,
      "ĠÑĨÐµÐ»ÐµÐ¹": 6501,
      "Ð´ÑĢÐ°ÑĤ": 6502,
      "ĠÑĥÑģÑĤÐ°Ð½Ð°Ð²Ð»Ð¸": 6503,
      "ÑĩÐµÑģÐºÐ¾Ð¼Ñĥ": 6504,
      "ĠÑĢÐµÐ´Ð°Ðº": 6505,
      "ĠÑģÐ¾ÐµÐ´Ð¸": 6506,
      "ĠÐ¢ÑĢÐ¸": 6507,
      "ĠÐŃÐº": 6508,
      "ĠÐ·Ð°ÐºÐ»ÑİÑĩÐ°ÐµÑĤÑģÑı": 6509,
      "ðŁĺ": 6510,
      "ÑħÐ¾Ð·ÑıÐ¹": 6511,
      "ÑĦÐµÐ»ÑĮ": 6512,
      "ĠÐ¾ÑĢÐ´ÐµÐ½Ð°": 6513,
      "ÑĢÐ¾Ð²Ð°Ð½Ð½ÑĭÐ¹": 6514,
      "ĠÑģÐ¾ÑģÑĤÐ°Ð²Ð»ÑıÑİÑĤ": 6515,
      "ĠÐ¸Ð´ÐµÐ½ÑĤÐ¸": 6516,
      "Ð»Ð¸Ð¼": 6517,
      "ĠÐŁÐ»Ð¾": 6518,
      "ĠÐ¿ÑĢÐ¸Ð²Ñĭ": 6519,
      "ÑĥÐ¼Ð°Ð½Ð¸": 6520,
      "ĠÐ¸Ð½ÑĤÐµÑĢÐ¿ÑĢÐµ": 6521,
      "ĠÐ¾ÑĢÐ¸Ð³Ð¸Ð½Ð°": 6522,
      "ĠÐļÐ°Ð»Ð¸Ð½Ð¸Ð½Ð³ÑĢÐ°Ð´": 6523,
      "ÑĤÐ°ÐµÑĤ": 6524,
      "Ð¾Ð±Ð»Ð°": 6525,
      "ĠÐ¤ÑĢÐ°Ð½ÑĨÐ¸Ñı": 6526,
      "ĠÑĢÐ°ÑģÐ¿Ð¾Ð»Ð¾Ð¶ÐµÐ½": 6527,
      "ĠÐ¾Ð³ÑĢÐ°Ð½Ð¸ÑĩÐµÐ½": 6528,
      "ĠÐ³Ð¾Ð²Ð¾ÑĢÑı": 6529,
      "ĠÑĩÐµÑĤÐ²ÐµÑĢ": 6530,
      "Ð´ÑıÑĤ": 6531,
      "ÑįÐºÐ¾Ð½Ð¾Ð¼Ð¸": 6532,
      "ine": 6533,
      "Ġ1948": 6534,
      "ĠÐ³Ð»Ð°Ð²Ð°": 6535,
      "ĠÐ¿ÑĢÐ¸ÑģÐ¾ÐµÐ´Ð¸": 6536,
      "ĠÐ¿Ð°ÑģÑģÐ°Ð¶Ð¸ÑĢ": 6537,
      "ĠÐ¨Ð²ÐµÑĨÐ¸Ð¸": 6538,
      "Ð½ÐµÐ½Ð¸Ð¹": 6539,
      "ĠÐ¸Ð´Ð¸": 6540,
      "ĠÐ²ÐµÐ·": 6541,
      "ĠÑģÐ¾Ð´ÐµÑĢÐ¶Ð¸ÑĤ": 6542,
      "Ġon": 6543,
      "Ð»Ð°Ð²Ð°": 6544,
      "ĠÐ½ÐµÐ²ÐµÑĢ": 6545,
      "ĠÐĳÑĢÐ°Ð·Ð¸": 6546,
      "ĠÐ²ÐµÑīÐ¸": 6547,
      "Ġ1933": 6548,
      "ĠÐ²Ð·Ð°Ð¸Ð¼Ð¾Ð´ÐµÐ¹ÑģÑĤÐ²Ð¸Ñı": 6549,
      "ĠÐ°Ð¿Ð¿Ð°ÑĢÐ°": 6550,
      "ĠÑģÑĢÐµÐ´Ñĥ": 6551,
      "ĠÐ´Ð¸ÑĢÐ¸Ð¶ÑĳÑĢ": 6552,
      "Ð³Ð¸Ð½": 6553,
      "Ð¶Ð°ÑĤ": 6554,
      "ÑĤÐ¸Ð½Ñĭ": 6555,
      "Ð¾Ð½Ð¾Ð¼Ð¸": 6556,
      "Ð¼ÐµÐ½ÑĤÐµ": 6557,
      "ĠÐĿÐ¾Ð²Ð³Ð¾ÑĢÐ¾Ð´": 6558,
      "Ð²Ð¾Ð³Ð¾": 6559,
      "ĠÑģÐ´Ð°": 6560,
      "ĠÐ¿ÑĢÐ¸ÑĩÐ¸Ð½": 6561,
      "ĠÐºÐ¾Ð½Ñģ": 6562,
      "ĠÐĿÐ¸Ð´ÐµÑĢÐ»Ð°Ð½Ð´": 6563,
      "Ġ1914": 6564,
      "ĠÐ¼ÐµÑģÑıÑĨÐµÐ²": 6565,
      "ĠÐĺÐ½ÑĤÐµÑĢÐ½ÐµÑĤ": 6566,
      "ĠÐ´Ð°Ð»ÐµÐºÐ¾": 6567,
      "Ð¾Ð±Ð°": 6568,
      "ĠÐŀÐºÑĤ": 6569,
      "ĠÐºÐ¾Ð½ÑĤÐµÐº": 6570,
      "ÐļÐŀ": 6571,
      "ĠÐķÑģÑĤÑĮ": 6572,
      "Ġ1956": 6573,
      "ÑĪÐ¸Ð½ÑģÑĤÐ²Ð¾": 6574,
      "ĠÐ¸Ð½ÑĤÐµÐ»Ð»ÐµÐºÑĤ": 6575,
      "ĠÐ¸Ð½ÑĦÑĢÐ°": 6576,
      "Ð»Ð¸ÑģÑĤ": 6577,
      "ĠÐ¿Ð¾ÑĤÐµÑĢ": 6578,
      "ĠÑģÐ¾Ð±Ð¾ÑĢ": 6579,
      "ĠÑģÐ¾ÑģÑĤÐ¾ÑıÐ½Ð¸Ðµ": 6580,
      "ĠÐ²Ð¸Ð´Ð¸Ð¼Ð¾": 6581,
      "ĠÐ±Ð¸Ð·Ð½ÐµÑģÐ°": 6582,
      "ÑģÑģÐ¸Ð¸": 6583,
      "ÑİÐ»ÑĮ": 6584,
      "Ð°ÑĢÐ»ÑĮ": 6585,
      "ÐºÐ¾Ð²ÑĭÐµ": 6586,
      "ĠÐ»Ð¸ÑĪ": 6587,
      "ĠÑģÐ¾Ð²ÐµÑĤÑģÐºÐ¾Ð¹": 6588,
      "ĠÐ´Ð°Ð½Ð½ÑĭÐ¹": 6589,
      "ĠÑĤÐµÑĢÑĢÐ¾": 6590,
      "ort": 6591,
      "Ð¾Ð²Ð°Ð½Ñĭ": 6592,
      "ĠÑĨÐµÐ½ÑĤÑĢÐ¾Ð¼": 6593,
      "ĠÐ¿ÑĢÐ¸Ð½Ð¸Ð¼Ð°ÑĤÑĮ": 6594,
      "ĠÐ°ÑģÑĤÑĢÐ¾Ð½Ð¾Ð¼": 6595,
      "ÐŁÐ¾ÑĩÐµÐ¼Ñĥ": 6596,
      "ĠÐ°ÑģÑģÐ¾": 6597,
      "ĠÐŃÑģÑĤÐ¾": 6598,
      "ĠÐ±Ð°ÑģÑģ": 6599,
      "ĠÑĤÐµÑĢÑĢÐ¸ÑĤÐ¾ÑĢÐ¸Ñİ": 6600,
      "ĠÑĥÑĩÐ¸ÑĤÑĭ": 6601,
      "ĠÑĤÐ¾Ð½Ð½": 6602,
      "ĠÐ¿ÑĢÐµÐ´ÑģÐµÐ´Ð°ÑĤÐµÐ»ÑĮ": 6603,
      "ĠÐ¿ÑĢÐµÐ¸Ð¼ÑĥÑīÐµÑģÑĤÐ²Ð°": 6604,
      "ĠÐ·Ð°ÑĢ": 6605,
      "ĠÐ¿ÑĢÐ¾Ðº": 6606,
      "ĠÑģÐ¾Ð¾Ð±ÑīÐµÐ½Ð¸Ðµ": 6607,
      "ĠÐ¿ÑĢÐµÐ¿Ð¾Ð´Ð°": 6608,
      "98": 6609,
      "Ð¿Ð¾Ð¹": 6610,
      "Ð²Ð¾ÑģÑĤÐ¾": 6611,
      "ĠÐŁÐ¾Ñĩ": 6612,
      "ĠÐ²ÐµÐºÐ¾Ð²": 6613,
      "ĠÐ¼ÐµÐ¶Ð´ÑĥÐ½Ð°ÑĢÐ¾Ð´Ð½ÑĭÑħ": 6614,
      "ĠÐ¸ÑģÑĩÐµ": 6615,
      "ÐµÑħÐ°Ð»": 6616,
      "ÑĢÑıÑģ": 6617,
      "ĠÑģÐ¸ÑĤÑĥÐ°ÑĨÐ¸Ð¸": 6618,
      "ĠÐ³Ð¾Ð½": 6619,
      "Ð»ÐµÑĢÐ¸Ð¹": 6620,
      "ĠÐľÐµÑĢ": 6621,
      "ĠÐĿÐ¾Ð²Ð¾ÑģÐ¸Ð±Ð¸ÑĢ": 6622,
      "ĠÐ³Ð»Ð°Ð²Ð½ÑĭÐ¼": 6623,
      "ĠÐºÐ¾ÑĢÐ¾Ð»ÑĳÐ¼": 6624,
      "74": 6625,
      "Ð½Ð¸ÐµÐ¼": 6626,
      "ÐµÐ²ÑģÐºÐ¸Ð¹": 6627,
      "ĠÐ²Ð°ÑĪÐµÐ³Ð¾": 6628,
      "Ð¾Ð»Ð¾Ð³Ð¸ÑĩÐµÑģÐºÐ¸Ñħ": 6629,
      "ĠÐ¿Ð»ÐµÐ½": 6630,
      "ĠÐ²Ð¾Ð´Ð¸": 6631,
      "ĠÑģÑĤÑĢÐµÐ¼": 6632,
      "ĠÑģÐµÐºÑĢÐµÑĤÐ°": 6633,
      "ĠÐ¼Ð¸ÐºÑĢÐ¾": 6634,
      "ĠÐ¼Ð¾Ð±Ð¸Ð»ÑĮ": 6635,
      "ĠÐ°Ð·": 6636,
      "ĠÐ·Ð°Ð»Ð¾Ð¶": 6637,
      "ĠÑĢÐ°Ð·Ð»Ð¸ÑĩÐ°": 6638,
      "ĠÐ´Ð¾ÑĩÑĮ": 6639,
      "ĠÑĢÐ¾Ð±": 6640,
      "ĠÐ§ÑĤÐ¾Ð±Ñĭ": 6641,
      "ĠÑĢÑĥÐºÐ¾Ð²Ð¾Ð´ÑģÑĤÐ²Ð¾Ð¼": 6642,
      "ĠÐ¿Ð¾Ð²ÐµÐ´ÐµÐ½Ð¸Ðµ": 6643,
      "ĠÑĤÐµÐ¿Ð»Ð¾Ð²": 6644,
      "ĠÐļÐ°Ð·Ð°ÑħÑģÑĤÐ°Ð½": 6645,
      "á¼": 6646,
      "Ð»Ð¸Ð½Ð³": 6647,
      "Ġ1923": 6648,
      "ĠÐ¿Ð¾Ð½ÑıÑĤÐ¸Ðµ": 6649,
      "ĠÐ²Ð¾ÑģÑģÑĤÐ°Ð½Ð¸Ñı": 6650,
      "55": 6651,
      "Ġit": 6652,
      "ÑĨÐ¸Ð¾Ð½ÐµÑĢ": 6653,
      "Ð¿ÑĢÐ¸Ð½Ñı": 6654,
      "ĠÐĿÐ¾Ð²Ð¾Ð¹": 6655,
      "Ð³Ð¾ÑĢÐ°": 6656,
      "ĠÐ¢ÑĢÐµ": 6657,
      "ĠÐ¾Ð´ÐµÑĢ": 6658,
      "ÑĥÐ¶Ð´Ð°": 6659,
      "ĠÐ°ÑĢÑħÐ¸ÑĤÐµÐºÑĤÐ¾ÑĢ": 6660,
      "97": 6661,
      "ĠÐºÐ¾Ð»ÑĮ": 6662,
      "ĠÐ¾Ð±Ñģ": 6663,
      "ĠÐĲÐĿ": 6664,
      "ĠÑģÑĤÐ¾Ð»ÑĮÐºÐ¾": 6665,
      "ĠÑģÐ¾Ð¾ÑĤÐ²ÐµÑĤÑģÑĤÐ²ÐµÐ½Ð½Ð¾": 6666,
      "ĠÐºÐ¾Ð½ÐµÑĨ": 6667,
      "ĠÐ°ÐºÐ°Ð´ÐµÐ¼Ð¸Ð¸": 6668,
      "ĠÐĽÐµÐ½Ð¸Ð½": 6669,
      "ĠÑįÐºÑģÐ¿ÐµÑĢÐ¸Ð¼ÐµÐ½ÑĤÐ°": 6670,
      "ĠÐ½ÐµÐ¸Ð·Ð²ÐµÑģÑĤ": 6671,
      "ÑĤÐ½ÑĭÑħ": 6672,
      "Ð¸Ð½ÑģÐºÐ¾Ð¹": 6673,
      "Ð°Ð»ÑĮÐ½Ð°Ñı": 6674,
      "ĠÐ²ÑģÐµÐ¼Ñĥ": 6675,
      "ĠÑģÑĩÐ¸ÑĤÐ°ÑĤÑĮ": 6676,
      "ĠÑģÐ¾ÑģÑĤÐ°Ð²Ð¸Ð»": 6677,
      "ĠÐ½Ð¾ÑĢÐ¼Ð°Ð»ÑĮÐ½Ð¾": 6678,
      "Ð»Ð¾Ð³Ð¾": 6679,
      "Ð´Ð¸Ð¼": 6680,
      "Ð¿ÑĥÑģÐº": 6681,
      "ĠÑĤÐµÐ»ÐµÑĦ": 6682,
      "ĠÐ²Ð¾ÐµÐ½Ð½Ð¾Ð¹": 6683,
      "ĠÐµÐ²ÑĢÐµ": 6684,
      "ĠÐŁÐ¾Ð»ÑĮÑĪÐ¸": 6685,
      "Ð°ÑĢÐ¸": 6686,
      "Ð²ÑĭÑĩÐ°Ð¹": 6687,
      "ĠÐ³Ð¾ÑģÑĥÐ´Ð°ÑĢÑģÑĤÐ²ÐµÐ½Ð½ÑĭÑħ": 6688,
      "ĠÐ¼ÑĥÐ½Ð¸ÑĨÐ¸Ð¿Ð°": 6689,
      "les": 6690,
      "ĠÑģÐ°Ð¼Ð°": 6691,
      "ĠÐ²Ð¾ÐµÐ½Ð½Ð¾Ð³Ð¾": 6692,
      "ĠÐ¿ÐµÑĢÐµÐ´Ð°ÑĩÐ¸": 6693,
      "ĠÐ¿ÑĢÐ¾ÑģÑĤÑĢÐ°Ð½ÑģÑĤÐ²Ð¾": 6694,
      "ÑİÐ½": 6695,
      "ĠÐ´Ð¸Ñģ": 6696,
      "Ð»ÑıÐ¼Ð¸": 6697,
      "ÑĢÐ°Ð·Ð´Ð¾": 6698,
      "ĠÐĴÐµÐ»Ð¸ÐºÐ¾Ð³Ð¾": 6699,
      "Ð¿Ð»Ð¾Ð¼": 6700,
      "ĠÑĩÑĳÐ¼": 6701,
      "ĠÐ°Ð²Ð¸": 6702,
      "ĠÐ¿ÑĢÐµÑģÑĤÐ¾Ð»": 6703,
      "ĠÐ¸Ð½Ð´Ð¸Ð¹": 6704,
      "Ð°ÑĤÑĢ": 6705,
      "ĠÑįÐ¼Ð¸": 6706,
      "ĠÐľÐ½Ðµ": 6707,
      "Ð¶Ð¸Ð¼": 6708,
      "ĠÑģÐ²ÑıÑĤÐ¾Ð¹": 6709,
      "ĠÑĩÐ°Ð¹": 6710,
      "ĠÑĢÐ¸ÑģÐº": 6711,
      "ĠÑĥÐ³Ð»ÐµÑĢ": 6712,
      "ÑĩÐµÑģÑĤÐ²Ðµ": 6713,
      "ĠÐ¾Ð±ÑĬÑıÐ²Ð¸Ð»": 6714,
      "mp": 6715,
      "our": 6716,
      "ĠÐºÑĢÐ¾Ð²": 6717,
      "ĠÑĦÐµÑĢ": 6718,
      "ĠÐ¿ÑĢÐ¾ÑĤÐ¾Ðº": 6719,
      "ĠÑĢÐ°Ð·Ð½Ð¸ÑĨÐ°": 6720,
      "Ġ1927": 6721,
      "ĠÑĦÐ°ÐºÑĤÐ¸ÑĩÐµÑģÐºÐ¸": 6722,
      "ÑģÐºÐ°ÑĢ": 6723,
      "ÑĳÐ½Ð½Ð¾Ð³Ð¾": 6724,
      "Ġ1959": 6725,
      "ĠÐ¼Ð°Ð³Ð°Ð·Ð¸": 6726,
      "ĠÐ¾Ð±Ð¾Ð·Ð½Ð°ÑĩÐ°": 6727,
      "31": 6728,
      "Ð½Ð¸ÑģÑĤ": 6729,
      "ĠÐ½ÐµÑĥÐ´Ð°": 6730,
      "ĠÐŃÐ´Ñĥ": 6731,
      "ĠÑĩÐ»ÐµÐ½Ð¾Ð¼": 6732,
      "ĠÑģÐ¾Ð²ÐµÑĢÑĪÐµÐ½": 6733,
      "ĠÐ´ÑĢÐµÐ²Ð½Ðµ": 6734,
      "Ġ}": 6735,
      "Ð¾ÑĤÐ¸": 6736,
      "Ð¾Ð²Ð°Ð½Ð°": 6737,
      "ĠÐ¼Ð¸Ð½Ð¸ÑģÑĤÑĢ": 6738,
      "ĠÐ¿ÑĢÐµÐ´Ð¿ÑĢÐ¸ÑıÑĤÐ¸Ð¹": 6739,
      "Ð»Ð¾Ð¿": 6740,
      "ĠÐ¿ÑĢÐ¸ÑĩÑĳÐ¼": 6741,
      "ĠÐŃÐ¼": 6742,
      "ĠÐ¿ÐµÑĢÐµÐ¸Ð¼ÐµÐ½": 6743,
      "ĠÑĪÑĥÑĤ": 6744,
      "ĠÐ´Ð¸Ð½Ð°Ð¼Ð¸": 6745,
      "ĠÑıÐ·ÑĭÐºÐ¾Ð¼": 6746,
      "ĠÑĥÐ±ÐµÐ´Ð¸": 6747,
      "ĠÐ´Ð²Ð¾": 6748,
      "ĠÐ¤Ð¸Ð»Ð¾ÑģÐ¾": 6749,
      "ĠÐ¿ÐµÑĢÐµÐ²Ð¾Ð·": 6750,
      "ĠÑģÐ¾Ð²ÐµÑĤÑģÐºÐ¸Ñħ": 6751,
      "ĠÐ¼Ð¸Ð½Ð¸ÑģÑĤÑĢÐ¾Ð²": 6752,
      "Ð¿Ð¸ÑģÐºÐ¾Ð¿Ð°": 6753,
      "ĠÐ¿ÑĢÐ¾Ð´ÑĥÐºÑĤ": 6754,
      "ĠÐºÐ¸Ð»Ð¾Ð¼ÐµÑĤ": 6755,
      "ĠÐ¸Ð·Ð¾Ð±ÑĢÐµÑĤÐ°ÑĤÐµÐ»ÑĮ": 6756,
      "ĠÐ¤ÑĢÐ°Ð½ÑĨÑĥÐ·": 6757,
      "ĠÑĩÐ°ÑīÐµ": 6758,
      "ĠÐķÐ¡": 6759,
      "ÐµÐ½Ð°ÑĩÐ°": 6760,
      "ĠÐ½Ð¾Ð²ÑĥÑİ": 6761,
      "Ð¾Ð´ÐµÑĨ": 6762,
      "42": 6763,
      "ĠÐ¼Ð°Ð½Ð¸": 6764,
      "ĠÐ¾ÑĤÐ´Ð°": 6765,
      "ĠÐ²ÑĭÑĪÐµÐ»": 6766,
      "ÑīÐ°ÑİÑĤ": 6767,
      "ĠÑĥÐ¿ÑĢÐ¾": 6768,
      "ĠÐ¼ÐµÑĤÑĢÐ¾Ð¿": 6769,
      "Ð¼Ð¸Ð½Ð¸ÑģÑĤÑĢÐ¾Ð¼": 6770,
      "ava": 6771,
      "Ð¿ÑĢÐ°": 6772,
      "ĠÐºÐ¾Ð¼Ð¿Ð»ÐµÐº": 6773,
      "ÐĽÐ¸": 6774,
      "Ð»ÐµÐµ": 6775,
      "Ð¾Ð·Ð¾Ð²": 6776,
      "ÐĲÐŀ": 6777,
      "ĠÐĲÑĢÑħÐ¸": 6778,
      "ĠÐ²ÐºÐ»ÑİÑĩÐ°ÑĤÑĮ": 6779,
      "ĠÐĵÑĢÐµÑĨÐ¸Ð¸": 6780,
      "ĠÐ¼ÐµÑĢÑĭ": 6781,
      "ĠÐĿÐ°Ð¿": 6782,
      "ÑĢÐµÑģÑģÐ°": 6783,
      "ĠÑģÐ¸Ð½ÑĤÐµ": 6784,
      "ĠÐĵÐµÐ½ÑĢÐ¸Ñħ": 6785,
      "ĠÑģÐ¾ÑģÑĤÐ°Ð²Ð°": 6786,
      "ĠÐ°Ð²ÑĤÐ¾Ð±ÑĥÑģ": 6787,
      "Ð»ÐµÑģ": 6788,
      "ĠÐ¾ÑĤÑĢÐ°Ñģ": 6789,
      "ĠÐ¿ÐµÑĢÐµÐ½": 6790,
      "Ð¾Ð¼Ð¸Ð½Ð°Ð½Ð¸Ñı": 6791,
      "ĠÐ¾ÑĩÐ¸": 6792,
      "ĠÐ¿ÐµÑĢÐ²Ð¾Ð½Ð°ÑĩÐ°": 6793,
      "Ð³ÑĥÐ½": 6794,
      "ĠÑģÑĩÐ¸ÑĤÐ°ÑİÑĤ": 6795,
      "ĠÐ³Ð¾Ð²Ð¾ÑĢÐ¸ÑĤÑĮ": 6796,
      "ĠÐĺÐ¾Ð°Ð½Ð½Ð°": 6797,
      "ĠÐ¿Ð¸ÑĤÐ°Ð½Ð¸Ñı": 6798,
      "ĠÐ½ÐµÐ³Ð°": 6799,
      "ĠÐļÐµÐ½": 6800,
      "Ð½ÐµÑĨ": 6801,
      "ĠÐĺÑħ": 6802,
      "ĠÐ½Ð¸Ð¶": 6803,
      "ĠÐ¾Ð±ÑīÐµÑģÑĤÐ²Ð¾": 6804,
      "ĠÑĤÐµÐ°ÑĤÑĢ": 6805,
      "ĠÑĥÐ³Ð»Ðµ": 6806,
      "ĠÐ²ÐµÑģÑĮÐ¼Ð°": 6807,
      "ĠÐ½ÐµÑģÐ¼Ð¾ÑĤÑĢÑı": 6808,
      "li": 6809,
      "ode": 6810,
      "Ð²Ð¾Ð»ÑĮ": 6811,
      "ÑĢÐµÐ»": 6812,
      "ÑĤÐ°ÐºÐ¸": 6813,
      "ÑģÐ¸Ð¾Ð½": 6814,
      "ĠÐĶÐ¾Ð¼": 6815,
      "Ð¿Ð°ÑĢÐ°ÑĤ": 6816,
      "ĠÑģÑĥÐ»": 6817,
      "ĠÐ¿ÑĢÐ¸Ð½ÑıÑĤÐ¸Ñı": 6818,
      "ĠÐ¸Ð·Ð²ÐµÑģÑĤÐ½ÑĭÑħ": 6819,
      "ĠÐ»Ð¸ÑĤÐµÑĢÐ°ÑĤÑĥÑĢÐµ": 6820,
      "ĠÑģÐ²ÑıÐ·Ð°Ð½Ð¾": 6821,
      "ĠÐ¿ÑĢÐµÐ´ÑģÑĤÐ°Ð²Ð»ÐµÐ½Ð¸Ñı": 6822,
      "77": 6823,
      "Ð¼ÐµÐ¹": 6824,
      "Ð±Ð¾Ð¼": 6825,
      "ĠÐ³Ð¸Ð±": 6826,
      "Ð¾ÑĢÐ³Ð°Ð½Ð¸": 6827,
      "ÑīÐµÐ½Ð¸Ñİ": 6828,
      "ĠÐľÑĥÐ·": 6829,
      "ĠÐ²ÑĭÑĢÐ°": 6830,
      "ĠÐĵÐ¾Ñģ": 6831,
      "ĠÑĢÐ°Ð·ÑĥÐ¼": 6832,
      "ĠÐ¿Ð¾Ð´ÑĢÐ¾Ð±": 6833,
      "ĠÐ¼ÐµÑĤÐ¾Ð´Ð°": 6834,
      "ĠÐ¿Ð»Ð¾ÑīÐ°Ð´": 6835,
      "ĠÐ¿ÑĢÐ¾Ð´ÑĥÐºÑĤÐ°": 6836,
      "Ð½Ð°Ð½": 6837,
      "ĠÐļÐ°Ð»": 6838,
      "ĠÑĤÐ°ÐºÑĥÑİ": 6839,
      "Ġcon": 6840,
      "ĠÐ½Ð°ÑĥÑĩÐ½Ð¾": 6841,
      "ĠÑģÐ¿Ð¾ÐºÐ¾Ð¹": 6842,
      "ĠÐ¸ÑģÐ¿Ð¾Ð»ÑĮÐ·ÑĥÐµÑĤ": 6843,
      "ÐŃÐ¡": 6844,
      "ĠÐ¿ÑĢÐ¾Ð³ÑĢÐ°Ð¼Ð¼Ð°": 6845,
      "ĠÑģÐºÐ¾ÑĢÐ¾ÑģÑĤÐ¸": 6846,
      "ĠÑģÐ¿ÑĢÐ°Ð²ÐµÐ´": 6847,
      "ĠÑģÑĤÐµÐº": 6848,
      "ĠÑģÐµÑĢÐ¸Ð¸": 6849,
      "ĠÑģÐ°Ð¼Ð°Ñı": 6850,
      "ĠÐ¿ÐµÑģÐ½Ð¸": 6851,
      "ÑĢÐ°Ð´Ð¸": 6852,
      "ÑĢÑĥÑİÑĤÑģÑı": 6853,
      "ĠÐ·Ð°Ð²Ð¸": 6854,
      "Ð´ÐµÑĨ": 6855,
      "ĠÑģÐ¾ÑĩÐ¸Ð½": 6856,
      "ĠÐŀÐ´Ð½Ð¸Ð¼": 6857,
      "ÐŁÐµÑĤÐµÑĢÐ±ÑĥÑĢÐ³": 6858,
      "ÐµÑĤÐ¾Ð¼": 6859,
      "ĠÐĿÐµÐ¼": 6860,
      "ĠÑĤÐµÐ»Ð¾": 6861,
      "Ġ36": 6862,
      "71": 6863,
      "ÐµÐ»Ð°": 6864,
      "Ð»Ð¾Ð´": 6865,
      "ĠÐ¸Ð´ÐµÐ¹": 6866,
      "Ð±Ð¾Ðµ": 6867,
      "ĠÑģÐ¿Ð¾ÑģÐ¾Ð±Ð½Ð¾ÑģÑĤÑĮ": 6868,
      "ĠPython": 6869,
      "ĠÐĵÐµÑĢÐ¼Ð°Ð½Ð¸Ñı": 6870,
      "ĠÐ²ÑĭÐ¿ÑĥÑģÐºÐ°": 6871,
      "ÑĪÐµÐ½Ð¸Ñİ": 6872,
      "ĠÐ½Ð°ÑħÐ¾Ð´Ñı": 6873,
      "ĠÐ¡Ñĭ": 6874,
      "ĠÐ¡Ð»ÐµÐ´": 6875,
      "ÑģÐµÐ»ÑĮ": 6876,
      "ĠÐ°Ð²ÑĤÐ¾ÑĢÐ°": 6877,
      "ĠÑģÑĥÐ´ÐµÐ±": 6878,
      "ĠÑģÑĤÑĢÐ°ÑĪ": 6879,
      "ard": 6880,
      "ĠÐ¿Ð¾Ð²ÑĭÑģÐ¸ÑĤÑĮ": 6881,
      "ÑĢÐµÐ³Ð¸ÑģÑĤÑĢÐ¸": 6882,
      "Ïģ": 6883,
      "ÑģÐºÑĢÐµÑģ": 6884,
      "ĠÑĤÐµÐºÑĥ": 6885,
      "ÑĥÑģÐ»Ð¾Ð²": 6886,
      "ĠÐ¶Ð¸Ð²Ñĥ": 6887,
      "ĠÐ¼Ð¾ÑģÐºÐ¾Ð²": 6888,
      "ĠÐĿÐ¸Ð¶": 6889,
      "ĠÐ¾Ð¿ÑĢÐµÐ´ÐµÐ»ÐµÐ½Ð¸Ñı": 6890,
      "ĠÑģÐ»ÑĭÑĪ": 6891,
      "ĠÑĥÐ»Ð¸ÑĨÐµ": 6892,
      "ĠÐļÐ¸ÑĤÐ°Ðµ": 6893,
      "88": 6894,
      "ÏĦ": 6895,
      "Ð½Ð¾ÑĢ": 6896,
      "Ð²ÐµÑĤÐ°": 6897,
      "ĠÐ´Ð°Ð½Ð½Ð¾Ð³Ð¾": 6898,
      "ÑĢÐ¾Ð²Ð°Ð»Ð°": 6899,
      "ĠÐ»ÐµÑģÐ°": 6900,
      "ĠÑģÑĥÑīÐµÑģÑĤÐ²ÑĥÑİÑĤ": 6901,
      "ĠÐ¡Ð°ÑĢÐ°": 6902,
      "ĠÐ¼ÐµÑģÑĤÐ½ÑĭÑħ": 6903,
      "ĠÑĤÑĢÐ°Ð´Ð¸ÑĨÐ¸Ð¸": 6904,
      "Ð°Ð»ÑĥÐ¹ÑģÑĤÐ°": 6905,
      "ĠÐ¿ÑĢÐ¸Ð¼Ðµ": 6906,
      "ĠÑĦÑĢÐ°Ð½": 6907,
      "ĠÑģÐ¾Ð²ÐµÑĤÐ°": 6908,
      "ĠÑĤÐ¸ÑĤÑĥ": 6909,
      "ÑįÐº": 6910,
      "ĠÐ¿ÑĢÐ¸Ð³Ð¾ÑĤÐ¾Ð²": 6911,
      "ĠÐºÐ¾ÑĤÐ¾ÑĢÑĭÐ¼Ð¸": 6912,
      "ĠÑĢÐ°Ð±Ð¾ÑĤÐ°Ð»": 6913,
      "ÑģÐºÐ¾ÑħÐ¾Ð·ÑıÐ¹": 6914,
      "Ð²ÐµÐ¹ÑĨÐ°ÑĢ": 6915,
      "ĠÐºÐ²Ð°ÑĢÑĤÐ¸": 6916,
      "ĠÐĳÐ°Ð»ÑĤÐ¸Ð¹": 6917,
      "ĠÑģÐµÑĢÑĮÑĳÐ·": 6918,
      "ÑĤÐ°ÑĨÐ¸Ñı": 6919,
      "ĠÐĴÑĤÐ¾ÑĢÐ°Ñı": 6920,
      "ĠÐļÐ¾Ñģ": 6921,
      "ÑĥÐ¼ÐµÑĢ": 6922,
      "ĠÑģÑĤÐ°ÑĢÐ°": 6923,
      "ĠÐ¾ÑģÐ½Ð¾Ð²Ñĭ": 6924,
      "Ð½Ð¸ÐºÐ°Ñħ": 6925,
      "ĠÐ¿ÑĥÑģÑĤÑĮ": 6926,
      "ĠÐ¿Ð¾ÐºÐ°Ð·ÑĭÐ²Ð°": 6927,
      "ĠÑĢÐ°ÑģÑĤÐµÐ½Ð¸Ð¹": 6928,
      "ĠÐ¿ÑĢÐµÐ¿Ð¾Ð´Ð¾Ð±Ð½Ð¾Ð³Ð¾": 6929,
      "ÑĤÑģÐºÐ¸Ð¹": 6930,
      "Ð½Ð¾Ð³": 6931,
      "Ð½Ð¾Ð·Ð½Ð°": 6932,
      "ÑĩÐµÐ½Ð¸Ñİ": 6933,
      "Ð°Ð½ÑģÐºÐ¾Ð¹": 6934,
      "ÑĢÐ¸ÑģÑĤÐ°": 6935,
      "ĠÑĪÐºÐ¾Ð»ÑĮ": 6936,
      "ĠÐ´ÐµÑĢÐ¶Ð°": 6937,
      "ĠÐºÑĢÑĥÐ¿Ð½ÐµÐ¹ÑĪÐ¸Ñħ": 6938,
      "ĠÐ³Ð¾ÑĢÐ°Ð·Ð´Ð¾": 6939,
      "ÑĤÐ½ÑĭÐµ": 6940,
      "ÑģÐ¸Ð»Ð¸": 6941,
      "ÐľÑĭ": 6942,
      "ÑģÑĤÑĢÐ¾Ð¹ÐºÐ¸": 6943,
      "ĠÑĥÑģÐ»Ð¾Ð²Ð¸Ñı": 6944,
      "ĠÐ¿ÑĢÐ¾Ð³ÑĢÐ°Ð¼Ð¼Ð½Ð¾Ð³Ð¾": 6945,
      "ĠÐ·Ð°ÑģÐ»ÑĥÐ¶ÐµÐ½Ð½ÑĭÐ¹": 6946,
      "ĠÐ¿ÑĢÐ¸ÑħÐ¾Ð´Ð¸ÑĤÑģÑı": 6947,
      "Ð»Ð°Ð±": 6948,
      "ĠÐ¾ÑĤÐ²ÐµÑĢ": 6949,
      "ĠÐĲÐ¹": 6950,
      "ÑĩÐ°Ñı": 6951,
      "ĠÐłÐ¾Ð´": 6952,
      "ÐĲÑĢ": 6953,
      "ĠÐ²Ð¾ÐµÐ½Ð°ÑĩÐ°": 6954,
      "ĠÐ²ÑģÐµÐ¾Ð±": 6955,
      "ĠÐ¥Ð°ÑĢ": 6956,
      "ĠÑģÑĤÐ°ÑĤÑĮÐ¸": 6957,
      "ĠÐ¤Ð¸Ð»Ð¸Ð¿Ð¿": 6958,
      "ĠÐ¸ÑģÑĤÐ¸Ð½": 6959,
      "ĠÐ¾ÑħÐ²Ð°": 6960,
      "ĠÐ´Ð¾Ð¶Ð´": 6961,
      "ĠÐ¾ÑĤÐ¾Ð±": 6962,
      "ĠÐºÐ°ÐºÐ¸Ñħ": 6963,
      "Ð·ÑĭÐºÐ°": 6964,
      "ĠÐºÑĥÐ¿Ð¸ÑĤÑĮ": 6965,
      "Ġ1906": 6966,
      "ĠÐ³Ð¾Ð²Ð¾ÑĢÐ¸Ð»": 6967,
      "Ð¾Ð±Ð¸Ð»Ð¸": 6968,
      "ĠÑģÐ¾Ð²ÑĢÐµÐ¼ÐµÐ½Ð½ÑĭÑħ": 6969,
      "ĠÐ£ÐºÑĢÐ°Ð¸Ð½Ðµ": 6970,
      "ĠÐ¼Ð°Ð³Ð°Ð·Ð¸Ð½": 6971,
      "ĠÐŁÐ°ÑĤ": 6972,
      "ÑīÐ¸Ð¼Ð¸": 6973,
      "Ð³Ð°ÑĤÑĮ": 6974,
      "ĠÐ»ÐµÐ³ÐµÐ½": 6975,
      "ĠÐŁÐ°ÑĢÐ¸Ð¶": 6976,
      "ÐķÑģÑĤÑĮ": 6977,
      "ĠÐ¿ÑĢÐµÐ´Ð»Ð¾Ð¶ÐµÐ½Ð¸Ð¸": 6978,
      "ĠÐ¿ÑĥÐ½": 6979,
      "ÑģÑĤÐ¾ÐºÐ°": 6980,
      "ĠÐ¿ÑĢÐ¸Ð´": 6981,
      "ĠÐ¿ÑĢÐµÑģÑĤÑĥÐ¿": 6982,
      "ĠÐºÐ¾Ð¼Ð¼ÐµÑĢ": 6983,
      "ĠÑĤÐµÑĢÐ¼Ð¸": 6984,
      "ĠÐ±Ð¸ÑĤÐ²Ðµ": 6985,
      "ÐµÐ¼Ñĭ": 6986,
      "ÑĢÐ¾Ð²Ð¾Ð´": 6987,
      "ĠÐ¶Ð°ÑĢ": 6988,
      "ĠÐĶÐ°Ð½Ð¸": 6989,
      "ĠÐ¼Ð¾Ð´Ðµ": 6990,
      "put": 6991,
      "ÑĨÐ¾Ð¼": 6992,
      "ĠÐ²ÑĭÐ´Ðµ": 6993,
      "Ð¾Ð²Ð°ÑĢÐ¸": 6994,
      "ĠÐ¿Ð¾Ð¼Ð½Ñİ": 6995,
      "ĠÐ¾Ð±ÑĬÑĳÐ¼": 6996,
      "Ġbe": 6997,
      "Ð½Ð°Ð´ÑĨÐ°": 6998,
      "ĠÑĢÐ°Ð·Ð½Ð¾Ð¾Ð±ÑĢÐ°Ð·": 6999,
      "ĠÐ¾Ð±Ð¼ÐµÐ½": 7000,
      "ĠÐ»ÑĳÐ³": 7001,
      "ÑĩÐ¸ÐºÐ¸": 7002,
      "ĠÐ£Ð·": 7003,
      "ĠÐ¾Ð±ÑĢÐ°Ð·Ð¾Ð²Ð°": 7004,
      "ĠÑģÐ¾Ð¿ÑĢÐ¾Ð²": 7005,
      "ĠÐĲÑĢÐ¼ÐµÐ½Ð¸Ð¸": 7006,
      "Ð»Ð¸ÑīÐµ": 7007,
      "Ð¼Ð¸Ð»Ð¸": 7008,
      "ĠÐ¾ÑĤÑĢÑı": 7009,
      "ÐļÐ¾Ð¼": 7010,
      "ĠÐ³Ð¾ÑĢÑı": 7011,
      "ĠÐ¾ÑĤÐ½Ð¾ÑĪÐµÐ½Ð¸Ðµ": 7012,
      "92": 7013,
      "Ð¾Ð²ÑĭÐ¼": 7014,
      "Ð´Ð¸Ñİ": 7015,
      "ÐºÐ¾ÑģÑĤÐ¸": 7016,
      "ĠÐ¿ÐµÑĢÐµÐ³Ð¾Ð²Ð¾ÑĢ": 7017,
      "ĠÑĩÐ°ÑģÑĤÐµÐ¹": 7018,
      "ĠÐŀÑĢÐ³Ð°Ð½Ð¸": 7019,
      "ĠÐ³Ð¾Ð²Ð¾ÑĢÑİ": 7020,
      "ĠÑģÐµÑĢÑĮÐµÐ·": 7021,
      "ĠÐŁÐ°ÑĢÐ¸Ð¶Ðµ": 7022,
      "ÐµÐµ": 7023,
      "ÑĢÐ°Ð»Ð¸": 7024,
      "ĠÐĶÐµÐ¹": 7025,
      "art": 7026,
      "ÐĽÑİ": 7027,
      "ĠÐĶÐ¶Ð¾ÑĢÐ´Ð¶": 7028,
      "Ð³ÐµÐ½Ðµ": 7029,
      "ĠÐ´Ð²Ð¾ÑĢÐµ": 7030,
      "ÑĩÐµÑĪÑĮ": 7031,
      "ĠÐ¿ÑĢÐ¸ÐºÐ°Ð·": 7032,
      "ÑĪÐ¸ÑĢ": 7033,
      "ÐŁÐ¾Ñģ": 7034,
      "ĠÐ¿Ð¾Ð»ÑĥÐ¾ÑģÑĤ": 7035,
      "ĠÐ¾Ð»Ð¸Ð¼Ð¿Ð¸Ð¹ÑģÐºÐ°Ñı": 7036,
      "ĠÐ¸Ð½ÑģÑĤÐ¸ÑĤÑĥÑĤ": 7037,
      "ĠÐĴÐ¾ÑģÑĤÐ¾ÑĩÐ½Ð¾Ð¹": 7038,
      "ĠÑģÐ¾Ð»Ð¸": 7039,
      "ĠÐ´Ð°ÑĤÑĮ": 7040,
      "ĠÐĺÐ½Ð´": 7041,
      "Ð²Ð¸Ð´ÐµÑĤÑĮ": 7042,
      "Ð¸Ð³ÑĢÐ°": 7043,
      "ÑĭÐ´Ñĥ": 7044,
      "ĠÐ²ÑģÑĤÑĥÐ¿Ð¸Ð»": 7045,
      "Ð¶ÐµÐ½Ð¸Ð¸": 7046,
      "ĠÐŁÐ°Ð½": 7047,
      "ÑĩÐ¸Ñı": 7048,
      "Â»:": 7049,
      "ĠÐ¿Ð¾Ð´ÑĬ": 7050,
      "ĠÑģÐ»ÑĥÑĩÐ°ÑıÑħ": 7051,
      "ĠÐ·ÑĥÐ±": 7052,
      "ĠÐ½ÐµÐ¾Ð¿": 7053,
      "ĠÐ±ÑĭÐ²ÑĪÐ¸Ð¹": 7054,
      "ĠÑĤÐµÐ¼Ñĥ": 7055,
      "Ð»Ð¾Ð½Ð°": 7056,
      "ĠÐ¿ÑĢÐ¾Ð¿Ð°": 7057,
      "ÑĤÑĭÐ¼Ð¸": 7058,
      "ÐºÑĢÐ°ÑĤÐ½Ð°Ñı": 7059,
      "Ð¾Ð»Ð¾Ð³Ð¸ÑĩÐµÑģÐºÐ¸Ðµ": 7060,
      "ĠÑģÐºÑĥ": 7061,
      "Ð±Ð»Ð¾Ðº": 7062,
      "Ð½Ð°ÑĩÐµ": 7063,
      "ÑĢÐ¾ÑĤ": 7064,
      "ĠÐĽÐ¾Ð¼Ð¾": 7065,
      "Ð²ÐµÐ´ÐµÐ½Ð¸Ðµ": 7066,
      "ĠÐ¾Ð±Ð»Ð°Ð´Ð°ÑĤÐµÐ»ÑĮ": 7067,
      "ĠÐ½Ð°ÑģÐ»Ðµ": 7068,
      "ĠÑĩÑĥÑĤÑĮ": 7069,
      "ĠÐ¿ÑĢÐ¸ÑĢÐ¾Ð´Ðµ": 7070,
      "ĠÐ¿Ð¸ÑģÑĮÐ¼Ð°": 7071,
      "Ġthat": 7072,
      "Ð´ÐµÐ¼Ð¾ÐºÑĢÐ°": 7073,
      "Ð½ÑĭÐ½Ðµ": 7074,
      "ĠÑĦÑĥÐ½Ð´Ð°": 7075,
      "ĠÐ¡ÐŁÐ±": 7076,
      "ĠÐŀÐºÑĤÑıÐ±ÑĢÑĮ": 7077,
      "ĠÐºÐ°Ð¼": 7078,
      "ÑĢÐ¾Ð²ÐºÐ°": 7079,
      "ÑĢÑĭÐ²Ð°": 7080,
      "Ð¶Ð°ÐµÑĤ": 7081,
      "ĠÐ¡Ð¾Ð²ÑĢÐµÐ¼ÐµÐ½": 7082,
      "ĠÐ²ÑĭÑģÐ¾ÐºÐ¾Ð¹": 7083,
      "ĠÐ¸Ð¼Ð¿ÐµÑĢÐ¸Ñı": 7084,
      "ĠÐ¡Ð¾Ð»Ð½ÑĨÐ°": 7085,
      "ĠÑģÐ°Ð¼Ð¾Ð»ÑĳÑĤ": 7086,
      "ĠÐ¼Ð¸Ñģ": 7087,
      "Ð¾Ð¹ÑĤÐ¸": 7088,
      "ĠÐ³Ð¾ÑĢÐ°": 7089,
      "ÑĤÐ¸Ð½Ð³": 7090,
      "Ġ(,": 7091,
      "ĠÐ·Ð°Ð±Ð°": 7092,
      "ÑĩÐ¸ÑĤÑĭÐ²Ð°Ñı": 7093,
      "((": 7094,
      "ring": 7095,
      "ĠÑīÐµ": 7096,
      "ÑĩÐµÑĤÐ°": 7097,
      "ĠÐļÑĢÐ°": 7098,
      "Ð¡Ð¿Ð°ÑģÐ¸Ð±Ð¾": 7099,
      "ÑģÐ°Ð´": 7100,
      "ĠÐ´ÑĢÑĥÐ³Ð¾Ð³Ð¾": 7101,
      "ĠÐ¾ÑģÐ¾Ð±Ð¾": 7102,
      "ĠÐ¸ÑģÐºÑĥÑģÑģÑĤÐ²": 7103,
      "ĠÐ´ÐµÑģÑıÑĤÐ¸": 7104,
      "ID": 7105,
      "Ð¾ÑĢÐ¾Ð½Ð°": 7106,
      "ĠÐºÐ°Ð»ÑĮ": 7107,
      "ÑģÐµÐ²": 7108,
      "ÐµÐ²ÑģÐºÐ¾Ð³Ð¾": 7109,
      "ÑģÑĤÐ°Ð²ÐºÐ¸": 7110,
      "ĠÐŁÐµÑĢÐ²Ð¾Ð¹": 7111,
      "ĠÐ»ÑİÐ±Ð»Ñİ": 7112,
      "ĠÑģÐ¾Ð²ÑĢÐµÐ¼ÐµÐ½Ð½Ð¾Ð³Ð¾": 7113,
      "41": 7114,
      "ÑĢÐ¾Ð´Ð°": 7115,
      "ĠÐ¼ÑıÑģ": 7116,
      "ĠÐ±Ð¾Ðº": 7117,
      "ĠÑĥÐºÐ°Ð·Ð°": 7118,
      "ĠÑĥÐºÑĢÐµÐ¿": 7119,
      "ĠÐ·Ð°ÑĤÑĢÐ°": 7120,
      "ĠÑĢÐµÑģÑĤÐ¾": 7121,
      "ĠÑģÑĢÐµÐ´Ð½ÐµÐ¼": 7122,
      "ĠÐ¾ÑĤÐ¿ÑĢÐ°Ð²Ð»Ñı": 7123,
      "ĠÐ¿Ð¾Ð±ÐµÐ´Ñĥ": 7124,
      "ĠÐ´Ñĭ": 7125,
      "ĠÐ´Ð°Ð»": 7126,
      "ĠÐ½Ð°Ñĩ": 7127,
      "ĠÐ³Ð¾ÑĢÐ¸": 7128,
      "ĠÐ¿ÑĢÐ¾Ð¿Ñĥ": 7129,
      "ÐŁÐµÑĢ": 7130,
      "ĠÐ¿ÑĢÐ¾ÑĨÐµÑģÑģÐµ": 7131,
      "ĠÑĢÐµÑģÑĥÑĢÑģÑĭ": 7132,
      "ĠÐ¸Ð½ÑĦÑĢÐ°ÑģÑĤÑĢÑĥÐº": 7133,
      "ÑģÐ¼ÐµÐ½": 7134,
      "ÑĢÐµÐ±Ð¸": 7135,
      "ĠÐºÑģÑĤÐ°ÑĤÐ¸": 7136,
      "ĠÐĴÐ¾ÑĢÐ¾Ð½Ðµ": 7137,
      "ĠÐ¿ÑĢÐ¾ÑħÐ¾Ð´Ð¸ÑĤ": 7138,
      "ĠÐķÐ»Ð¸Ð·Ð°": 7139,
      "ÑĪÐ°ÐµÑĤÑģÑı": 7140,
      "ĠÑĥÐ»ÑĥÑĩÑĪÐµÐ½Ð¸Ñı": 7141,
      "ÑĢÑĥÑı": 7142,
      "ĠÑĢÐ°ÐºÐµÑĤ": 7143,
      "ÑĤÐµÐ»ÑĮÐ½Ð¾Ð¼": 7144,
      "ĠÐ¿Ð¾Ð»Ð½Ð¾": 7145,
      "Ð»ÐµÐ½Ð½Ð¾Ð³Ð¾": 7146,
      "ĠÐ¾ÑģÐ½Ð¾Ð²Ð¾Ð¿Ð¾Ð»Ð¾Ð¶": 7147,
      "ĠÐ¾Ð¿ÑĢÐµÐ´ÐµÐ»ÐµÐ½Ð¸Ðµ": 7148,
      "ĠÐ²Ð·ÑıÑĤÑĮ": 7149,
      "Ġ1908": 7150,
      "ĠÑģÐ°Ð¼Ð¾Ð»Ñĳ": 7151,
      "ĠÐ¿Ð¾Ð±ÐµÑĢÐµÐ¶ÑĮÐµ": 7152,
      "ÑīÐµÐ½Ð¾": 7153,
      "Ð»ÑıÐµÑĤ": 7154,
      "ust": 7155,
      "ĠÐºÐ¾Ð¾ÑĢÐ´Ð¸Ð½Ð°": 7156,
      "ĠÐ¸Ð½ÑģÑĤÑĢÑĥÐº": 7157,
      "ĠÐ¿Ð¾Ð½ÑıÑĤÐ½Ð¾": 7158,
      "ĠÑĩÑĥÐ²ÑģÑĤÐ²Ð¾": 7159,
      "ĠÐŀÑĤÐµÑĩÐµÑģÑĤÐ²ÐµÐ½Ð½Ð¾Ð¹": 7160,
      "39": 7161,
      "Ð°Ð´Ð°": 7162,
      "ÑĤÐ¾Ñĩ": 7163,
      "ÑģÑĤÐ²Ð¾Ð²Ð°Ð»Ð¸": 7164,
      "ĠÑĢÐµÐº": 7165,
      "ĠÑģÐ¾ÑİÐ·Ð°": 7166,
      "ĠÐ¾Ð¿Ñĥ": 7167,
      "ĠÐĲÐ½Ð½Ð°": 7168,
      "ĠÐ³ÑĢÑĥÐ·Ð¾Ð²": 7169,
      "ĠÑĢÐµÐ°Ð»ÑĮÐ½Ð¾": 7170,
      "ĠÐ¿Ð°ÑĢÐ°Ð¼ÐµÑĤ": 7171,
      "ma": 7172,
      "ĠÐ¿Ð°Ð»ÑĮ": 7173,
      "Ð¶Ð½Ð°Ñı": 7174,
      "ĠÐļÐµÑĢ": 7175,
      "ĠÐļÑĥÐ»ÑĮ": 7176,
      "ĠÐºÐ°ÑģÐ°": 7177,
      "ĠÐ¿ÑĢÐ¸Ð²Ð»Ðµ": 7178,
      "ĠÐ¤Ð¸Ð·Ð¸": 7179,
      "ÑĦÐ¸Ñı": 7180,
      "Ġ1953": 7181,
      "--------": 7182,
      "ĠÐ¾ÑĢÐ³Ð°Ð½Ð¸Ð·Ð°ÑĨÐ¸Ð¹": 7183,
      "ĠÐ¾ÑĤÐµÑĨ": 7184,
      "Ð½ÑģÐºÐ¸Ð¹": 7185,
      "ÑĦÐ¸Ð·Ð¸": 7186,
      "ÑīÐµÑĢ": 7187,
      "ĠÐ¿Ð¸ÑĤÐ°": 7188,
      "ĠÐ¾ÑĢÐ³Ð°Ð½Ð¾Ð²": 7189,
      "ĠÐ±Ð¾Ð»ÑĮÑĪÐµÐ²Ð¸": 7190,
      "ĠÐĲÐ²ÑģÑĤÑĢÐ¸Ð¸": 7191,
      "ĠÐ¸Ð³ÑĢÑĥ": 7192,
      "ĠÑĢÐµÐ±ÐµÐ½": 7193,
      "ver": 7194,
      "Ð½Ð¸Ð·": 7195,
      "ĠÐĳÑĥÐ´": 7196,
      "ĠÐĳÐ°Ð¹": 7197,
      "ĠÑĪÐºÐ¾Ð»Ðµ": 7198,
      "ÑģÑĤÐ°Ð½ÑĨÐ¸Ð¸": 7199,
      "ÐĳÐ°": 7200,
      "ĠÐ¼ÐµÑģÑıÑĨÐ°": 7201,
      "ĠÑģÑĤÑĢÐ¾Ð¸ÑĤÐµÐ»ÑĮÑģÑĤÐ²Ð°": 7202,
      "ĠÐ±Ð¾Ð»Ð³Ð°ÑĢ": 7203,
      "oogle": 7204,
      "ĠÐ½ÐµÐ·Ð½Ð°": 7205,
      "Ð¾Ð·ÐµÑĦ": 7206,
      "ĠÐ¿Ð¾Ð´Ð²Ð¾Ð´": 7207,
      "Ð¼ÑĭÑĪ": 7208,
      "ĠÑģÐ²Ð¸Ð´ÐµÑĤÐµÐ»ÑĮ": 7209,
      "Ð²Ð¾Ð¼": 7210,
      "ÑģÐºÑĥÑģ": 7211,
      "ĠÐ¿ÑĢÐ¸Ð³Ð»Ð°": 7212,
      "Ð½ÐµÑĢÐ°": 7213,
      "ĠÐĵÐ²Ð¸": 7214,
      "ĠÐĵÐ°Ð¼": 7215,
      "ĠÐ¾Ð¿Ñĭ": 7216,
      "ĠÑģÐµÑĤÐµÐ¹": 7217,
      "ĠÑģÐ°Ð¼ÑĭÐµ": 7218,
      "ĠÐ´Ð°Ð½Ð½Ð¾Ð¼": 7219,
      "ĠÐ±Ð°Ð½Ðº": 7220,
      "ĠÐ¾Ð±ÑĢÐ°Ð±Ð¾ÑĤÐºÐ¸": 7221,
      "67": 7222,
      "68": 7223,
      "ĠÐ½Ð°Ð¾Ð±Ð¾ÑĢÐ¾ÑĤ": 7224,
      "ĠÐ½ÐµÐ´Ðµ": 7225,
      "ĠÐ·Ð°Ð´Ð°Ð½": 7226,
      "Ð²Ð¸Ð·Ð¸": 7227,
      "ĠÐ¿ÑĢÐ¸ÑĪ": 7228,
      "ĠÑĦÐ¸Ð»": 7229,
      "ĠÐŀÐ»ÑĮ": 7230,
      "ĠÑĨÐµÐ½Ñĭ": 7231,
      "ÐłÐµ": 7232,
      "ĠÐ¿ÑĢÐ¾ÑĤÐ¸Ð²Ð¾Ð¿Ð¾Ð»Ð¾Ð¶": 7233,
      "ĠÐĽÐµÐ¾Ð½Ð¸": 7234,
      "ĠÐĲÑĦÑĢÐ¸ÐºÐ¸": 7235,
      "ĠÐ½Ð°Ð»Ð¾Ð³Ð¾Ð²": 7236,
      "ĠÑĢÐ°Ð¹Ð¾Ð½Ð°Ñħ": 7237,
      "Ð³Ð½Ñĥ": 7238,
      "ĠÐ¼Ð¼": 7239,
      "ÐĶÐ¶": 7240,
      "ÑĦÐµÑĢÐ°": 7241,
      "ĠÑģÐ¿Ð¾ÑģÐ¾Ð±Ð¾Ð²": 7242,
      "ĠÑĤÑĢÐµÐ±ÑĥÐµÑĤ": 7243,
      "ĠÐĿÐ°ÑĨÐ¸Ð¾Ð½Ð°Ð»ÑĮÐ½ÑĭÐ¹": 7244,
      "Ð½Ð¾ÑģÑĤÑıÐ¼Ð¸": 7245,
      "ĠÑĥÑģÐ»ÑĥÐ³Ð¸": 7246,
      "ĠÐ¿ÑĢÐµÐ´ÑĥÑģ": 7247,
      "ĠÑģÐºÑĢÑĭ": 7248,
      "Ð¾Ð¿ÑĢÐ¾": 7249,
      "ĠÑĢÐµÐ°": 7250,
      "ĠÐ¾ÑģÐ²Ðµ": 7251,
      "ĠÐ·Ð½Ð°Ð»": 7252,
      "ĠÑĢÐ°Ð²ÐµÐ½": 7253,
      "ĠÑģÑĭÐ½Ð°": 7254,
      "ĠÑĤÐµÐºÑģÑĤÐ¾Ð²": 7255,
      "ĠÐºÐ¾Ð½ÑĦÐ¸": 7256,
      "ĠÐ´Ð¸Ð¿Ð»Ð¾Ð¼": 7257,
      "Ġ1912": 7258,
      "ĠÐºÐ¾Ð¼Ð°Ð½Ð´Ð¾Ð²Ð°Ð½Ð¸ÐµÐ¼": 7259,
      "ĠÐ¾Ð±ÑĥÑĩÐ°": 7260,
      "ĠÐ¾ÑĤÐ¼Ðµ": 7261,
      "ÑĩÐ¸ÐºÐ°": 7262,
      "ĠÐ´Ð°Ð½Ð½Ð¾Ð¹": 7263,
      "ĠÐ¿Ð¸ÑģÐ°ÑĤÑĮ": 7264,
      "ĠÐ¿Ð¾Ð»Ð¸ÑĤÐ¸ÑĩÐµÑģÐºÐ¸Ñħ": 7265,
      "ĠÐ¸ÑģÑĤÐ¾ÑĩÐ½Ð¸ÐºÐ¸": 7266,
      "ĠÑĥÐ¼ÐµÐ½ÑĮÑĪÐ¸ÑĤÑĮ": 7267,
      "ĠÐ¼Ð°ÑĤ": 7268,
      "ĠÐ¼Ð¸Ð½Ð¸Ð¼Ð°": 7269,
      "ĠÑĢÑĥÑģÑģÐºÐ¸Ðµ": 7270,
      "ĠÐ¼Ð°ÑĤÐµÐ¼Ð°": 7271,
      "ru": 7272,
      "ĠÐ¾ÑģÑĤÐ°Ð½Ð¾Ð²": 7273,
      "ĠÐĴÑĢÐµÐ¼ÐµÐ½": 7274,
      "Ð¾ÑĤÐ¾Ð¹": 7275,
      "ĠÐ¿Ð¾Ð¼Ð¾Ð¶ÐµÑĤ": 7276,
      "ĠÐ¸Ð·Ð²ÐµÑģÑĤÐµÐ½": 7277,
      "ĠÐ±Ð¾Ð³Ð°ÑĤ": 7278,
      "Ġal": 7279,
      "ĠÑģÐ¾ÑħÑĢÐ°Ð½Ñı": 7280,
      "Ð¡Ð¾ÑİÐ·": 7281,
      "ĠÐĿÐ°ÑģÐµÐ»ÐµÐ½Ð¸Ðµ": 7282,
      "Ð¶ÐµÐ½Ð¸Ñİ": 7283,
      "ĠÐĺÐ¾Ð³Ð°Ð½": 7284,
      "ĠÐ´Ð¾Ð»Ð³Ð¾": 7285,
      "ĠÐŀÑĢÐ´ÐµÐ½": 7286,
      "ĠÐ¿Ð¾ÑıÐ²Ð¸Ð»Ð¸ÑģÑĮ": 7287,
      "ĠÐ²Ð¿ÐµÑĩÐ°ÑĤ": 7288,
      "ĠÐ¿Ð¾ÑģÐµÑĤÐ¸": 7289,
      "ĠÑĤÐµÑħÐ½Ð¸ÐºÐ¸": 7290,
      "ĠÑĦÐ¸Ð³": 7291,
      "ĠÐ³ÐµÐ¾Ð³ÑĢÐ°ÑĦÐ¸": 7292,
      "ĠÐ¿ÑĢÐµÐ´ÑĭÐ´Ñĥ": 7293,
      "ÑģÑĤÑĢÐ¾Ð¸ÑĤÐµÐ»ÑĮ": 7294,
      "ÐµÑĤÐ¸Ñı": 7295,
      "Ġ1954": 7296,
      "Ġ1904": 7297,
      "ĠÑģÐµÐ»ÑĮÑģÐºÐ¾ÑħÐ¾Ð·ÑıÐ¹": 7298,
      "ĠÐ¿ÑĢÐ¾Ð²Ð¸Ð½ÑĨÐ¸Ð¸": 7299,
      "ĠÐ½Ð°Ñħ": 7300,
      "ÑĨÐ¸Ð·Ð¼": 7301,
      "ĠÑĦÐ»Ð¾ÑĤÐ°": 7302,
      "ĠÑĢÐµÐ»ÑĮ": 7303,
      "ĠÑĤÐ°ÐºÐ¾Ð¼": 7304,
      "Ġ1910": 7305,
      "ĠÐ´ÐµÐ¹ÑģÑĤÐ²ÑĥÐµÑĤ": 7306,
      "ĠÐ·Ð°ÑĢÐ¿Ð»Ð°": 7307,
      "ĠÐ³Ð¾ÑģÑĥÐ´Ð°ÑĢÑģÑĤÐ²Ð¾Ð¼": 7308,
      "ĠÐ»Ð°Ð´Ð½Ð¾": 7309,
      "ĠÑĦÑĢÐ°Ð½ÑĨÑĥÐ·ÑģÐºÐ°Ñı": 7310,
      "ÐµÑĪÑĮÑģÑı": 7311,
      "Ð´Ð¶Ð°": 7312,
      "ÑĤÐµÑĢÑĭ": 7313,
      "ĠÐºÐ°Ð¼ÐµÑĢ": 7314,
      "ĠÐ¿ÑĢÐ¾ÑĪÐ»Ð¸": 7315,
      "ĠÐ´Ð²ÑĥÐºÑĢÐ°ÑĤÐ½ÑĭÐ¹": 7316,
      "ĠâĪĴ": 7317,
      "ĠÑĢÐµÐ³ÑĥÐ»Ð¸": 7318,
      "ĠÐ½ÐµÑĦÑĤÐ¸": 7319,
      "ĠÑĩÑĢÐµÐ·Ð²ÑĭÑĩÐ°Ð¹": 7320,
      "ĠÐ½Ð°ÑĢÐµ": 7321,
      "Ð°Ð½Ð¸Ð½": 7322,
      "ĠÐĺÑĢÐ°": 7323,
      "Ð»Ð¾Ð¶Ð¸ÑĤÐµ": 7324,
      "ĠÐ´Ð¾Ð»Ð¶Ð½Ð¾ÑģÑĤÐ¸": 7325,
      "ĠÐºÑĥÑħ": 7326,
      "ĠÐ¡ÑĤÐ°Ð»Ð¸Ð½": 7327,
      "Ġwith": 7328,
      "ĠÐ²Ð¾Ð·ÑĢÐ°ÑģÑĤ": 7329,
      "ĠÐ½ÐµÐ´Ð¾ÑģÑĤÐ°": 7330,
      "Ð¼Ð½": 7331,
      "ĠÐ±ÑĢÐ¾Ñģ": 7332,
      "ĠÐ·Ð°Ð¿Ð¸ÑģÐ¸": 7333,
      "ĠÑĢÐµÑĨÐµÐ¿": 7334,
      "ĠÐºÐ¾Ð°Ð»Ð¸": 7335,
      "ĠÑģÐ²Ð¾ÐµÐ¼": 7336,
      "Ð¼Ð¾Ð¶ÐµÑĤ": 7337,
      "Ġ1955": 7338,
      "Ġ1913": 7339,
      "ĠÐ³ÐµÑĢÐ¾": 7340,
      "ĠÐĺÐ²Ð°Ð½Ð¾Ð²": 7341,
      "ĠÐ´ÐµÐ²ÑĥÑĪÐºÐ°": 7342,
      "?.": 7343,
      "ÑĢÐµÑģÑģ": 7344,
      "ĠÐ¾Ð±Ð°": 7345,
      "ĠÑģÐ¾ÑĩÐµÑĤ": 7346,
      "ĠÐĹÐ´ÐµÑģÑĮ": 7347,
      "ÐľÐĺ": 7348,
      "ĠÐ½Ð¾Ð²ÑĭÐ¼": 7349,
      "ĠÐ¿ÑĢÐ¸Ð½ÑıÑĤ": 7350,
      "ĠÐ³Ð»Ð°Ð²Ð½ÑĭÐ¹": 7351,
      "ĠÐºÐ¾Ð½ÐµÑĩÐ½Ð¾Ð¼": 7352,
      "!!!": 7353,
      "ĠÐ¤Ð¸Ð»Ð¸Ð¿": 7354,
      "ĠÐ¤Ð¸Ð½Ð»ÑıÐ½Ð´Ð¸Ð¸": 7355,
      "Ġ)": 7356,
      "ĠÐ²ÑģÐºÐ¾ÑĢÐµ": 7357,
      "ÑĩÑĮÑİ": 7358,
      "Ð³Ð°Ñħ": 7359,
      "ĠÐ³ÑĢÐ°Ð¶Ð´Ð°Ð½Ðµ": 7360,
      "ĠÐ·Ð°Ð²ÐµÑĢÑĪÐ¸": 7361,
      "ĠÐļÐ¾Ð½ÑģÑĤÐ¸ÑĤÑĥÑĨÐ¸Ð¸": 7362,
      "Ġ;.<|": 7363,
      "ĠÐ¡ÑĥÐ´": 7364,
      "ÑĳÑĢÐ°": 7365,
      "ĠÑįÐ²Ð¾Ð»Ñİ": 7366,
      "ĠÐĶÐ°Ð½Ð¸Ð¸": 7367,
      "ĠÑĢÐ¾Ð·": 7368,
      "ĠÑĢÐ°Ð²Ð½Ð°": 7369,
      "Ġpr": 7370,
      "ĠÐ½Ð°ÑĨÐ¸Ð¾Ð½Ð°Ð»ÑĮÐ½Ð¾Ð³Ð¾": 7371,
      "ĠÑģÐ¼ÐµÑĢÑĤÑĮ": 7372,
      "Ð°ÑĢÐ°": 7373,
      "ÐµÐ½Ð½Ð¾ÑģÑĤÑĮ": 7374,
      "ĠÐ±ÐµÐ½": 7375,
      "Ð´Ð°ÑĨÐ¸Ð¸": 7376,
      "ĠÐŁÑĢÐ¾Ð´": 7377,
      "ĠÑįÐ½ÑĨÐ¸ÐºÐ»Ð¾Ð¿ÐµÐ´Ð¸": 7378,
      "Ð´ÐµÑĢÐ°": 7379,
      "ĠÐ¾Ð¿ÐµÑĢ": 7380,
      "ĠÐ¿ÐµÑĢÐ²Ð¾Ð¼": 7381,
      "ĠÐ¸Ð½ÑĤÐµÑĢÑĦÐµÐ¹": 7382,
      "ĠÐ¾ÑĤÑģÑĤÐ°Ð²ÐºÑĥ": 7383,
      "Ð½Ð¸Ð²ÐµÑĢ": 7384,
      "ĠÐ¡ÐµÐ½ÑĤ": 7385,
      "ĠÐŀÑĦÐ¸ÑĨÐ¸Ð°Ð»ÑĮ": 7386,
      "ĠÐ¿ÑĥÑģÑĤÑĭ": 7387,
      "ĠÑĩÐµÐ»Ð¾Ð²ÐµÐºÐ¾Ð¼": 7388,
      "ĠÐľÐ¸ÑĢ": 7389,
      "Ð´ÐµÑĤÑĮ": 7390,
      "ĠÐ¸Ð´ÑĳÑĤ": 7391,
      "ĠÐ°Ð²Ð°": 7392,
      "ĠÐ·Ð°Ð²": 7393,
      "ĠÐ¾ÑĤÑĢÐ°": 7394,
      "ĠÑģÑĤÐµÐ½": 7395,
      "ĠÐ¢Ð¾Ð»": 7396,
      "ĠÐ±Ð¾Ð»ÑĮÑĪÐ¸Ð¼": 7397,
      "Ġ978": 7398,
      "ĠÐ»ÑİÐ±Ð¸Ð¼": 7399,
      "ĠÐ²ÑĢÐµÐ¼ÐµÐ½Ð°": 7400,
      "ĠÐ°Ð»ÑĮÑĤÐµÑĢÐ½Ð°": 7401,
      "ĠÐ¸Ð·ÑĥÑĩÐµÐ½Ð¸Ñı": 7402,
      "ĠÐºÐ²Ð°Ð´ÑĢÐ°ÑĤ": 7403,
      "ĠÐ²Ð°Ð»ÑİÑĤ": 7404,
      "ĠÑģÑģÑĭÐ»": 7405,
      "ÑĢÑĥÑĤ": 7406,
      "ÑĪÐµÐ»ÑĮ": 7407,
      "ÐŁÑĢÐ°Ð·Ð´Ð½Ð¸ÐºÐ¸": 7408,
      "ĠÐ´ÑĢÑĥÐ¶": 7409,
      "ĠÐ²Ð¸Ð´Ñĥ": 7410,
      "Ġ1931": 7411,
      "ĠÐ¾Ð±ÑīÐµÐµ": 7412,
      "Ġ1907": 7413,
      "ĠÑĦÐ¸ÑĢ": 7414,
      "ĠÐ±Ð¾Ñı": 7415,
      "ĠÑĢÐµÑĪÐ¸Ð»": 7416,
      "ĠÑħÐ¾ÐºÐºÐµÐ¸ÑģÑĤ": 7417,
      "ÑĤÑĢÐ°Ð½": 7418,
      "ĠÐ´Ð¾Ð»Ð¸": 7419,
      "ÐµÐ½ÑĤÐ¾Ð¼": 7420,
      "ÐľÐ¾": 7421,
      "Ġ1911": 7422,
      "ĠÐ¾Ð±ÑģÐ»ÑĥÐ¶Ð¸Ð²Ð°Ð½Ð¸Ñı": 7423,
      "ĠÑĤÑĢÐ¾Ð»Ð»ÐµÐ¹": 7424,
      "ĠÐ¿Ð¾ÑĢÐ°Ð¶ÐµÐ½Ð¸Ðµ": 7425,
      "ĠÐ»Ð¸Ð±Ðµ": 7426,
      "ÑĨÐ¸ÑıÐ¼": 7427,
      "ÐĹÐ½Ð°": 7428,
      "ĠÐĿÐ°Ð¿Ð¾Ð»Ðµ": 7429,
      "out": 7430,
      "Ð¾Ð¾": 7431,
      "ĠÐ¸Ð±Ð¾": 7432,
      "ĠÐºÐ¾Ð¿Ð¸": 7433,
      "ÑģÐºÐµÑĤ": 7434,
      "Ð´Ð¸Ð½Ð¾": 7435,
      "ĠÐĳÑĢÑİ": 7436,
      "ĠÐ²ÐµÑĩÐµÑĢ": 7437,
      "ĠÑģÐ¿ÐµÐº": 7438,
      "Ġ75": 7439,
      "ĠÑģÑĤÐ¾Ð¸Ð¼Ð¾ÑģÑĤÑĮ": 7440,
      "ĠÐ¿ÑĢÐµÐ´ÑģÑĤÐ°Ð²Ð»ÑıÑİÑĤ": 7441,
      "ĠÐºÐ¾ÑĦÐµ": 7442,
      "ÑĥÑĤÑģÑı": 7443,
      "ÐĴÐ¸": 7444,
      "Ð°Ð¹ÑĤ": 7445,
      "ĠÐ²Ð¸Ð¶Ñĥ": 7446,
      "ĠÐŁÐ¾ÑģÐºÐ¾Ð»ÑĮÐºÑĥ": 7447,
      "ĠÐ»Ð°ÑĤÐ¸Ð½": 7448,
      "ĠÐ²ÑĭÐ¿Ð¾Ð»Ð½ÐµÐ½Ð¸Ñı": 7449,
      "ĠÐľÐ¾ÑģÐºÐ¾Ð²ÑģÐºÐ¾Ð³Ð¾": 7450,
      "ÑĤÐ¾ÑĢÐ¸Ñı": 7451,
      "ÐµÐ¼ÑĭÐ¼": 7452,
      "ĠÑĤÐ²ÑĳÑĢ": 7453,
      "ĠÐłÐµÐ¹": 7454,
      "ĠÐ´ÐµÐ²Ð¾": 7455,
      "Ġ32": 7456,
      "ĠÐ¸Ð³ÑĢÐ°ÑĤÑĮ": 7457,
      "ÑĢÐ°Ð±Ð¾": 7458,
      "ĠÐ½ÐµÐ´": 7459,
      "ĠÐĿÐ°Ð·": 7460,
      "ĠÐŁÑĢÐ¸Ð¼ÐµÑĢ": 7461,
      "ĠÑģÑĩÐ¸ÑĤÐ°Ð»": 7462,
      "ĠÑģÐ¾Ð·Ð´Ð°Ð½Ð°": 7463,
      "ĠÑģÐ¾Ð»Ð´Ð°ÑĤ": 7464,
      "ĠÐĳÐ¾Ð»ÑĮÑĪÐ¸Ð½ÑģÑĤÐ²Ð¾": 7465,
      "est": 7466,
      "ph": 7467,
      "ÑĪÐµÐ¼Ñĥ": 7468,
      "ÑĤÐ°ÑĢÐ¸ÑģÑĤ": 7469,
      "Ð²Ð°ÑĤÐµÐ»ÑĮ": 7470,
      "ĠÑĥÐºÐ°Ð·Ð°Ð½": 7471,
      "ĠÐ²ÑĭÑĢÐ¾Ñģ": 7472,
      "Ð±Ð¸ÑĤÑĮ": 7473,
      "ĠÑģÐ²ÑıÐ·ÑĭÐ²Ð°": 7474,
      "ĠÐ¿ÑĢÐ°Ð²Ð¸Ð»Ð°": 7475,
      "ĠÐ²Ð¾ÑģÐ¿ÑĢÐ¸Ñı": 7476,
      "ĠJava": 7477,
      "Ð½ÐµÐ½Ð¸Ð¸": 7478,
      "ÑĢÐµÐºÑĤÐ¾ÑĢ": 7479,
      "ĠÐ½Ð°ÑĤ": 7480,
      "ÐºÐ¾Ð½Ð°": 7481,
      "ĠÐ¿Ð°ÑĢÐ°Ð»Ð»Ðµ": 7482,
      "ĠÐ¿Ð¸Ð°Ð½Ð¸": 7483,
      "ĠÐºÐ½Ð¸Ð³Ðµ": 7484,
      "ĠÑĢÐ°Ð·Ð³ÑĢÐ¾Ð¼": 7485,
      "ÑĥÐ»Ð¸": 7486,
      "Ð·Ð¾": 7487,
      "âĢĭ": 7488,
      "ĠÐ½ÐµÐ¾Ð´": 7489,
      "ÐĶÐ»Ñı": 7490,
      "Ð¸Ð±Ð¾Ð»ÑĮ": 7491,
      "ĠÑĦÐ°Ð¼Ð¸": 7492,
      "ĠÑįÑĦÑĦÐµÐºÑĤÐ¸Ð²Ð½Ð¾": 7493,
      "ĠÑĤÐ¾ÑĢÐ³Ð¾Ð²Ð»Ð¸": 7494,
      "ĠÐĶÐ¶ÐµÐ¹Ð¼Ñģ": 7495,
      "ÑĮÑıÐ½": 7496,
      "ĠÐ½Ð¾Ð¼": 7497,
      "ĠÐ¼Ð»Ð°Ð´": 7498,
      "ÑģÑĤÐ°Ñı": 7499,
      "ĠÑĦÐµ": 7500,
      "ÑĥÑİÑīÐµÐ³Ð¾": 7501,
      "Ð¶Ð´ÑĭÐ¹": 7502,
      "ĠÐ²Ð°ÑĪÐµÐ¹": 7503,
      "Ð´Ð¾ÑĢÐ°": 7504,
      "ÑģÑĥÐ»Ñĭ": 7505,
      "ĠÐ¿Ð¾ÑģÐ»ÐµÐ´Ð¾Ð²Ð°ÑĤÐµÐ»ÑĮ": 7506,
      "ĠÐĵÐµÑĢÐ¼Ð°Ð½": 7507,
      "Ð¿ÑĢÐ¾Ð¸Ð·": 7508,
      "ĠÐ¿Ð¾Ð»Ð¾Ð¶ÐµÐ½Ð¸Ñı": 7509,
      "ĠÐ¿Ð¾Ð»Ð¾Ð²Ð¸Ð½Ðµ": 7510,
      "ĠÐ³ÐµÐ½ÐµÑĢÐ°Ð»Ð°": 7511,
      "ĠÐ¿Ð¾ÑģÑĤÐµÐ¿ÐµÐ½Ð½Ð¾": 7512,
      "46": 7513,
      "ĠÐ»Ð¸Ð½Ð³Ð²Ð¸": 7514,
      "ĠÐĺÐ»ÑĮ": 7515,
      "ĠÐ»Ð¸Ð½Ð¸Ñı": 7516,
      "Ð¿ÐµÐ»ÑĮ": 7517,
      "ĠÐ¼Ð°Ð³Ð½Ð¸ÑĤ": 7518,
      "ĠÑģÑĤÐ°Ð±Ð¸": 7519,
      "ĠÐ¥Ð°ÑĢÑĮ": 7520,
      "ĠÐ¸ÑģÐºÐ¾Ð¿Ð°": 7521,
      "ess": 7522,
      "ĠÐ¾Ð±ÐµÑģÐ¿ÐµÑĩÐ¸Ð²Ð°ÐµÑĤ": 7523,
      "ĠÐ±Ð°Ð·Ðµ": 7524,
      "ĠÐ·Ð°ÐºÐ¾Ð½Ð°": 7525,
      "ĠÐ¾ÑĤÑģÐ»ÐµÐ¶Ð¸": 7526,
      "ĠÐļÐ°ÑĤÐ¾Ð»Ð¸": 7527,
      "ĠÐłÐ¸ÑĩÐ°ÑĢÐ´": 7528,
      "ÑĢÐ¾Ð½Ð°": 7529,
      "Ð¸Ð½ÑģÐºÐ¸Ð¹": 7530,
      "Ð°Ð»Ð¾Ð¼": 7531,
      "ÐºÐ¾Ð²ÑģÐºÐ¾Ð³Ð¾": 7532,
      "ĠÐ³Ð¾ÑĢÑĭ": 7533,
      "ĠÑģÐ¾Ð±Ð»Ñİ": 7534,
      "ĠÐ¿Ð°ÑĢÑĤ": 7535,
      "ĠÐ¾Ð±ÑĬÑĳ": 7536,
      "Ġ1916": 7537,
      "ĠÐļÐ°ÑĢÐ»Ð°": 7538,
      "ĠÑĥÐ³ÑĢÐ¾Ð·": 7539,
      "ĠÑĢÐµÐ³Ð¸Ð¾Ð½Ð°Ð»ÑĮ": 7540,
      "ĠÐ½Ð°ÑĥÑĩÐ½ÑĭÑħ": 7541,
      "ĠÐ¿Ð¾Ð»Ð¸ÑĤÐ¸ÑĩÐµÑģÐºÐ¾Ð¹": 7542,
      "ĠÐ¶ÐµÐ½ÑīÐ¸Ð½Ñĭ": 7543,
      "ĠÐĴÐµÐ½Ð³ÑĢÐ¸Ð¸": 7544,
      "Ð¿ÑĢÐ¾Ð´": 7545,
      "ĠÐ¿ÑĢÐµÐ¾Ð´": 7546,
      "Ð·Ð°Ð¿Ð°Ð´": 7547,
      "Ð±Ð°Ñħ": 7548,
      "ĠÐ¿Ð°Ð¿Ð°": 7549,
      "ĠÐ¼Ð¾Ð¼ÐµÐ½ÑĤÐ°": 7550,
      "ĠÑģÐ¾ÑĤÑĢÑĥÐ´Ð½Ð¸ÐºÐ¾Ð²": 7551,
      "ĠÐ¿ÑĢÐµÐ¸Ð¼ÑĥÑīÐµÑģÑĤÐ²ÐµÐ½Ð½Ð¾": 7552,
      "73": 7553,
      "ÑĢÑĳ": 7554,
      "ĠÐ²ÑħÐ¾Ð´Ð¸": 7555,
      "Ð¾Ð³ÐµÐ½": 7556,
      "ĠÐ·Ð°Ð²Ð¾": 7557,
      "ĠÑĦÐ»Ð¾ÑĤ": 7558,
      "ÐĵÐĳ": 7559,
      "ĠÑĤÐµÐ°ÑĤÑĢÐ°Ð»ÑĮÐ½ÑĭÐ¹": 7560,
      "ĠÐ¼Ð¾Ð»ÐµÐºÑĥ": 7561,
      "Ð¾ÑĢÐ¾ÑĪÐ¾": 7562,
      "ÑĦÐ¸ÐºÐ°ÑĨÐ¸Ñı": 7563,
      "ĠÐ¿ÑĢÐ¸Ð½ÑĨÐ¸Ð¿": 7564,
      "ĠÐŀÐ»Ð¸Ð¼Ð¿Ð¸Ð¹ÑģÐºÐ¸Ñħ": 7565,
      "Ð¼ÑĭÐµ": 7566,
      "ĠÑģÐºÐ°Ð·": 7567,
      "ĠÐ±Ð°Ðº": 7568,
      "ĠÐŁÑĢÐ¾Ð²": 7569,
      "ĠÐŁÐ¾Ð³Ð¸": 7570,
      "ĠÐłÑĥÐ¼Ñĭ": 7571,
      "ĠÐĳÑĢÐ°": 7572,
      "ĠÑģÐ¸Ð»Ð°": 7573,
      "ĠÐ¥Ð¾Ð»": 7574,
      "ĠÐ¸Ð·Ð²ÐµÑģÑĤÐ½Ð¾": 7575,
      "ĠÐ´Ð²Ð°Ð¶Ð´Ñĭ": 7576,
      "ĠÐ¿Ð¾Ð»ÑĥÑĩÐ°ÐµÑĤÑģÑı": 7577,
      "Ð½Ð¸Ð»Ð¸": 7578,
      "ĠÑĥÐ¿Ð°": 7579,
      "ĠÐ¢Ð¾Ð³Ð´Ð°": 7580,
      "ĠÐ´Ð¾ÑģÑĤÑĥÐ¿Ð°": 7581,
      "ÐĴÐ°": 7582,
      "ĠÐ¼ÑĥÐ·ÑĭÐºÐ¸": 7583,
      "ĠÐ²ÑģÐ¿Ð¾Ð¼": 7584,
      "Ð«": 7585,
      "Ð»ÑĮÐ½ÑĥÑİ": 7586,
      "ĠÐ¾Ð±ÑĢÐ°Ð·Ð¾Ð²Ð°Ð½": 7587,
      "ĠÐºÐ¾Ð¼Ð¿ÑĮÑİÑĤÐµÑĢÐ°": 7588,
      "ĠÐļÐ¾Ð»ÑĥÐ¼": 7589,
      "Ġk": 7590,
      "ÑĥÐ½Ð°": 7591,
      "ĠÐ²Ð°Ð½": 7592,
      "Ð½Ð¸Ð½Ð°": 7593,
      "Ð¾ÑģÐ»Ð°Ð²Ð¸": 7594,
      "ĠÐºÐ°ÐºÐ¾Ðµ": 7595,
      "ĠÐľÐµÐºÑģÐ¸": 7596,
      "Ð·Ð°ÑĨÐ¸Ñİ": 7597,
      "ĠÐºÐ¾Ð½ÐºÑĥ": 7598,
      "ĠÑģÐºÑĢÐ¸": 7599,
      "ÑĩÐµÐ½ÐºÐ¾": 7600,
      "ĠÐľÑĥÑħÐ°Ð¼": 7601,
      "ĠÐ²ÑħÐ¾Ð´Ð¸ÑĤ": 7602,
      "ĠÐ¾ÑģÐºÐ¾ÑĢ": 7603,
      "ÑĤÐµÑĤÐ°": 7604,
      "Ð¾Ð½ÑĮ": 7605,
      "ĠÑĢÐ°ÑģÑĤÐ²Ð¾": 7606,
      "ĠÐ¾Ð±Ð¾ÑģÐ½Ð¾Ð²": 7607,
      "Ð¿Ð°Ð´Ð°": 7608,
      "Ð¼Ð¾ÑģÑĤÑĮ": 7609,
      "ĠÐ¾ÑģÑĤÐ°Ð»ÑĮÐ½ÑĭÐµ": 7610,
      "ĠÐ¿Ð¾Ð²ÑĭÑĪÐµÐ½Ð¸Ñı": 7611,
      "Ð¿Ð»Ð¾ÑĤÑĮ": 7612,
      "age": 7613,
      "Ġus": 7614,
      "Ð¿ÑĢÐ°Ð²Ð¸": 7615,
      "ĠÑĤÑĢÐ¾Ð¿": 7616,
      "ĠÐ¿ÐµÑĢÐµÐ¶Ð¸": 7617,
      "ÑĪÐ°ÑİÑĤ": 7618,
      "ĠXII": 7619,
      "ĠÐĸÐµÐ»Ðµ": 7620,
      "ĠÑģÑĭÐ³ÑĢÐ°": 7621,
      "ĠÐĴÐ»Ð°Ð´Ð¸Ð¼Ð¸": 7622,
      "Ð´ÐµÐ»Ð¸ÑĤÑĮ": 7623,
      "ĠÑģÐ°Ð¹ÑĤ": 7624,
      "ĠÐ¼ÑĥÐ´": 7625,
      "ĠÐ½ÐµÐ¼Ñĥ": 7626,
      "ĠÐĳÐ¾Ð³Ð°": 7627,
      "ĠÐĳÑĢÐ¸ÑĤÐ°Ð½": 7628,
      "ĠÐ¸ÑģÐ¿Ñĭ": 7629,
      "ĠÐºÐ°ÑĩÐµÑģÑĤÐ²Ð¾": 7630,
      "ĠÐ¸Ð¼ÐµÐ½ÐµÐ¼": 7631,
      "Ð»Ð¾Ð²Ð¸Ñĩ": 7632,
      "Ġwh": 7633,
      "ĠÐ¿Ð¾Ð´Ð¿Ð¸ÑģÐ°Ð½": 7634,
      "ĠÐľÐµÐ¶Ð´ÑĥÐ½Ð°ÑĢÐ¾Ð´Ð½ÑĭÐ¹": 7635,
      ":**": 7636,
      "ÐµÐ²Ðµ": 7637,
      "ÑģÐ½Ð¾Ð¹": 7638,
      "ÑĤÐ°ÑĨÐ¸Ñİ": 7639,
      "ÑĩÐµÑĢÐ°": 7640,
      "ĠÐĵÐ°Ð¹": 7641,
      "ĠÐĶÐ°Ð»ÑĮ": 7642,
      "ÑĢÑıÐ´Ñĥ": 7643,
      "ÐĲÐł": 7644,
      "ĠÑĨÐ°ÑĢÑĮ": 7645,
      "ÐłÐ¸": 7646,
      "ĠÐºÑĢÑĥÐ¿Ð½ÑĭÐµ": 7647,
      "ĠÑģÐ¾Ð²ÐµÑĢÑĪÐ¸Ð»": 7648,
      "ĠÑģÐ²Ð¾Ð±Ð¾Ð´Ñĭ": 7649,
      "ĠÐ·Ð¾Ð»Ð¾ÑĤÐ°": 7650,
      "ĠÐĴÐ¸Ð»ÑĮÐ³ÐµÐ»ÑĮÐ¼": 7651,
      "ĠÐĹÐµÐ»Ð°Ð½": 7652,
      "Ð»Ð¾Ð³": 7653,
      "ĠÐ¿ÑĢÑĥ": 7654,
      "ĠÑĦÐ»Ð°Ð³": 7655,
      "Ð¾Ð²Ð°ÑĤÐµÐ»ÑĮÐ½Ð¾": 7656,
      "ĠÐ¿Ð¾Ð´Ð°Ð²": 7657,
      "ÐļÐŁ": 7658,
      "ĠÐ§ÐµÐ¼": 7659,
      "Ð±Ð°ÑĩÑĳ": 7660,
      "ĠÐ½Ð¾Ð²Ð°Ñı": 7661,
      "ÑĢÐ°Ð»ÑĮÐ½ÑĭÐµ": 7662,
      "ĠÐµÐ²ÑĢÐ¾": 7663,
      "ack": 7664,
      "Ð¾Ð²Ð¾Ð»ÑĮ": 7665,
      "Ð¶ÐµÐ½Ðµ": 7666,
      "ĠÐ·Ð°ÑĢÐµÐ³Ð¸ÑģÑĤÑĢÐ¸": 7667,
      "ĠÐ¿ÑĢÐ¾Ð»Ð¸": 7668,
      "Ð½Ð³ÑĢÐ°": 7669,
      "ĠÐ¡ÑĤÐ°ÑĢ": 7670,
      "ĠÐ¡ÐµÑĢÐ³Ðµ": 7671,
      "ĠÐ·Ð°ÑħÐ²Ð°ÑĤÑĭ": 7672,
      "ĠÐ±ÐµÑĢÐµÐ³Ñĥ": 7673,
      "ĠÑģÐ¾Ð±ÑĢÐ°Ð½Ð¸Ðµ": 7674,
      "ĠÑĨÐ¸ÑĦÑĢÐ¾Ð²": 7675,
      "ĠÐ±Ð»Ð¸Ð¶Ð°Ð¹": 7676,
      "79": 7677,
      "eb": 7678,
      "ÑĭÑĪÐµ": 7679,
      "ÑģÑĤÐ¸ÑĤÐµ": 7680,
      "ÑģÑĤÐ¸ÐºÐ°": 7681,
      "ĠÐļÐ»Ð°": 7682,
      "ĠÑĩÐ°ÑģÐ°": 7683,
      "ĠÑĢÑĥÑģÑģÐºÐ°Ñı": 7684,
      "ĠGoogle": 7685,
      "ĠÐ¶ÐµÐ½ÑīÐ¸Ð½Ð°": 7686,
      "ĠÐĳÐ»Ð°Ð³Ð¾Ð´Ð°ÑĢÑı": 7687,
      "ÐµÐ½ÑĤÐ°Ð»ÑĮ": 7688,
      "ĠÐ½Ð°Ð»Ð¸ÑĩÐ¸Ðµ": 7689,
      "ĠÑĢÐ°Ð´Ð¾": 7690,
      "ĠÑĢÐµÐºÐµ": 7691,
      "Ð½ÑıÐµÑĤÑģÑı": 7692,
      "ĠÐ´Ð¸Ð°Ð»": 7693,
      "ĠÐ¿Ð¾ÑĢÑĤÑĥÐ³Ð°": 7694,
      "ĠÐ»ÑİÐ±Ð¾Ð³Ð¾": 7695,
      "ĠÐ½Ð°Ð¿Ð¸ÑģÐ°Ð½Ð¾": 7696,
      "ure": 7697,
      "ĠÐĺÐ¾ÑģÐ¸": 7698,
      "ÐµÐ»Ñĳ": 7699,
      "ĠÐ¿Ð°ÑĢÐ¾Ð²": 7700,
      "ĠÐ¾ÑĤÐºÑĢÑĭÑĤÐ¸Ðµ": 7701,
      "ĠÐ´Ð¾ÑĢÐ¾Ð¶": 7702,
      "ĠÐ²ÑĤÐ¾ÑĢÐ¾Ð³Ð¾": 7703,
      "ĠÑģÐ¿Ð°ÑģÐ¸Ð±Ð¾": 7704,
      "ĠÑģÐºÑĥÐ»ÑĮÐ¿ÑĤÐ¾ÑĢ": 7705,
      "ĠÐ½Ð°Ð½Ðµ": 7706,
      "Ð¾Ð»ÐµÐ½": 7707,
      "ĠÐ½ÐµÐ´ÐµÐ»Ð¸": 7708,
      "ĠÑĥÑģÐ¿": 7709,
      "ass": 7710,
      "ÑĩÐ°ÑģÑĤÐ¸": 7711,
      "ĠÐĺÐµÑĢ": 7712,
      "ĠÐ¸ÑģÐºÑĥÑģÑģÑĤÐ²Ð¾": 7713,
      "ĠÐºÑĥÑĢÑģ": 7714,
      "Ð³ÑĢÐµÑģÑģ": 7715,
      "ĠÐĴÐ¸Ð·Ð°Ð½": 7716,
      "ĠÐ¿Ð»Ñı": 7717,
      "Ð¶Ð½Ð¾ÑģÑĤÐ¸": 7718,
      "ĠÑĩÐµÑĢÐµ": 7719,
      "ĠÐĳÐ¾": 7720,
      "ĠÐ»Ð¸ÐºÐ²Ð¸": 7721,
      "ÑĤÐ¸Ð²Ð½ÑĭÐ¼": 7722,
      "ĠÐ¿Ð°ÑĢÑĤÐ¸": 7723,
      "ÑĮÐµÑĢÐ°": 7724,
      "ĠÑģÑĥÑīÐµÑģÑĤÐ²Ð¾Ð²Ð°Ð½Ð¸Ñı": 7725,
      "ĠÐ²Ð½ÑĥÑĤÑĢÐµÐ½Ð½Ð¸Ñħ": 7726,
      "ĠÐ¿Ð¾Ð³Ð¸Ð±ÑĪÐ¸Ñħ": 7727,
      "ĠÐ²ÐµÐ·Ð´Ðµ": 7728,
      "ÑĤÐµÑģ": 7729,
      "Ð¾ÑģÐ»Ð¾Ð²Ð°": 7730,
      "Ð»Ð¾Ð¶ÐµÐ½Ð¸Ñı": 7731,
      "ĠÑģÐ¿Ð°Ñģ": 7732,
      "ĠÐ²Ð´Ð¾Ð»ÑĮ": 7733,
      "ĠÐ³ÑĢÐ°Ð¼Ð¼Ð°ÑĤÐ¸": 7734,
      "ÑĤÐ¸Ð»Ð°": 7735,
      "ÑĤÐ¸Ð»ÑģÑı": 7736,
      "ĠÐºÐ°ÑĤÐ°ÑģÑĤÑĢÐ¾ÑĦÐ°": 7737,
      "ĠÐ¿ÑĢÐ¾ÑıÐ²Ð»Ñı": 7738,
      "ĠÐŀÐ´Ð¸Ð½": 7739,
      "ĠÑĢÐ°Ð·Ð²ÐµÐ´": 7740,
      "ÐĳÑĭ": 7741,
      "ĠÐ½Ð¾ÑĢÐ²ÐµÐ¶": 7742,
      "ĠÑģÐ¾Ð³Ð»Ð°ÑģÐ¸": 7743,
      "ĠÐ¾Ð±Ð½Ð°ÑĢÑĥÐ¶Ð¸": 7744,
      "ĠÑįÐ»ÐµÐºÑĤÑĢÐ¾Ð½Ð½Ð¾Ð¹": 7745,
      "ĠÐ²ÐµÐ½Ð³ÐµÑĢ": 7746,
      "ĠÐ½ÐµÐ´ÐµÐ»Ñİ": 7747,
      "ĠÐ½Ð°ÑĪÐ¸": 7748,
      "ĠÐŁÐ¾ÑĤ": 7749,
      "Ġ160": 7750,
      "Ġ1903": 7751,
      "Ġ2023": 7752,
      "Ġnum": 7753,
      "ĠÐ¼Ð°ÑĢÐºÐµÑĤÐ¸Ð½": 7754,
      "Ð»ÑıÐµÑĤÑģÑı": 7755,
      "ĠÐ¿ÑĢÐµÑĤÐµÐ½": 7756,
      "ÑģÑĤÐ²ÐµÐ½Ð½ÑĭÐ¼Ð¸": 7757,
      "ĠÐ¼Ð°ÑĤÑĮ": 7758,
      "ĠÐ°ÑĢÑħÐµ": 7759,
      "ĠÐ¾Ð¿Ð¸ÑģÐ°Ð½Ð¸Ðµ": 7760,
      "ĠÐľÐµÐ½Ð´ÐµÐ»Ðµ": 7761,
      "TP": 7762,
      "ÑĤÐ¸Ð¼": 7763,
      "Ð¾Ð»ÑĮÑĪÐµ": 7764,
      "ĠÐ¸Ð·Ð´Ð°": 7765,
      "ĠÐĿÐ°Ðº": 7766,
      "ÐŁÐ¾ÑĤÐ¾Ð¼Ñĥ": 7767,
      "Ġ400": 7768,
      "ĠÐ¼Ð°ÑģÑģÑĭ": 7769,
      "ĠÐ·Ð°ÐºÐ¾Ð½Ñĭ": 7770,
      "62": 7771,
      "pt": 7772,
      "ÑĥÑį": 7773,
      "ÑıÐ½Ðµ": 7774,
      "ĠÐ²Ð²Ð¸Ð´Ñĥ": 7775,
      "ĠÑģÐ¼Ñĭ": 7776,
      "ĠÐ»ÐµÑĤÐ°": 7777,
      "ĠÐ¸Ð·Ð´Ðµ": 7778,
      "ÐŀÐ¿ÑĢÐµÐ´ÐµÐ»Ð¸ÑĤÐµ": 7779,
      "ĠÐ¾Ð±ÑīÐµÑģÑĤÐ²ÐµÐ½Ð½Ð¾Ð³Ð¾": 7780,
      "ĠÐ¿Ð¾ÐºÐ¸Ð½Ñĥ": 7781,
      "ĠÑĢÐµÐ·ÑĥÐ»ÑĮÑĤÐ°ÑĤÐ¾Ð²": 7782,
      "ĠÐ²Ð¾ÐµÐ½Ð½ÑĭÐµ": 7783,
      "rom": 7784,
      "ĠÐ´Ð¾Ð¼Ðµ": 7785,
      "ĠÑģÐ¿Ð¸ÑĢ": 7786,
      "ĠÐ²Ð·ÑıÐ»": 7787,
      "ĠÐ°Ð²ÑģÑĤÑĢÐ¸Ð¹ÑģÐºÐ¸Ð¹": 7788,
      "ĠÑģÑĩÐ°": 7789,
      "ĠÑģÑĦÐµÑĢ": 7790,
      "ĠÐ¼Ð¾Ðµ": 7791,
      "ÑģÑĤÐ¸ÐºÐ¸": 7792,
      "ĠÐĶÐ°Ð½": 7793,
      "ÐŀÐ½Ð¸": 7794,
      "Ð¢Ð¾Ð»ÑĮÐºÐ¾": 7795,
      "ĠÐ³ÑĢÐ°Ð¶Ð´": 7796,
      "ĠÐ±ÐµÑģÑģ": 7797,
      "ĠÐ¿Ð¸ÑĪÐµÑĤ": 7798,
      "61": 7799,
      "ĠZ": 7800,
      "ÐµÑģÑĤÑĮ": 7801,
      "ÑĢÐ¾Ð»": 7802,
      "Ð·ÐµÐ½": 7803,
      "ĠÐ¼Ð°Ð»ÑĮ": 7804,
      "ĠÐ¡ÐµÐ½": 7805,
      "ÑĢÑĥÐ³Ð°": 7806,
      "ĠÐ¿ÑĢÐµÐ´ÑģÐºÐ°": 7807,
      "ĠÑģÐ¸Ð»Ð°Ð¼Ð¸": 7808,
      "ĠÐ¼Ð¾ÑģÑĤ": 7809,
      "Ð¾Ð¶Ð´ÐµÐ½Ð¸Ð¸": 7810,
      "ĠÑĩÐµÑĪ": 7811,
      "ĠÑģÑĩÐ¸ÑĤÐ°ÐµÑĤ": 7812,
      "ĠÐ³ÐµÐ¾Ð¼ÐµÑĤ": 7813,
      "ĠÐ¿ÑĥÐ±Ð»Ð¸ÐºÐ°": 7814,
      "ĠÐ±ÑĥÐºÐ²Ñĭ": 7815,
      "ĠÐĲÐ²Ð³ÑĥÑģÑĤ": 7816,
      "pe": 7817,
      "ĠÐ´Ð¾Ñģ": 7818,
      "ĠÐ¾ÑĤÐ·Ñĭ": 7819,
      "ĠÐ¿ÑĢÐ¸ÐºÐ»Ñİ": 7820,
      "ĠÐĳÐ¾Ð»ÐµÐµ": 7821,
      "ĠÐ¿Ð¾Ð»ÑĳÑĤÐ°": 7822,
      "ĠÐºÐ¾Ð½ÑĨÑĥ": 7823,
      "ĠÐ²Ð¾ÑģÐ¿ÑĢÐ¸Ð½Ð¸Ð¼Ð°": 7824,
      "ĠVII": 7825,
      "ĠÑĢÐ°ÑģÐ¿ÑĢÐ¾ÑģÑĤÑĢÐ°Ð½ÐµÐ½Ð¸Ðµ": 7826,
      "ĠÐ¿Ð¾ÑħÐ¾Ð¶Ðµ": 7827,
      "ÑĤÐ¾ÑĢÐµ": 7828,
      "ĠÑĢÐ°ÑģÑĤÐ²": 7829,
      "ĠÐľÐ¾Ð¶ÐµÑĤ": 7830,
      "ÐĿÐ°Ð¹": 7831,
      "ÑĥÑĩÐµÐ½Ð¸Ðµ": 7832,
      "ĠÐ½Ð°Ð¿Ð¾Ð»": 7833,
      "ĠÐ²Ð½ÐµÐ´": 7834,
      "ĠÑģÐµÐ¼ÑĮÑı": 7835,
      "ĠÐ¡Ð²ÑıÑĤÐ¾Ð³Ð¾": 7836,
      "Ð±Ð¾Ð»": 7837,
      "ĠÑģÐ¾ÑĨÐ¸Ð°Ð»Ð¸ÑģÑĤÐ¸": 7838,
      "ĠÐ§ÑĳÑĢ": 7839,
      "ĠÑĤÐ¸Ð¿Ð¾Ð²": 7840,
      "ĠÑģÐµÑĢÐ´": 7841,
      "ĠÐŁÐµÑĤÑĢ": 7842,
      "ĠâĢĭ": 7843,
      "ĠÐºÑĥÑĢÑģÐµ": 7844,
      "ĠÑĢÐ°ÑģÐ¿Ð¾Ð»Ð¾Ð¶ÐµÐ½Ñĭ": 7845,
      "ult": 7846,
      "ĠÐ½ÑĭÐ½ÐµÑĪ": 7847,
      "ĠÐ·Ð½": 7848,
      "ÑįÐ»ÐµÐºÑĤ": 7849,
      "ĠÐ¾Ð±ÑīÐµÐ½Ð¸Ñı": 7850,
      "ĠÐ¾ÑĤÑĢÐ°Ð¶Ð°": 7851,
      "ĠÑĢÐ°Ð·Ð´ÐµÐ»Ñı": 7852,
      "Ð»ÐµÐ½Ð½Ð¾Ðµ": 7853,
      "ÑģÑĤÑĢÐ°Ð»Ð¸Ð¹": 7854,
      "ĠÐľÐ¾ÑģÐºÐ²Ñĥ": 7855,
      "ill": 7856,
      "ĠâĢĭâĢĭ": 7857,
      "54": 7858,
      "ĠÐ¸Ð´": 7859,
      "ĠÑįÑĦÐ¸": 7860,
      "ĠÐ»Ð¾Ð´": 7861,
      "ĠÑĪÑĤÑĥ": 7862,
      "ĠÐķÑīÑĳ": 7863,
      "ĠÐ´Ð°ÑĳÑĤ": 7864,
      "ĠÐłÐ¾ÑģÑģÐ¸ÐµÐ¹": 7865,
      "ĠÐ¸Ð´ÐµÑı": 7866,
      "ĠÐ¿Ð°ÑĢÐ»Ð°Ð¼ÐµÐ½ÑĤÐ°": 7867,
      "ĠÐ½Ð°ÑĩÐ¸Ð½Ð°ÐµÑĤ": 7868,
      "ĠÑĩÐ¸ÑĤÐ°ÑĤÑĮ": 7869,
      "ĠÐ±Ð¸ÑĤÐ²Ð°": 7870,
      "ĠÐ¿Ð¾Ð·Ð´Ð½ÐµÐµ": 7871,
      "ĠÐŁÐ°Ð¼ÑıÑĤ": 7872,
      "Ġ^": 7873,
      "ĠÐ¾ÐºÑĢÐ°": 7874,
      "ĠÐ³ÑĢÐ°Ð´Ñĥ": 7875,
      "ĠÑģÐµÐ¼ÑĮ": 7876,
      "ĠÐ²Ð¾Ð·Ð´ÑĥÑħ": 7877,
      "ĠÑģÐ¾Ð¾ÑĤÐ²ÐµÑĤÑģÑĤÐ²ÑĥÐµÑĤ": 7878,
      "ĠÐ²Ð¸Ð·Ð°Ð½ÑĤÐ¸Ð¹": 7879,
      "ĠÐ¸Ð»Ð»Ñİ": 7880,
      "ĠÐ²ÑħÐ¾Ð´ÑıÑĤ": 7881,
      "ĠÐ½Ð°ÑĪÐ¸Ñħ": 7882,
      "ÑĦÐ¸Ð½": 7883,
      "ĠÐ¿ÑĢÐ¾ÑīÐµ": 7884,
      "ĠÐ§ÐµÑĢÐµÐ·": 7885,
      "Ġ1952": 7886,
      "ĠÐ¿ÑĢÐ¸Ð½ÑıÑĤÑĮ": 7887,
      "ĠÐ³Ð»Ð°Ð²Ð½Ð¾Ðµ": 7888,
      "ĠÐºÐ½Ð¸Ð³Ñĥ": 7889,
      "ĠÐĿÐ¾ÑĢÐ²ÐµÐ³Ð¸Ð¸": 7890,
      "++": 7891,
      "ĠÐ´Ð¾Ð¼Ð¸": 7892,
      "ĠÐŁÐ»Ñĥ": 7893,
      "Ð¾ÐºÑģÐ¸": 7894,
      "ĠÐ¾ÑĤÑĢÐµ": 7895,
      "ĠÐ¿Ð¾Ð²Ð¾Ð´Ñĥ": 7896,
      "Ð¿Ð¾ÑģÑĤ": 7897,
      "ĠÐĿÐ¸ÐºÐ¸": 7898,
      "ĠÑĤÑĭÑģÑıÑĩÐ¸": 7899,
      "ĠÑħÐ¾ÑĩÐµÑĤ": 7900,
      "Ð²Ð°Ð½Ð¸Ð¸": 7901,
      "Ð¿Ð¾Ð»ÑĮ": 7902,
      "ÑĤÐ°ÑĤÑĮ": 7903,
      "ĠÐĳÐ¾Ñģ": 7904,
      "ÐļÐ¸": 7905,
      "ĠÐ²ÑĢÐµÐ¼ÑĳÐ½": 7906,
      "ĠÐ¿Ð°ÑĢÐº": 7907,
      "ĠÐ²Ð¾Ð´Ð¾Ð¹": 7908,
      "ĠTh": 7909,
      "ĠÐ²Ð¾Ð¿ÑĢÐ¾ÑģÐ¾Ð²": 7910,
      "ĠÐ¸Ð³ÑĢÐ¾Ðº": 7911,
      "ĠÐ·Ð°Ð´Ð°ÑĩÐ°": 7912,
      "Ð²ÐµÐ¹ÑĨÐ°": 7913,
      "ĠÑģÐ¾Ð²ÐµÑĢÑĪÐµÐ½Ð½Ð¾": 7914,
      "Ð³ÑĢÑĥÐ¿Ð¿Ñĭ": 7915,
      "ĠÑģÐ½Ð¸Ð·Ð¸ÑĤÑĮ": 7916,
      "ĠÑģÑĦÐµÑĢÐµ": 7917,
      "Ð±ÑĥÑģ": 7918,
      "ĠÑĥÐ²Ð¸Ð´ÐµÑĤÑĮ": 7919,
      "ĠÐ´ÐµÑĪÐµÐ²": 7920,
      "ÐĺÐ»Ð¸": 7921,
      "ĠÐ¸Ð¼ÐµÐ»Ð¸": 7922,
      "ĠÐ¶Ð¸Ð²ÑĥÑĤ": 7923,
      "ĠÐ¿Ð¾Ð½ÑĢÐ°Ð²Ð¸": 7924,
      "ĠÑģÐ¾Ð·Ð´Ð°ÑĤÐµÐ»ÑĮ": 7925,
      "Ð¾ÐºÑĥÐ¿": 7926,
      "ĠÐ·Ð°Ð³ÑĢÑıÐ·": 7927,
      "ĠÐºÐµÐ¼": 7928,
      "ĠÐºÑĥÐ±": 7929,
      "ĠÐºÐ»Ð°Ð´": 7930,
      "ÐļÐĲ": 7931,
      "ÐŀÑģ": 7932,
      "ĠÐ´Ð¾Ð»Ð³": 7933,
      "ÑĩÐ¸ÑĤÐ°ÑĤÑĮ": 7934,
      "ÑģÐ¾ÑİÐ·": 7935,
      "ĠÐ³Ð°Ð·Ð¾Ð²": 7936,
      "ĠÐ¸Ð³ÑĢÐ°ÐµÑĤ": 7937,
      "ĠÐļÐ¾Ð¼Ð¿": 7938,
      "ĠÐ·Ð´Ð¾ÑĢÐ¾Ð²ÑĮÐµ": 7939,
      "Ð¾Ð»Ð¾ÑĤÐ¾Ð¹": 7940,
      "ĠÑĢÐµÑĦÐµÑĢÐµÐ½Ð´Ñĥ": 7941,
      "ĠÑĨÐµÐ»Ðµ": 7942,
      "ĠÐ»ÐµÑĤÐ¾Ð¼": 7943,
      "ĠÐ¿Ð¾ÑĩÑĤÐ¾Ð²": 7944,
      "ĠÐ½Ð°ÑģÐµÐ»ÑĳÐ½": 7945,
      "ĠÑģÑĥÑīÐµÑģÑĤÐ²Ð¾Ð²Ð°Ð½Ð¸Ðµ": 7946,
      "ĠÑĢÐ°ÑģÑģÐ¼Ð¾ÑĤ": 7947,
      "ĠÐĵÐ°Ð³Ð°": 7948,
      "Ð¾Ð·Ð°Ð¸Ðº": 7949,
[...]
